#version: 0.2
h e
Ġ t
Ġ a
Ġ s
Ġ w
n d
Ġt he
e d
Ġa nd
Ġt o
Ġ b
i n
Ġ h
Ġw a
r e
Ġ f
o u
i t
Ġ T
Ġ l
Ġ c
Ġ d
e r
Ġ he
Ġ m
Ġ p
Ġwa s
o m
Ġ o
a y
ĠT he
a r
i s
in g
i l
Ġ g
i d
Ġ S
a t
e n
Ġ n
Ġs a
Ġh a
a n
i m
o r
o n
Ġ it
Ġ H
Ġt h
l l
l e
Ġ "
Ġhe r
ĠS he
o t
e t
i r
ĠH e
ĠThe y
e s
Ġ in
v er
u t
o w
c k
Ġ L
Ġ e
Ġ u
l d
il y
Ġ y
o o
Ġsa id
i g
Ġ r
a m
Ġb e
Ġs t
Ġ I
c e
Ġs he
k e
p p
it h
v e
Ġw ith
O n
ĠL ily
Ġo n
Ġo f
r i
k ed
Ġh is
Ġy ou
Ġp l
Ġs o
n t
ver y
a d
Ġd ay
Ġ B
Ġth at
Ġu p
Ġpl ay
Ġha d
Ġthe y
s t
Ġw e
Ġm om
Ġf or
e l
m y
ou ld
u n
Ġ M
' s
Ġl i
Ġha pp
c h
en t
it t
Ġwa nt
he r
Ġs h
ou t
Ġd o
Ġn ot
Ġ very
om e
l y
a ll
ou nd
e nd
itt le
im e
s e
Ġw h
Ġ k
Ġl ittle
Ġt ime
Ġthe re
a l
Ġn e
h t
Ġhapp y
Ġb ig
Ġ re
Ġ A
ĠI t
Ġ is
Ġs m
Ġb ut
Ġ Ġ
r a
Ġsa w
ri end
Ġf riend
Ġa n
r y
Ġa s
a ck
. "
On e
id e
ĠT im
a ke
' t
v ed
t er
u g
On ce
Ġl o
Ġl oo
Ġwe re
Ġ One
o re
! "
e c
Ġh im
Ġb o
Ġto o
Ġs e
Ġg o
Ġ J
ir l
Ġup on
Ġwant ed
Ġ j
ar d
Ġg irl
il l
Ġa re
Ġthe m
Ġ out
Ġa t
Ġthe ir
i nd
Ġs p
w ay
f u
Ġd id
u r
Ġc ould
he n
ĠB en
Ġsm il
a in
ĠT om
Ġha ve
ar t
Ġw ent
he d
Ġe x
r om
i c
r ound
l p
Ġ W
Ġn am
Ġc an
fu l
Ġfriend s
h ing
Ġhe lp
ĠB ut
Ġk n
Ġa ll
oo d
ig ht
? "
u m
ĠTim my
ar k
on e
Ġb ack
Ġf un
Ġc l
a re
Ġs ay
Ġl e
Y ou
Ġnam ed
Ġn o
Ġlo ved
o p
el t
ou g
Ġa l
Ġs c
s ide
Ġf elt
Ġto y
i ck
Ġsmil ed
Ġm an
Ġf e
Ġas ked
Ġse e
am e
Ġloo ked
Ġli ke
Ġa round
Ġs ome
om et
u re
Ġr o
Ġbo y
Ġb r
g et
Ġw ould
Ġm e
Ġb ir
on g
i ce
Ġst art
s s
Ġs omet
Ġbir d
ing s
Ġf a
Ġw or
Ġa g
ad e
Ġm ake
Ġwh at
Ġt re
d d
k ing
get her
ow n
Ġa way
Ġr an
a g
Ġstart ed
, "
Ġ You
ou d
Ġm ade
ar ed
i e
Ġto gether
Ã ¢
â Ĥ
âĤ ¬
ĠM om
Ġc o
Ġsay s
Ġp ark
Ġsomet hing
i f
Ġc ar
t her
it ed
Ġsa d
Ġp ut
Ġne w
Ġo ther
Ġp r
Ġ E
Ġ F
b le
Ġag ain
Ġf rom
Ġex c
Ġh ug
Ġm u
Ġh ome
Ġl a
e ll
Ġw hen
Ġwh o
oo k
Ġg ood
es t
ri ed
Ġf ound
Ġthe n
a ch
e p
Ġd ec
Ġf l
pp ed
Ġc h
a s
Ġplay ing
oug ht
Ġwa l
Ġg et
q u
all y
h at
Ġth ings
Ġs w
u ck
Ġg ot
p l
ou s
Ġli ked
n n
Ġe very
Ġdec id
Ġexc ited
a ve
Ġ D
ĠS u
Ġdecid ed
r o
Ġc ame
a x
Ġb l
Ġbe c
Ġd own
Ġyou r
ĠS am
Ġf ind
Ġc are
Ġdo g
u st
Ġsc ared
Ġon e
Ġfe el
Ġ v
Ġth an
is t
ou se
n y
Ġd ad
a p
Ġa b
ar n
ar a
way s
Ġdid n
nn a
Ġg ra
Ġm y
ĠM ax
Ġal ways
an t
Ġtoo k
er s
Ġ ke
Ġmom my
es s
f e
Ġab out
ou r
Ġl ot
Ġtoy s
Ġtre e
Ġp o
Ġkn e
Ġb all
Ġloo k
Ġw ill
nd er
Ġout side
it e
ĠS o
Ġth ought
ec i
Ġb u
en ed
Ġt a
Ġle arn
b b
is e
c hed
ĠW hen
Ġm ore
Ġp re
Ġkn ow
Ġh o
Ġin t
Ġp u
g ed
ĠA nna
eci al
Ġsp ecial
Ġo ld
Ġt ake
Ġs or
ĠH er
ĠS ara
Ġla ug
Ġp e
Ġkne w
a u
i ve
Ġc at
m a
f ter
Ġh ow
Ġan y
dd en
Ġsh ow
Ġt r
Ġmu ch
i a
dden ly
ĠE very
Ġsor ry
a nd
Ġs l
in k
is h
Ġr un
Ġh ouse
Ġt w
v en
ĠJ o
Ġto ld
Ġo r
Ġs k
Ġo p
Ġha nd
ĠJ ack
Ġs un
Ġin side
Ġg ave
Ġt ried
Ġm o
Ġcl o
Ġint o
he re
Ġwa ter
Ġpr oud
an k
Ġcould n
Ġo ver
Ġ qu
au se
at e
Ġne ver
um p
t y
ot her
Ġ en
Ġe at
Ġ if
a ce
Ġro om
Ġplay ed
et ter
Ġhe ard
g e
Ġex pl
ĠF rom
Ġe ach
Ġp ick
Ġpre t
i on
Ġth is
b y
ĠW e
d y
a k
Ġbec ause
ĠSu ddenly
Ġhug ged
Ġst r
Ġc om
Ġwa t
Ġg re
Ġbo x
ĠThe n
Ġj ust
Ġn ice
il e
ot h
u e
Ġne ed
ĠH is
i z
Ġj o
Ġof f
Ġman y
Ġl ong
ĠA nd
Ġbe ar
Ġsm all
Ġf o
s ed
ĠM ia
v ing
Ġs n
oug h
Ġlearn ed
' m
or t
in e
Ġu nt
u c
im al
Ġan imal
g ry
Ġt ry
Ġb etter
il d
s el
Ġunt il
Ġlo ve
ur t
f t
Ġ C
Ġ im
e m
Ġd re
Ġe nd
Ġk ind
Ġc all
Ġc le
b er
Ġfl ow
Ġa d
Ġb est
ur n
v ent
a ut
ar s
Ġf i
ad y
Ġcare ful
Ġsk y
Ġfa st
Ġg r
v es
Ġthan ked
Ġe ven
Ġbe aut
Y es
Ġb ra
ur p
ard en
Ġg arden
Ġd on
p t
ll y
Ġc he
Ġc u
Ġt e
Ġb y
sel f
Ġlot s
i es
in y
Ġg l
Ġl oud
Ġlaug hed
Ġf am
Ġj ump
a se
Ġ Ã¢
Ġbeaut i
le w
Ġl ist
Ġst ill
w n
Ġbeauti ful
T h
r m
Ġh ard
Ġwa y
Ġc ome
Ġh urt
Ġw o
Ġanimal s
c t
Ġr a
s h
a st
he s
Ġco l
Ġu nder
Ġre m
Å ĵ
n ing
Ġsa fe
Ġst ay
ec t
ĠA s
Ġ P
b e
Ġl et
Ġli ved
Ġb oth
oo l
ĠA fter
op le
Ġim p
Ġbra ve
Ġfam ily
Ġit s
k ay
Ġb ad
o b
Ġd an
Ġr ed
Ġst or
is hed
Ġb ook
an e
Ġtw o
Ġf in
re e
Ġpe ople
Ġs u
uc y
Ġsh ould
urp r
o ck
Ġcall ed
Ġf lew
Ġf ly
I t
Ġp ic
ĠL ucy
ig h
Ġwal ked
Ġs urpr
Ġan gry
Ġso on
Ġf ore
Ġdo ll
x t
l ed
Ġke pt
Ġcle an
Ġsh are
f ore
is ed
Ġro ck
Ġpret ty
N o
ĠJo h
Ġd ra
Ġgo ing
i p
Ġdo or
L et
Ġc on
Ġke ep
Ġg round
Ġsh iny
Ġop ened
dd ed
Ġad vent
um my
Ġre al
Ġn ow
Ġw ind
Ġ G
Ġc ry
il ly
Ġexpl ore
ag e
Ġc re
Ġst o
Ġ ide
Ġbe fore
Ġno ise
Ġf r
Ġcol or
Ġt urn
ar y
le s
s o
Ġf ar
t ure
âĤ¬ â
Ġal so
Ġpick ed
Ġfeel ing
i ed
Ġwh ile
Ġe y
Ġide a
im b
ĠD ad
Ġcl imb
Ġne xt
f f
t hing
Ġb ed
Ġu n
Ġw r
o y
ĠB ob
e et
Ġth r
Ġha s
W hat
Ġwal king
Ġsmil e
Ġpic ture
g er
ic ed
Ġtr uck
Ġno dded
Ġadvent ure
t h
ĠMom my
Ġm a
ay be
ĠJoh n
Ħ ¢
âĤ¬â Ħ¢
k es
Ġbe ing
em ber
t ed
Ġ N
Th ank
i ous
j oy
a c
Ġclo s
t ing
Ġg ive
ĠS p
Ġf ood
Ġt ra
Ġloo king
Ġwa it
Ġlist en
Ġsto pped
T hat
Ġbl ue
iz ed
Ġ R
ug ht
Ġto w
Ġrem ember
Ġb re
Ġd if
Ġa fter
Ġbr o
Ġhand s
Ġnot iced
Ġth ink
ma z
Ġey es
Ġa maz
Ġd el
Ġwal k
a ble
Ġqu ick
Ġo wn
Ġen joy
Ġfore st
Ġd is
Ġsl ide
Ġgre at
Ġe ver
Ġshow ed
Ġre pl
Ġwat ch
ir st
Ġstr ong
Ġflow ers
Ġa pp
bb it
Ġevery one
Ġimp ort
Ġwo nder
Ġr ain
Ġf ish
Ġwor k
ll ow
L ily
Ġv o
Ġa c
Ġt al
Ġbo at
Ġne ar
Ġst ick
Ġas k
Ġo kay
Ġhe ad
Ġimport ant
Ġw here
Ġsh out
Ġme an
o on
ĠSu e
Ġra bbit
g an
Ġr ight
Ġpl ace
Ġu s
by e
Ġs ound
bb ed
Ġr u
Ġquick ly
Ġy ell
Ġfo llow
Ġrepl ied
Ġu se
Ġbr ight
le ase
Ġwat ched
Ġdre ss
Ġd e
ĠSp ot
fe re
an ge
Ġbec ame
Ġto u
d ay
Ġdif fere
at h
Ġm or
er ed
Ġa r
c o
Ġs ure
nd ma
Ġc ake
W e
Ġch ild
Ġh igh
Ġcu ri
Ġbe en
Ġm ag
ou nt
Ġst ore
Ġ our
Ġwa rm
Ġy e
a ught
Ġs qu
Ġh op
Ġfa ce
Ġgood bye
Ġfor g
m ore
Ġdiffere nt
Ġany more
ĠJ ane
Ġclos er
Ġdo es
ĠT h
L ook
le ep
n g
Ġcuri ous
Ġc ook
Ġt ell
Ġa m
Ġvo ice
Ġn ight
it c
il a
im es
ĠSara h
Ġp ain
Ġbe l
ir ed
Ġbut ter
Ġop en
a ched
Ġfa v
e y
a ss
Ġhelp ed
Ġf irst
Ġfe ll
u ll
ĠEvery one
Ġcon t
Ġhapp ened
Ġ z
Ġle a
Ġth ree
Ġse es
is s
C an
Ġk itc
Ġkitc hen
Ġpu ll
Ġfi re
Ġfl o
Ġbird s
Ġbl ock
Ġgra bbed
Ġsw eet
Ġstor y
Ġhe re
Ġon ly
Ġk id
Ġbr other
Ġd r
Ġsa nd
un ny
Ġgl ad
Ġb it
Ġgra ss
Ġreal ized
pp y
at er
Ġjump ed
ĠI n
or n
Ġbe h
Ġm on
Ġp er
M om
Ġdra w
Ġst op
Ġre ached
ĠD o
Ġc ra
Ġs ing
in s
ĠT hat
Ġha ving
Ġc r
Ġm ess
z y
nt s
Ġre st
Ġb a
Ġthr ough
Ġt ri
Ġpr in
a ir
Ġat e
Ġso ft
Ġl ess
Ġp ap
is y
Ġre ady
Ġy ummy
w here
Ġwor ld
' re
Ġh at
ĠL ila
ak es
Ġg ame
Ġfi x
ĠL et
Ġre ally
Ġl ady
Ġshout ed
Ġp are
Ġfav or
Ġbe gan
Ġfavor ite
Ġhim self
Ġunder st
Ġc ut
Ġt ired
Ġmag ic
Ġd uck
fu lly
Ġpret end
k en
Ġu sed
Ġm um
Ġta st
at her
Ġbutter f
u ff
Ġth ing
Ġd one
Ġwor ry
Ġcom ing
ig n
Ġma king
ill ed
Ġcat ch
ĠC an
Ġkid s
Ġfun ny
Ġnam e
ed dy
W ow
Ġse en
ĠF in
st er
Ġpo nd
Ġlook s
Ġcar s
Ġc ried
ĠJo e
Ġf ro
Ġst e
Ġan other
i ent
ĠS ally
Ġto p
Ġwh y
Ġp rom
o lly
Ġwa ved
Ġflow er
Ġb ag
Ġp art
Ġb unny
Ġha ir
Ġpare nts
Ġtou ch
b o
ard s
Ġpap er
Ġg i
Ġd in
D on
Ġl ight
Ġgre en
Ġd ri
Ġc ool
Ġdel ic
Ġd ro
Ġless on
ĠBen ny
Ġho le
Ġsw im
Ġtre es
i ver
Ġsurpr ise
Ġyell ow
Ġremember ed
Ġbeh ind
Ġflo or
one y
Ġho ld
el y
h y
u ed
Ġwor ked
m er
T om
Ġf ull
Ġthan k
Ġrun ning
re l
Ġho pped
at ion
Ġs leep
and y
Ġw ished
Ġsp ot
Ġsm ell
Ġs et
i ke
Ġblock s
Ġco ld
u s
Ġlo st
Ġs at
Ġhapp ily
Ġre ad
Ġwe ar
Ġdo ing
Ġneed ed
Ġdre am
Ġd ark
Ġm ouse
Ġst re
Ġb ow
a isy
Ġw ood
Ġsl ow
Ġlaug h
re n
ĠE m
Ġbutterf ly
Ġsh o
Ġcare fully
ĠA t
Ġt all
Ġye ars
Ġle ft
Ġ -
Ġli kes
Ġsurpr ised
Ġh ill
Ġwind ow
Ġfro g
Ġsw ing
ĠTom my
Ġenjoy ed
Ġhe ld
Ġfin ished
Ġsn ow
Ġhe ar
Ġmo ve
Ġbu y
en s
" .
Ġwr ong
Ġ ice
Ġper f
in ed
Ġfollow ed
Ġa ir
ĠFin ally
Ġar ri
Ġli on
u l
Ġ K
Ġfa ir
Ġher self
ĠN ow
Ġh id
Ġany thing
Ġcont in
H ell
Hell o
Ġh un
Ġclo se
Ġd ir
Ġchild ren
Ġb ug
Ġfriend ly
c ess
Ġc ast
Ġre l
Ġta ble
as ure
s y
Ġbu ild
Ġa rm
Ġwonder ful
Ġforg ot
ĠD aisy
Ġm ight
Ġarri ved
ĠT o
d s
ie ld
Ġunderst and
Ġdelic ious
Ġag re
ĠB illy
Ġe l
Ġt ight
Ġh ot
ro ss
Ġp lease
Ġcolor s
Ġgra ndma
Ġsome one
n er
Ġs ong
Ġc ount
Ġbook s
ĠThe re
ĠJ en
Ġf illed
Ġg one
ĠG ra
Ġcontin ued
Ġbro ken
Ġa ble
Ġlea ves
Ġsc re
Ġg ent
a v
Ġel se
s p
ĠJ im
Ġwant s
Ġcre at
as k
ĠTh is
Ġv is
Ġwa ll
l f
s hed
Ġy es
Ġba by
uff y
Ġp ink
at ter
Ġbre ak
ro om
m an
i ch
Ġpo in
g on
Ġamaz ing
Ġg u
' ll
ri es
Ġm ar
ĠM aybe
Ġget ting
ic y
Ġen ough
Ġpicture s
Ġf ight
O K
Ġwh ite
ou p
Ġcom p
ĠM olly
Ġcast le
Ġdin ner
Ġagre ed
r ow
ir rel
Ġmu s
Ġmom ent
Ġm other
Ġstay ed
Ġf all
as h
Ġmor ning
Ġcook ies
a pp
c ed
Ġsc ary
Ġtry ing
ĠA my
Ġfin ally
Ġclimb ed
Ġf ur
Ġsomet imes
Ġsa il
Ġother s
Ġw et
Ġp i
Ġj u
Ġsmil es
Ġhun gry
ct or
Ġsqu irrel
Ġtal k
en ce
on s
Ġcl ot
Ġm et
Ġclot hes
Ġbr ought
am a
a pped
is ter
r ed
o om
e re
Ġturn ed
Ġro ll
Ġperf ect
Ġdad dy
l c
Ġm akes
Ġcre am
Ġfe w
Ġlist ened
or ing
e e
Ġta il
Ġevery thing
an ce
Ġwas n
Ġsp l
Ġstr ange
r ot
Ġse ar
Ġball oon
Ġbe ach
Ġpo l
Ġpu ppy
Ġjo y
Ġs it
at ed
ĠW hat
ow er
Ġr ide
d er
z z
Ġwa ited
Ġsp ark
Ġth re
Ġmus ic
w l
Ġamaz ed
e ver
ĠJ ill
ĠF l
T he
Ġal one
o s
am p
Ġvis it
Ġs illy
Ġdan ger
uck y
Ġt eddy
ke y
ĠSo on
ot t
Ġask s
Ġp et
Ġwood s
op e
Ġde ep
ĠA ll
an g
Ġh ide
et er
Ġgr ow
O h
Ġle ave
Ġs ister
Ġs ide
Ġp ie
ug g
Ġcl oud
am ed
ss ed
Ġfly ing
m ed
Ġl ake
Th is
Ġpull ed
Ġfo x
Ġprom ised
Ġp at
g g
i x
Ġdan ce
Ġtow ards
ec es
Ġtre asure
m e
Ġs ec
Ġf ield
am es
p h
Ġpi eces
is es
Ġpl an
Ġrun s
Ġsh ared
M aybe
Ġbig ger
ck et
ain ed
Ġ ve
Ġw on
Ġthink s
Ġe m
Ġla nd
Ġmor al
th y
B ut
Ġtre at
O kay
Ġown er
Ġli ving
Ġp en
Ġe le
Ġbr an
Ġgr ate
Ġb ott
Ġdoll s
Ġsh ar
Ġc andy
ig g
av y
Ġpart y
Ġevery where
Ġgrate ful
c le
s et
Ġcu p
Ġbl ank
Ġb ike
Ġslow ly
out h
Ġpain t
Ġjo b
Ġsu ch
s w
Ġbel ie
Ġwor ried
Ġm outh
Ġwe lc
Ġjo in
Ġblank et
Ġfast er
Ġpl ant
f ort
re t
ĠM r
u ally
Ġan sw
Ġbro ke
Ġm oney
un ch
l ing
i et
Ġsh ap
Ġg if
Ġre ach
Mom my
Ġmagic al
Ġsn ack
Ġb ar
Ġcolor ful
i re
id ent
u it
Ġhelp ing
as ed
Ġprin cess
Ġdo ctor
Ġch o
Ġr ace
Ġdra gon
Ġac c
Ġr iver
Ġn ap
Ġpr o
Ġs ign
le ss
Ġqu iet
Ġcry ing
or m
i pped
Ġbl ack
z e
Ġmo st
o l
Ġdanger ous
S ure
Ġste pped
Ġtra in
Ġsm art
Ġat t
Ġbow l
Ġfar mer
Ġm ix
Ġp a
Ġhe avy
Ġp ot
Ġmon ster
or ed
Ġst u
Ġj e
m ing
b ble
Ġtw ins
Ġwor ds
ĠM ama
ĠDad dy
e ar
Ġac ross
Ġdir ty
Ġdis app
Ġeat ing
Ġsa me
Ġst uck
Ġclo sed
ĠJ ust
Ġfr uit
Ġthre w
Ġmu st
Ġtow er
ĠEm ma
Ġp ass
Ġwould n
Ġb uck
ck ed
ĠFl uffy
Ġsp r
Ġh ig
Ġw in
Ġacc ident
Ġcr ay
Ġmon key
Ġcar rot
W hy
or d
Ġb ath
Ġhe al
Ġfeel s
Ġte ac
it ing
Ġb ite
e ared
H i
ask et
um b
Ġpu shed
Ġbut t
Ġto wn
ch ool
Ġp ast
Ġb asket
Ġhe art
i pp
Ġhop ed
b r
Ġwith out
Ġh it
ĠM ary
Ġco ll
Ġcl apped
Ġp ack
Ġbelie ve
Ġst and
Ġp ers
Ġfor get
Ġs chool
Ġfair y
ĠGra ndma
Ġche ered
ph ant
Ġbe e
Ġsm o
Ġf ence
Ġl on
ĠJim my
d e
ĠW h
or row
Ġc our
Ġy ard
Ġbr own
Ġch air
Ġdro ve
ra ct
Ġadventure s
Ġno ises
i er
vent ually
Ġhig her
Ġlon ely
Ġele phant
Ġteac her
Ġto day
ĠT w
n ey
Ġpo cket
Ġup set
or s
c y
ve l
Ġturn s
Ġsw ings
Ġgent le
Ġlong er
B en
Ġw ings
Ġwelc ome
Ġg ames
t s
Ġcour se
Ġb en
Ġexpl ained
Ġf ree
Ġne ck
Ġsu ddenly
Ġle g
ĠIn side
Ġj our
e ad
Ġsec ret
Ġst ar
is sed
ount ain
Ġw he
Ġd ry
Ġc orn
Ġs oup
Ġbr ing
Ġsh op
Ġin st
Ġhapp en
Ġne igh
Ġdro pped
Ġpl ac
Ġhug s
y ard
Ġtr ou
Ġpie ce
Ġm in
Ġthr ow
Ġneigh b
Ġ On
A nna
Ġsw am
i ble
Ġstor ies
Ġsa ng
Ġback yard
itt ing
ĠL ater
ĠThe ir
m ent
Ġw ish
Ġrock s
Ġbuck et
Ġwe ll
Ġl ate
e k
Ġn aught
Ġapp le
Ġbel ong
Ġo wl
ĠM um
Ġp h
c hes
Ġnaught y
c es
Ġta king
Ġor ange
Ġal ong
Ġl unch
ock ed
Ġdr ink
fu sed
un g
Ġj ar
Ġexpl oring
Ġex p
Ġc ou
Ġse a
Ġ es
Ġyou ng
b ow
Ġd ist
Ġsee med
Ġsing ing
ou n
Ġsh ook
Ġm at
Ġc a
Ġc aught
Ġmo ved
Ġwa r
Ġnear by
Ġp ig
Ġw ise
Ġke y
ĠTw eet
Ġsho es
Ġst ars
Ġt iny
Ġth ough
Ġwo ke
ĠTh ank
Ġto m
Ġd es
Ġm iss
Ġa f
ll o
Ġ O
Ġma il
a il
Ġbu s
ion s
ver ed
c er
Ġs ick
co l
Ġben ch
Ġcar ry
ap e
Ġrel ie
Ġre sp
Ġn est
ĠA l
Ġshap es
ĠSam my
D o
c ing
itt ens
Ġrain bow
Ġarm s
id ge
Ġbran ch
Ġk ite
Ġm ine
Ġdri ver
Ġju ice
Ġbu sy
Ġta kes
Ġo b
aught er
ra id
Ġaf raid
le t
Ġwonder ed
it ch
Ġm ad
w ard
Ġc ir
Ġs itting
in ing
Ġc ow
Ġm ark
es e
Ġm il
ck s
Ġstre et
Ġcom es
Ġin v
Ġaccident ally
Ġr ound
h o
Ġno se
Ġdis co
Ġk ing
Ġ 3
Ġfore ver
Ġye ar
Ġfar m
Ġwh ist
Ġb and
Ġpe ace
Ġd aughter
Ġli ft
Ġsound s
st ing
Ġgif t
t o
Ġe gg
Ġcut e
bb y
th day
T im
b all
Ġexc iting
ad ow
Ġco zy
Ġf it
it y
Ġl etter
Ġp urp
Ġco at
Ġw ra
Ġb oun
Ġp ower
our s
Ġrelie ved
Ġhe llo
Ġnot hing
Ġpat ient
Ġint ere
Ġhold ing
Ġlaug hing
Ġhug e
Ġjour ney
pp ing
Ġm ist
sh ine
Ġim ag
S ara
Ġsp oon
Ġswim ming
Ġg igg
itt en
Ġmil k
Ġday s
Ġsun shine
Ġli fe
Ġcom fort
Ġf ing
Ġpurp le
g ged
Ġl ater
ĠC ome
Ġtou ched
Ġinst ead
Ġa ct
Ġbir thday
O f
ir t
et h
Ġro ad
Ġche ese
Ġin c
ĠW ith
f ish
Ġe ar
Ġsun ny
p ed
u nt
al m
Ġre t
Ġgi ves
Ġsear ched
n ess
Ġb ought
Ġf an
Ġbre ad
Ġpoin ted
Ġany one
Ġon to
Ġbott le
bo ard
o se
Ġpre s
Ġduck s
iz e
Ġstor m
s c
Ġhop e
Ġret urn
Ġl ucky
Ġpl ane
Ġtast y
Ġc ave
ĠJen ny
Ġcreat ure
Ġwatch ing
ble m
Ġgra b
H ey
ĠM ittens
Ġpu dd
Ġpro blem
Ġc e
Ġsmil ing
ĠE ll
nd p
Ġr ope
ĠS omet
Ġk ick
Ġsp o
Ġcray ons
Ġshe ll
Ġe as
Ġshar p
a ur
Ġsp id
el s
Ġme et
Ġprom ise
Ġsnow man
Ġpers on
Ġh oney
Ġdan ced
o nd
Ġpu zz
ep end
Ġintere sting
t en
Ġtal ked
Ġsand w
Ġbutt on
Ġqu est
Ġcoll ect
Ġbu sh
o g
o ve
Ġz oom
Ġtrou ble
Ġw ide
Ġc ard
Ġk iss
itt y
Ġsmell ed
Ġsp in
Ġpres ent
Ġ ent
Ġa p
Ġlove ly
Ġapp les
Ġp ract
ĠC h
Ġad m
Ġwr ite
Ġgi ant
Ġheal thy
on t
Ġcloud s
Ġp ill
Ġsh ining
Ġg ather
iz z
Ġp ar
um ber
Ġroll ed
is a
Ġche er
Ġplac es
Ġfr ont
ndp a
G ood
Ġput s
ow ed
Ġwh ich
Ġlo ves
Ġsa f
Ġv ill
ĠEm ily
Ġs ur
Ġp ath
ĠH ow
Ġspot ted
u b
Ġt un
Ġh on
Ġwor m
Ġimp re
Ġcle ver
Ġsh r
Ġor gan
ĠR e
Ġmy ster
b ar
Ġl ay
Ġm atter
Ġfe ather
u p
Ġtast ed
ĠTo gether
Ġw ild
Ġe ag
Ġz oo
Ġm ed
Ġtri p
Ġpr ot
Ġresp ect
e en
Ġb ark
Ġd i
Ġh or
Ġcou ch
Ġs uc
Ġth in
Ġp op
Ġwho le
ch ing
Ġfo ot
Ġprot ect
er ly
ĠS t
Ġas leep
Ġp ile
Ġsp ent
ul ar
Ġbuild ing
Ġdir t
ce an
Ġo cean
Ġl ad
Ġkne e
Ġgo es
Ġco in
Ġspid er
Ġwear ing
bar ra
Ġm ountain
Ġpretend ed
Ġem barra
n ic
ĠA nn
Ġsl id
Ġpic nic
Ġscre amed
Ġfa ces
Ġte ach
Ġph one
ĠSomet imes
Ġsa ck
Ġsn ake
Ġansw er
Ġse at
Ġcon fused
Ġapp eared
C ome
oo se
Ġtal king
Ġgent ly
if e
Ġsa l
Ġfur ry
e b
Ġhelp ful
Ġmu d
Ġdri ve
l a
Ġm ind
le x
Ġp an
Ġsu pp
Ġlad der
ĠL isa
Ġpu sh
Ġo ven
Ġ ign
Ġc art
J o
a le
Ġs er
Ġre c
Ġwhen ever
ar ge
Ġv al
Ġcorn er
un k
ĠG o
Ġw om
Ġcho col
Ġc alm
ĠL e
Åĵ I
Ġspl as
Ġwom an
Ġb an
Ġneighb or
Ġla st
ĠB u
Ġtoo l
Ġm ach
Ġb lew
Ġfix ed
re ad
Ġr ing
Ġfight ing
ĠJ ake
Ġfin ish
Ġwait ing
Ġwa ve
Ġsp icy
Ġforg ive
Ġt id
er t
bble s
Ġfe et
Ġmin ut
Ġsp read
Ġdel ight
Ġas h
Ġtast e
Ġe ventually
ĠB e
Ġte eth
Ġli ve
Ġembarra ssed
Ġp our
Ġhor se
Ġtom orrow
Ġrem ind
ĠP eter
Ġbe ll
Ġsc ar
Ġcook ie
Ġsmo oth
Ġrock et
on es
p er
Ġa nt
Ġsh y
Ġcl oth
Ġfo ld
Ġchocol ate
m o
Ġtri es
ĠWh ile
Ġcol our
o ld
Ġst ep
op h
Ġl arge
Ġte a
Ġsong s
Ġneck l
Ġhid ing
Ġban an
Ġk itten
Ġpa w
Ġspr ay
Ġsp e
ur se
Ġro b
Ġh um
ĠT eddy
Ġp ool
Ġsh irt
er y
Ġp le
Ġem p
Ġwas h
Ġcan n
Ġp izz
Ġemp ty
ung le
ĠS ome
Ġvill age
Ġcreat ive
le br
Ġj ungle
Ġgre w
Ġbug s
Ġtight ly
Ġtid y
al s
get able
Ġcann ot
d ge
Ġc oo
Ġkn ocked
Ġve getable
Ġwhist le
Ġso l
Ġre p
Ġce lebr
ump y
S t
air s
at o
ĠT V
nn y
d en
Ġch ick
Ġru de
Ġw ore
Ġtr ust
Ġh ar
Ġbar ked
Ġrob ot
Ġw ip
ĠEvery where
Ġpeace ful
M y
Ġspark ly
Ġpudd le
u sh
Ġneckl ace
g round
Ġ '
Ġhe ars
Ġch ased
ig hed
Ġpizz a
ĠP lease
Ġstre t
Ġs el
Ġst ir
Ġme ant
n ed
Ġb al
Ġmo on
Ġm aybe
Ġg un
Ġst ra
Ġpuzz le
Ġhid den
Ġp in
Ġn et
Ġsa ve
i an
Ġtreat s
Ġg en
Ġme adow
Ġc ross
Ġcarrot s
in ted
l ower
bo x
Ġm ot
pp er
ĠM ummy
er a
Ġstick s
Ġsnack s
d le
Ġcar ried
Ġm issed
g ly
ust r
Ġfor ward
ul t
Jo h
Ġse ed
Ġfl ut
Ġtell s
Ġspl ash
Ġa v
Ġgr oup
Ġs our
Ġb at
Ġcra b
Ġprin ce
Ġmach ine
Ġshe lf
ĠJoh nny
Ġb er
Ġcle ar
Ġu gly
Ġstr ing
Ġsel fish
Ġjump ing
Ġdisapp o
ir d
ĠE ven
ĠB r
au l
Ġgo ld
ig er
Ġle m
ell y
k in
Ġfr ustr
Ġlea f
ĠAl ice
Ġb urn
Ġknow ing
Ġgr ay
Ġst ood
ĠSu s
ĠK itty
y ing
Ġro ar
Ġyell ed
Ġpol ice
Ġland ed
Ġleg s
P lease
Ġshar ing
mo st
Ġhon est
Ġp ir
Ġcir c
at or
Ġst one
eter m
h in
Ġwh is
Ġbl ow
ĠLe o
Ġd eterm
ĠW hy
Ġstand ing
Ġpl ate
Ġdre w
Ġbre ath
Ġal most
Ġg ar
Ġno ds
v ous
Ġ Z
Ġfan cy
Ġfrustr ated
Ġn umber
Ġsee k
St op
Ġdisappo inted
Ġt est
Ġsleep y
or ry
if f
Ġthe se
it al
a king
u ce
itt er
Ġfe ar
Ġscre am
Ġpower ful
ĠRe x
Ġmyster ious
Ġfe ed
Ġpill ow
Ġh ours
Ġgen er
Ġpol ite
Ġho sp
Ġf il
p ack
Joh n
Ġhosp ital
s er
Ġl ine
Ġg as
Ġje w
Ġmed ic
Ġash amed
f fe
Ġplant s
Ġc ries
Ġdec or
eci ally
Ġn er
ot e
et s
Ġre g
Ġreturn ed
iss ors
u al
iz zy
Ġunderst ood
ĠD on
Ġshe ep
Ġsc issors
Ġmedic ine
Ġner vous
S am
Ġtw irl
ens ive
Ġexp ensive
Ġspo il
p ecially
on y
Ġsh ore
Ġpack ed
Ġes pecially
s ist
Ġscar f
os aur
Ġb ored
Ġp ay
Ġdan cing
Ġpass ed
ĠM ark
Ġsandw ich
Ġvegetable s
Ġn ut
Ġta ught
Ġv an
Ġgar age
Ġsa ved
Ġpo or
Ġgr umpy
Ġclos et
l ight
in a
Ġp ri
Ġbec ome
Ġhe l
Ġm ummy
Ġru ined
Ġsc r
Ġta ken
Ġfing er
Ġg ate
' d
Ġdr um
Ġcomfort able
Ġf ill
Ġmess y
id dle
Ġc and
Ġdin osaur
ĠL ittle
Ġso ld
Ġbed room
Ġeas y
Ġon es
ĠB l
Ġex am
Ġgener ous
Ġple ased
Ġas king
an o
Ġcl ass
Ġsuc cess
y m
Ġw is
Ġyour self
Ġwor king
Ġdeterm ined
oo p
Ġsh ip
Ġpr ay
Ġgl ue
ĠSus ie
Ġf ig
Ġho pping
Ġgigg led
Ġsail ed
Ġb oring
im p
Ġst uff
Ġball s
Ġmot or
Ġc ri
Ġwa gged
Ġv ase
Ġgl ass
T here
Ġk issed
Ġh ur
Ġmo v
Ġmist ake
Ġof ten
Ġ OK
Ġs ighed
at es
W here
Ġd est
Ġplay ground
Ġexc ite
Ġes c
Ġminut es
Ġtr ue
Ġwhe el
Ġle ad
Ġbr ush
Ġche st
Ġche w
Ġansw ered
Ġwa ves
er p
Ġwe ak
Ġcl own
Ġboy s
Ġgather ed
in ess
Ġf ake
Ġsp end
Ġdr op
Ġthank ful
ill i
Ġte ars
ĠBr own
Ġr ad
m b
Ġt ick
Ġm iddle
sel ves
Ġcont ent
Ġha ng
Ġj elly
Ġpu s
Ġte am
ot s
Ġe ld
Ġget s
Ġexcite ment
Ġc ap
Ġquest ions
Ġlem on
Ġegg s
Ġlo ck
W ho
Ġt ent
ar l
Ġfl ag
Ġsk ipped
Ġfr idge
Ġch ange
Ġsmell y
Ġwr ote
ĠTo day
Ġr id
Ġdraw ing
Ġl it
Ġrel ax
Ġa dd
Ġfruit s
Ġdisco vered
oo f
ag ed
S orry
Ġkn ight
Ġbr idge
Ġs ight
et e
Ġbath room
Ġbo ard
Ġmat ch
Ġm ir
Ġdog s
A re
Ġkn ife
Ġshow s
Ġcl ap
Ġla zy
Ġfl uffy
Ġqu een
Ġwo lf
Ġt ag
Ġs il
Ġco vered
qu e
Ġche ck
Ġsweet ie
ĠEll a
Ġfam ous
Ġmight y
or k
ce pt
Ġb ake
Ġor d
Ġpick s
Ġdr ank
Ġdist ance
Ġm ic
Ġan g
Ġno d
ell a
Ġdisapp eared
Ġl ying
Ġde er
r or
Ġwa nder
Ġbo ss
ĠE ventually
Ġcat erp
Ġtow el
Ġcr own
Ġcaterp ill
Ġ No
Ġun us
Ġwalk s
Ġunus ual
Ġf re
Ġm ap
Ġso ap
Ġcall ing
Ġeag er
t i
Ġb one
Ġ ind
Ġf is
Ġmo ving
Ġsho ot
Ġ ed
ĠI f
Ġse ll
Ġdec ide
Ġeld erly
o bby
Ġlo se
ĠMr s
Ġst ones
in ation
ĠF red
ĠBl ue
Ġb orrow
Ġco ver
N ow
Ġd ig
Ġd ish
Ġclean ed
bo dy
el p
Ġsplas hed
at ing
Ġwe ek
ĠE nd
Ġgl ow
Ġcra wl
Ġc age
art h
Ġc her
im ed
w ork
umb led
Ġinc red
Ġh unt
Ġfeather s
Ġoff ered
Ġbanan a
as ing
Ġcaterpill ar
Ġyour s
Ġkind ness
Ġf ather
al ous
Ġco ins
Ġey e
Ġju icy
Ġ U
Ġbr illi
Ġje alous
Ġbran ches
ĠTweet y
Ġt ape
Ġc am
Ġco st
Ġbott om
Ġorgan ized
Ġmir ror
Ġl amp
Ġbo dy
Ġbrilli ant
Ġto ug
Ġr are
f ast
Ġt ie
Ġcra w
Ġh orn
Ġth ick
Ġcraw led
Ġd epend
ĠS n
Ġhurt s
Ġtun n
p ort
Ġme asure
Ġcolour ful
Ġbal ance
Ġbu bbles
ĠP ete
Ġbreak fast
Ġimpre ssed
H elp
Ġli cked
Ġex t
Ġher o
ug ar
Ġtw ist
ol og
Ġincred ible
Ġt iger
Ġf ool
Ġr ough
Ġjo ke
Ġon ce
Ġtruck s
Ġwa gon
Ġf ine
Ġli br
Ġbox es
Ġtoug h
a ppy
Ġadvent ur
Ġsmo ke
Ġhappen ing
Ġap olog
b in
Ġman aged
Ġca bin
Ġs ugar
il t
am ond
?" .
Ġfl ash
Ġreal ised
Ġfav our
Ġb itter
Ġtr unk
Ġadventur ous
ĠD ave
Ġwra pped
h ip
ra g
Ġno isy
Ġch ase
Ġjo g
Ġfall s
Ġflut e
M e
Ġa w
Ġa dded
Ġs ugg
Ġfavour ite
Ġsugg est
Ġd izzy
ĠM ar
Ġm elt
Ġo k
Ġdi amond
Ġrec ord
Ġhar m
Ġmix ed
Ġcirc les
Ġfool ish
Ġsun f
Ġmark et
Ġp ump
dd y
Ġac cept
l ies
Ġwa nd
ĠB ella
Ġlo g
Ġj am
ur ed
Ġgu ess
Ġsaf ely
l and
y al
ke ep
Ġloud er
Ġext ra
or y
Ġwor d
Ġneed s
ĠBob o
Ġar g
Ġlift ed
ed ient
at ely
Ġcheer ful
Ġt urt
Ġsh ark
Ġj ack
Ġmag n
Ġdepend able
Ġt er
Ġp il
Ġe ars
Ġpoin ting
app ing
ugg led
B e
Ġdream ed
Ġwra p
Ġber ries
Ġmom s
Ġagain st
Ġgra ndpa
Ġgr own
Ġjew el
ir a
Ġpe e
Ġgi ving
Ġfig ure
Ġha m
Ġgra ce
Ġwe al
Ġfr own
W ell
Ġsw an
ĠWhen ever
Ġbag s
Ġmov ie
Ġtw ig
Ġdream s
Ġballoon s
Ġbelong ed
i que
he ad
om ed
Ġlearn ing
Ġstrong er
la imed
Ġdo lp
Ġed ge
Ġexc laimed
Ġy arn
Ġsw ord
Ġsl ipped
Ġun ique
Ġsear ch
Ġlo yal
Ġch oose
em o
Ġhat s
Ġsh ake
ra ge
Ġloud ly
ĠN emo
Ġenjoy ing
f ic
o ppy
Ġhapp iness
Ġsp un
ia ble
Ġob edient
an ut
an ged
ĠM y
Ġmar ble
Ġtool s
re ady
Ġsqu ee
Ġlaugh s
L ila
Ġr ich
Ġwall s
Ġle an
Ġte le
Ġrel iable
Ġcam era
Ġf our
e xt
i v
at ure
Ġal ready
Ġmo d
Ġclean ing
Ġun l
a w
Ġdif fic
Ġang el
Ġter ri
o ot
Ġcl ay
Ġbu ll
Ġmean s
Ġuse ful
Ġcray on
Ġgo at
ip e
Ġpain ting
Ġbutt ons
H ere
g y
ent ion
Ġb arn
ag es
sh ion
Ġus ing
Ġcomp et
Ġstra w
umb ers
Ġbl oom
Ġstu bb
Ġind epend
Ġtunn el
Ġturt le
Ġt ank
Ġhelp s
Ġsc are
Ġcir cle
Ġdiffic ult
c il
Ġn orm
Ġth u
Ġthought ful
Ġpen cil
keep er
Ġfi er
Ġfr ight
Ġbus hes
Ġpe anut
Ġpain ted
Ġno sy
Ġsound ed
z ed
Ġt imes
Ġstre am
Ġgu it
Ġg em
Ġwh ale
ĠD ucky
Ġoff ice
Ġcount ed
ĠM andy
Ġdo ve
Ġre f
Ġsk in
Ġba ld
Ġpar rot
Ġli z
Ġcompet it
Ġstubb orn
Ġbird ie
Ġfier ce
w ards
Ġto ast
ad o
Ġknow s
y e
Ġr ug
Ġis land
Ġinv ited
Ġweal thy
Ġnorm al
Ġc op
ĠB obby
Ġsay ing
Ġsw e
Ġexpl ored
Ġjo ined
c ient
j ect
Ġf rag
Ġc ro
Ġ icy
or ge
Ġso ar
Ġwe ird
Ġnot ice
ĠR ose
Ġcra ck
Ġindepend ent
Ġn umbers
ĠA lex
Ġsunf lower
Ġpo st
Ġmo le
Ġbrother s
Ġdes ign
Ġpir ate
in ary
er ry
Ġgra p
Ġboss y
Ġf at
Ġsmall er
Ġhard er
ous es
Ġbu ilt
Ġspoil ed
in es
Ġst airs
Ġan cient
Ġsee m
Ġpre p
Ġguit ar
Ġst umbled
ĠM ike
Ġlight s
Ġmar ch
Ġchick en
Ġf ountain
Ġsa uce
Ġst ri
Ġro de
Ġen orm
Ġpick ing
Ġfre sh
Ġbe et
Ġca ct
Ġval u
Ġesc ape
Ġfrag ile
Ġenorm ous
Ġh ouses
Ġre sc
Ġpour ed
Ġseed s
Ġwhis p
Ġch ar
Ġsu it
Ġho se
Ġen vel
Åĵ Let
Ġremind ed
it her
Ġp ow
Ġme m
Ġb ump
ir p
Ġfor k
Ġtr ump
Ġproud ly
Ġkind s
Ġcu dd
ĠGra ndpa
Ġboun ce
Ġpract ice
Ġway s
Ġpen ny
Ġ Once
Ġc ity
Ġpe pper
ĠC l
Ġsal ad
Ġcost um
Ġfright ened
a id
p id
ac he
Ġsear ching
Ġcho se
Ġfing ers
Ġshell s
Ġadm ired
Ġsol ve
Ġcact us
Ġt ummy
Ġwa ke
Ġha lf
Ġth irst
Ġr oof
ĠF r
Ġshow ing
ol a
Ġdelight ed
Ġc one
Ġd ull
ĠS oph
an ger
d om
Ġn urse
al k
ars h
Ġboat s
Ġbar ber
e orge
n a
Ġbe ak
Ġst age
Ġexcited ly
Ġab ove
ber ry
Ġstu dy
Ġstu pid
Ġb atter
Ġsp ace
Ġsuggest ed
Ġliz ard
Ġsh one
Ġcomp ass
Ġreg ular
Ġflash light
v ice
Ġc ere
Ġlo cked
Ġsp illed
Ġshap e
Ġatt ic
Ġterri ble
Ġto oth
Ġh oop
Ġvalu able
Ġtrump et
t ime
Ġar row
re ss
Ġp ant
Ġe arth
Ġy et
ill ie
ĠD an
Ġche ap
Ġdes k
ĠEll ie
Ġkick ed
Ġser ious
Ġsuccess ful
Ġthirst y
Ġl ow
ar ry
he t
in al
Ġcl um
Ġla b
Ġscr at
H ow
Ġor ig
c om
Ġo w
Ġr at
Ġsto ve
c orn
Ġav o
Ġenvel ope
Ġw itch
Ġthem selves
Ġimpre ss
Ġ er
Ġs on
ag het
Ġcom b
Ġbright ly
Ġstop s
Ġthu nder
aghet ti
Ġh ay
Ġbe es
Ġst amp
ie w
Ġla w
Ġra ced
Ġdream ing
Ġscre en
Ġcare less
Ġsn iff
Ġorig inal
Ġwas hed
Ġsp aghetti
ĠYou r
Ġch anged
Ġv iew
ĠN ext
ĠK im
Ġwip ed
ut h
Ġend ing
Ġstick ers
Ġhel m
Ġru shed
Ġdelic ate
Ġwar ned
Ġbeet le
Ġf lex
Ġm is
g est
i ence
is k
Ġth ose
Ġy og
Ġcar p
ber ries
ĠP olly
Ġlea ving
Ġste al
Ġpers ist
Ġcompass ion
Ġclum sy
Ġto r
Ġbig gest
!" .
Ġtra vel
Ġde ad
oom y
Ġpop corn
Ġd ough
Ġbe an
Ġfind ing
Ġen c
Ġpump kin
Ġ ing
is ion
ĠL ola
Ġsn e
ĠR ed
Ġtom ato
Ġdisco ver
Ġw ire
ĠP aul
Ġlibr ary
ur ing
ro be
Ġgra nd
Ġsn ee
Ġdel iver
Ġcomp let
red ient
Ġgrace ful
Ġing redient
Ġme al
Ġsor ts
Ġun k
Ġtell ing
Ġcere al
Ġkn ock
Ġun cle
Ġimag ined
Ġear ly
Ġpee ked
Ġt ask
re ll
âĤ¬â Ģ
Ġtra p
Ġhair y
Ġmiss ing
Ġcount ing
Ġingredient s
Ġpu p
Ġad vice
Ġjack et
Ġm el
Ġsh iver
Ġz ip
Ġhum ble
c u
Ġfor th
Ġstr anger
Ġsqu are
Ġdoes n
Ġgu ard
Ġpa le
Ġdest ro
ĠS andy
Ġflex ible
Ġh ipp
il ty
Ġplay ful
Ġsu dden
Ġdri ving
Ġgu ilty
Ġpig e
Ġa unt
ĠTweet ie
Ġquest ion
Ġthin king
Ġwhisp ered
Ġimpress ive
Ġc ards
Ġnice ly
Ġjo lly
Ġcre ate
Ġopen s
Ġcoll ar
Ġcarry ing
Ġslid es
Ġspe ed
n own
Ġc ur
Ġall owed
co d
Ġtwirl ed
Ġhand le
ĠG eorge
Ġprin t
Ġspark led
Ġhunt er
ill a
Ġbra ce
Ġstick er
Ġpop ular
Ġu mb
em ent
Ġru b
ho st
Ġumb rell
f a
u d
Ġt ap
Ġt ied
Ġs ink
Ġan x
Ġen v
Ġru bb
ation s
Ġb ase
ĠAnd y
Ġdis g
Ġru bbed
ĠTo by
com fort
b led
Ġfriends hip
Ġcarp et
t ter
Ġun comfort
Ġcoo king
Ġchar ming
Ġpersist ent
Ġdisg ust
Ġuncomfort able
Ġg um
Ġg ira
Ġsh ocked
Ġhold s
a wn
Ġw ing
re am
Ġg host
Ġre fused
ell ig
Ġper m
Ġmet al
Ġanx ious
Ġint ellig
Ġbutterf lies
Ġdolp hin
Ġd ust
Ġsc atter
ĠJo ey
Ġset t
Ġgas ped
Ġcro cod
Ġunk nown
Ġp atter
ar ian
Ġsc oot
Ġen g
Ġcomp ut
Ġpat ch
Ġpant s
l oo
ar oo
Ġne at
ug ged
ĠR o
ang aroo
Ġspin ning
Ġn ature
Ġshe l
Ġk angaroo
Ġch asing
The y
Ġcelebr ate
Ġpatter n
Ġl ed
Ġmo der
Ġpast a
Ġwhe els
Ġnam es
Ġtr uth
Ġord inary
Ġham mer
ÅĵLet Ã¢
Ġhipp o
Ġm ask
Ġsur f
ĠSn ow
Ġtor n
Ġenc ou
Ġre sist
Ġco co
Ġimp at
Ġcoco a
R e
Ġg oose
Ġst at
Åĵ It
Ġph ot
O w
Ġac orn
H e
Ġperf orm
e er
Ġb ent
Ġp and
Ġo tter
ĠP e
ĠP at
Ġz ipp
Ġgrow ing
Ġimpat ient
Ġm ath
ic hes
Ġsk ip
Ġsn uggled
Ġcra zy
Ġsleep ing
ffe e
Ġpri ze
Ġharm less
Ġmoder n
r ay
Ġo at
or ant
Ġsh ine
Ġre ce
Ġsc ale
Åĵ What
Ġfire man
Ġcr ane
Ġrest aur
Ġmagn et
Ġrestaur ant
Ġbeaut y
Ġtra sh
Ġwindow s
Ġspl it
Ġatt ract
Ġpot ato
Ġdestro y
ĠHe re
Ġre ind
Ġhand ed
Ġun pack
Ġsho e
Ġplac ed
Ġintellig ent
ĠL ook
Ġsu per
Ġspo ke
Ġcri cket
ĠS m
ll ip
ĠGra ce
Ġcompassion ate
Ġdisgust ing
llip op
S ee
c ut
Ġso fa
ĠMar ia
Ġumbrell a
Ġt em
Ġa head
Ġlo ad
Ġlo llipop
Ġstart s
n oon
ĠM illie
Ġafter noon
Ġdraw er
Ġwhe at
Ġdist ant
Ġsandw iches
Ġcand le
ĠBrown ie
G o
Ġwa ff
ĠT r
Ġy awn
Ġign orant
in ce
Ġch ance
ip s
ac hes
Ġtri ang
Ġbrace let
Ġreind eer
i kes
o e
Ġd ug
Ġhe dge
Ġru les
Ġcount ry
Ġspr ing
oph one
Ġpige on
a by
Ġh ook
Ġsh ield
Ġre co
Ġfl our
Ġtr op
Ġclo ck
Ġb in
Ġp urse
Ġsh ut
Ġco ffee
Ġcouldn Ã¢
Ġsupp ort
Ġrest less
Ġhun g
Ġcup board
Ġt ire
Ġh arsh
Ġc ord
Ġo l
Ġj ug
Ġor der
Ġgif ted
Ġmail box
Ġtrop hy
Ġs ym
Ġm ay
ic t
Ġjump s
Tim my
er able
Ġnot e
Ġsad ly
Ġcat s
lc ano
Ġshr imp
Ġsil ver
Ġmis erable
a f
Ġs end
Ġsh adow
ic es
Ġmu sh
Ġpretend ing
cy cle
Ġfil m
Ġcrocod ile
g u
Ġa x
Ġit self
Ġle op
as er
gg ing
Ġeng ine
Y ay
i bb
Ġc amp
bo l
Ġfur ther
Ġcou rage
Ġpract iced
Ġhur ry
Ġmel on
Ġmu ff
Ġany where
Ġimp ro
Ġob ject
Ġcomput er
Ġsym bol
g n
Ġb ri
Ġf u
Ġm ill
Ġv ine
uc t
Ġtri ck
Ġcreature s
ĠSoph ie
Ġgo al
Ġcom pl
Åĵ Yes
Ġtow ers
Ġje ep
Ġent h
al ed
Ġro se
Ġpain ter
Ġrep e
Ġr ice
Ġst ack
Ġcool er
Ġread ing
ĠBe fore
Ġenv ious
Ġp ony
Ġst ation
Ġpar ade
Ġwis hes
a z
u nd
Ġneed le
Ġcry st
Ġforg ave
Ġcart oon
ĠBu ddy
ir on
st ri
Ġk ay
ĠA re
ĠW ill
Åĵ That
Ġtreasure s
Ġstret ched
Ġax e
Ġenth us
ĠB unny
Ġre ward
Ġnow here
Ġhelm et
Ġattract ive
ri c
Ġj et
Ġhelp less
Ġla ser
Ġold er
ĠG ive
Ġbright er
Ġsec ond
Ġtrou bled
Ġletter s
Ġswe ater
Ġo y
ĠW here
Ġsc old
Ġmess age
Ġpast ry
Ġfoot ball
c ream
Ġt en
Ġcu shion
Ġbad ly
Ġtra ck
Ġpack age
Ġval ue
Ġcompetit ive
Ġscoot er
Ġpand a
ĠU n
Ġpil ot
Ġreco gn
Ġmush room
Ġthe ater
Ġp or
Ġso ck
Ġal ert
Ġpre ssed
Ġgl oomy
ĠR u
Ġtri cks
Ġvis ited
Ġgigg le
Ġsal t
eb ra
Ġfear ful
Ġmic r
Ġha ll
ht ub
Ġsp ell
Ġany way
Ġband age
Ġhum an
M ax
or able
Ġbe ep
Ġsw itch
Ġte ar
Ġshout s
Ġde af
Ġadm ire
Ġbat htub
Ġer aser
ke let
Ġvo lcano
Ġz ebra
Ġpen gu
Ġbar rel
Ġcow s
Ġmicr ophone
e f
or illa
Ġen er
Ġthre ad
ĠR os
Ġswing ing
Ġro ared
Ġra ven
Ġboun ced
hin o
Ġsold ier
Ġavo c
Ġleop ard
st airs
Ġstart ing
Ġtr ay
Ġstat ue
ĠSm ith
Ġs ize
Ġh ive
op us
Ġho les
Ġstr ugg
ct opus
Tom my
Ġob ser
Ġnut s
Ġmod est
isk ers
c i
y ear
Ġs ent
Ġpe ach
ĠEvery thing
Ġad orable
Ġsqu ash
eb ook
Ġstep s
Ġrid ing
kelet on
Ġo ctopus
ck ey
Ġnot ebook
Ġho ckey
Ġrespect ful
ĠAnn ie
s es
Ġc urt
Ġli p
Ġsh aking
Ġback pack
Ġch ain
ĠWh iskers
Ġcurt ain
Ġa nts
Ġf ive
Ġm op
Ġg orilla
ĠS h
Ġqu ar
Ġbeh ave
Ġhair cut
Ġwall et
Ġshop keeper
cer os
Ġfil thy
stri ch
hino ceros
Ġe ither
Ġu r
ce ed
Ġbo ots
Ġpull s
Ġtri pped
Ġpap ers
Ġstir red
G ive
Ġp ad
ĠB ill
Ġno body
Ġsun set
Ġexpl ain
Ġche cked
Ġsand box
I f
c col
ar nt
ĠJ erry
Ġle arnt
Ġsor t
Ġav ail
Ġdecor ate
ccol i
er c
Ġm ug
Ġp un
Ġgo lf
Ġme as
Ġmotor cycle
Ġpus hing
Ġresc ue
Ġcryst al
Ġr hinoceros
Ġsome where
Ġv est
Ġpe bble
Ġar t
Ġlight ning
Ġsail or
Ġcoo ked
Ġpow der
i est
Ġst ared
Ġsh ort
Ġcl apping
ie f
ĠK ate
Ġroll ing
Ġgira ffe
ĠSnow y
Ġpor ch
Ġs keleton
Ġd ess
Ġv i
Ġjo kes
Ġexp er
Ġb et
re nder
Ġinc l
Ġunl ock
Ġavail able
re ci
Ġc omet
sel y
Ġtra ins
Ġdis hes
Ġpoin t
Ġorgan ize
Ġsuc ceed
Ġkay ak
p ar
Ġhapp ier
se um
Ġex erc
Ġle ash
uck ed
Ġqu ite
en ry
oo ped
Ġst om
Ġhad n
Ġse par
Ġla und
ast ic
Ġlisten ing
Ġbark ing
Ġpaw s
Ġfrown ed
h ood
u be
Ġt ur
Ġto il
el ery
Ġmu seum
Ġcol ours
Ġclimb ing
Ġapp reci
Ġcomplet e
Ġtriang le
Ġc ase
Ġwe ather
Ġse al
um mer
Ġpe ek
Ġun h
Ġzipp er
Ġdess ert
Ġlaund ry
n ight
en ny
Ġcan e
Ġbro ccoli
in king
Ġre ef
Ġsl ipp
u bby
Ġ iron
Ġput ting
Ġclo sely
Ġmonkey s
Ġsur render
Ġpus hes
c ast
Ġp ipe
Ġy ach
Ġsp ir
Ġbr us
Ġbre at
Ġlion s
Ġblow ing
ĠRos ie
c ome
i o
Ġs le
Ġp ed
ur b
Ġmar ched
Ġdist urb
Ġspe ak
Ġtur key
Ġtoil et
B ye
a ked
g es
r on
Ġb icy
Ġfind s
Ġsk ill
Ġdraw ings
Ġbark s
Ġlive ly
Ġstuff ed
he art
Ġn ail
ĠB ear
Ġre ver
Ġsand cast
Ġnap kin
Ġend ed
Ġdan cer
Ġpol ish
Ġcostum e
Ġyach t
Ġo strich
an ic
Ġin k
Ġfor t
ĠJ ess
Ġsoft ly
Ġm ild
il ing
Ġr ibb
ch anic
ĠJ ames
ect ed
Ġrain ing
ol in
g s
v ator
Ġt ube
Ġl id
Ġo il
ĠA b
Ġcl ub
Ġch ubby
Ġun iver
Ġapp l
Ġthank s
Ġin f
ec ause
Ġme chanic
pl ay
Ġcr ow
Ġpi ano
Ġele vator
Ġbasket ball
aul if
Ġbu bble
Ġhop ing
Ġbel t
Ġmix er
Ġstri p
Ġunh appy
Ġc aulif
is on
Ġgl ove
Ġair port
Ġspir it
Ġw ife
Ġb ikes
Ġh ut
it es
Ġin sist
Ġpre ss
Ġju dge
Ġcup s
Ġwelc omed
Ġp air
Ġfr ame
Ġmag az
Ġgrab s
Ġdrop s
Ġlean ed
ed y
Ġm ama
Ġth ief
st ic
ĠCh arl
Ġgrap es
âĤ¬âĢ ľ
Ġquar rel
ma nd
Ġeven ing
Ġpro v
Ġrep air
Ġbase ball
Ġc elery
Ġfa ctor
Ġbu zz
ia stic
ĠIn st
ĠK at
Ġscre w
Ġimag ine
Ġrad ish
Ġapolog ized
Ġsne ak
Ġenthus iastic
Ġoy ster
Ġt ub
Ġl uck
Ġm en
Ġr ag
ĠB un
Ġdis play
Ġgi ven
Ġcount er
Ġbreak s
Ġcher ries
Ġshel ter
ĠL illy
Ġmu le
Ġdidn Ã¢
Ġmar ry
Ġve il
Ġzoom ed
Ġfactor y
a ff
a zz
z zy
Ġfis her
Ġbicy cle
Ġl end
Ġsh ade
Ġfeel ings
Ġener gy
Ġpo em
Ġbu l
Ġhop es
Ġfrog s
ĠSt e
Ġcaulif lower
J im
im ney
Ġro d
Ġpr un
Ġch imney
Ġbear s
Ġf urn
it ure
ĠB aby
Ġwe ep
Ġpo le
ĠP ap
Ġstret ch
Ġfurn iture
Ġg ym
ĠS ee
Ġplay er
Ġra ft
Ġma ze
Ġpa id
Ġbul b
D ad
J ack
en se
an y
Ġst aff
ch air
Ġsh akes
ic er
au sed
c cer
Ġd ive
Ġso ccer
Ġli ves
Ġk itty
ro d
Ġint rod
Ġche ek
Ġatt ention
Ġneighb our
Ġslipp ery
ĠH enry
Ġshe et
Ġnew s
Ġtra il
Ġsmell s
Ġfall ing
Ġperfect ly
Ġphot o
Ġvi olin
e ath
g en
Ġb ur
Ġp ine
Ġkn ot
Ġch irp
Ġqu it
Ġmar ried
Ġbanan as
M ia
Ġs ummer
Ġl ang
Ġp age
Ġli e
Ġfire work
Ġsweet heart
Ġcri b
Ġlang u
Ġl ime
ĠL ee
Ġon ion
Ġre ve
Ġarm chair
Ġspr ink
Ġbelong s
Ġcard board
Ġgold en
Ġcabin et
a it
l ow
m en
Ġs ir
ar ing
or ies
Ġshould n
ĠCharl ie
Ġw ool
Ġg ro
ĠW ould
Ġtra ve
Ġstick y
Ġpudd les
s ing
Ġfield s
Ġtun a
Ġchick ens
ĠTr ue
b ul
Ġscold ed
ĠInst ead
ĠPap a
in arian
Ġsw ung
Ġv ide
Åĵ You
eter inarian
. .
Ġthe rm
Ġso il
Ġstra ight
Ġburn ed
Ġavoc ado
ĠH arry
Ġher b
Ġr ot
her o
omet er
Ġfl ies
Ġv eterinarian
Ġpre vent
iz es
ree ze
Ġdis ag
Ġpir ates
Ġfisher man
w een
Ġno vel
au d
Ġoff er
Ġsho vel
Ġcreat ed
Ġpet als
Ġjour n
Ġimag ination
Ġsuper hero
ĠRu by
Ġbet ween
Ġmeet ing
Ġclass room
Ġglow ing
h ic
Ġpl astic
Ġtw ink
Ġop era
Ġve hic
Ġking dom
Ġmist akes
Ġmem ories
Ġtherm ometer
Ġb le
Ġc ell
Ġp al
un ately
Ġsee ing
Ġshould er
ang es
Ġthrow s
Ġfis hing
l ass
Ġme at
Ġpass port
Ġce iling
Ġign ored
Ġjelly fish
Ġsle pt
u es
Ġt ax
ĠT ony
Ġforgot ten
Ġcelebr ated
Ġrad io
Ġsk irt
Ġdoor s
ng th
Ġtele ph
Ġjourn al
Ġo ak
Ġmake up
Ġhead s
Ġpresent s
Ġaccept ed
Ġteleph one
ar m
Ġst ro
Ġall ig
You r
ag g
Ġfl ame
ĠC o
Ġdon Ã¢
Ġstre ngth
Ġve nd
Ġthrow ing
Ġpin ch
Ġinf ant
Ġf le
ĠB et
ent s
Ġv et
Ġf ile
ch ie
Ġloo p
Ġsw amp
Ġam bul
Ġpoin ts
Ġappl aud
Ġgro cer
Ġtax i
d robe
v ision
ur ch
Ġal ive
Ġwr iting
Ġshout ing
Ġba king
Ġplan et
Ġwar drobe
Ġrubb er
t e
Ġc ree
ore s
Ġse as
Ġwor th
Ġsun g
Ġcu be
Ġdis cu
Ġste am
Ġwin ter
Ġlemon ade
ache l
Ġmagaz ine
Ġpal ace
Ġcree k
B ecause
Ġwa gs
Ġit ch
ĠM iss
bb ie
Ġshow er
ĠR achel
Ġdi ary
Ġsquirrel s
Ġatt ach
ĠBu zz
Ġfold er
Ġhang ing
Ġtele vision
Ġstraw berry
b or
i um
Ġa ut
Ġst able
Ġbo ot
Ġqu ack
Ġgre edy
Ġfo g
gg y
n am
Ġin se
ss ible
Ġfl apped
Ġpare nt
Ġprep are
Ġhelp er
Ġkn ob
Ġch alk
Ġfollow s
Ġsail ing
Ġsur round
Ġmyster y
Ġmed al
Ġspray ed
it o
Ġp ra
ĠHe lp
ic op
Ġv ac
Ġor nam
Ġmo ves
Ġdisapp ear
Ġser ve
Ġhel icop
Ġarg ue
Ġallig ator
Ġambul ance
Ġhelicop ter
s it
t ress
ĠF irst
Ġgr in
Ġbel ow
Ġsign s
Ġmat tress
Ġhar bor
ĠCl ara
ĠDan ny
ĠSte ve
a b
Ġwa ving
un a
ro sc
Ġdress ed
Ġstu d
Ġfree z
ĠHow ever
Ġeag erly
lass es
Ġsung lasses
Ġkn own
up s
Ġminut e
Ġmic rosc
ÅĵIt Ã¢
Ġvend or
l ier
Ġpo pped
Ġfire f
ipp ing
Ġcher ry
Ġmicrosc ope
M um
c ase
Ġw ine
is ing
im i
ig ail
Ġwe igh
Ġre qu
Ġroom s
Ġgr ill
Ġlet ting
Ġfall en
Ġap art
Ġfa uc
Ġpe ar
Ġber ry
Ġref re
Ġcompl ain
Ġlangu age
M olly
ĠT ina
el come
Ġla wn
est ig
Ġblack board
Ġinv estig
Ġeas ily
ĠGo d
Ġwip e
D id
m m
Ġb reeze
ĠM imi
ĠE ach
ink y
Ġhead ed
Ġquiet ly
ĠAb igail
agg ie
Ġfauc et
t ain
Ġs ince
Ġc ared
om ob
id ay
Ġth umb
am b
Ġco b
Ġtall er
Ġent ered
Ġcross ed
Ġwhis per
A nd
Ġhapp ens
Ġle ak
qu ito
Ġpo ked
Ġsqu e
Ġchair s
Ġear lier
Ġkiss es
Ġrelax ed
Ġrever se
Ġaut omob
Ġ ig
Ġf ought
Ġp ur
ĠL uck
Ġst ad
Ġsu ff
Ġmusic ian
Ġreg ret
Ġcrawl ing
Ġimpro ve
Ġexerc ise
Ġig loo
Ġstad ium
Ġwas te
ĠI Ã¢
Ġal arm
Ġcar ing
Ġch urch
as is
Ġdel ay
Ġdress es
Ġcra sh
Ġap ron
Ġsniff ed
Ġwaff le
Ġvac ation
Ġrequ est
M ama
Ġw igg
Ġl umber
ch or
Ġcl iff
Ġfast est
Ġbal an
Ġol ive
Ġsepar ate
Ġinvestig ate
l iday
w eb
y er
Ġs izes
Ġpo ke
Ġho liday
Ġair pl
Ġinse ct
' .
Ġo asis
Ġsa us
Ġcl aw
Ġv room
Ġsurpr ises
Ġapp ro
Ġspark le
Ġpuzz les
Ġskill s
s quito
Ġc able
er o
Ġmo squito
ors es
Ġshr ink
Ġyog urt
Ġa er
Ġy ield
Ġre aches
op l
Ġlot ion
Ġamaz ement
Ġde ar
Ġspot s
fort unately
Ġboun cing
Ġdest ination
Ġscatter ed
Ġcob web
ĠLuck ily
Ġaer opl
i ately
l er
u ch
Ġt ucked
Ġh orses
ĠT ed
et y
ĠM ay
Ġis n
ĠJ ul
med iately
Ġinc re
Ġsupp ly
Ġsplas hing
Ġlaw yer
W ait
w as
Ġr ake
st ers
Ġor anges
Ġflo at
ĠWh o
Ġmin t
Ġsaf ety
Ġtrust ed
Ġdish was
ĠKat ie
Ġdishwas her
m end
r ight
or al
ĠM illy
Ġun if
Ġheart s
Ġmail man
Ġcollect ed
Ġflut ter
Ġyawn ed
Ġvehic le
i ves
Ġp it
om mend
Ġit Ã¢
Ġan chor
ac es
ĠSp ike
Ġblue berries
Ġflo ated
Ġshr ugged
Ġshoot ing
Ġsquee ze
Ġb other
Ġsa ving
Ġlaug ht
Ġrabbit s
Ġcast les
Ġrec ommend
Ġspend ing
Ġmuff in
Ġautomob ile
n ger
Ġt ut
Ġt ug
in ked
ĠM aggie
ic ing
pl ace
Ġpo ppy
ct ion
Ġde mand
Ġcho ice
Ġexam ine
Ġa chie
om es
Ġli cks
ra ged
Ġsp ade
op s
âĤ¬ .
Ġqu iz
Ġhurt ing
Ġcon f
Ġspark ling
Ġworm s
Ġcand les
Ġexper ience
Ġribb on
ĠS ad
Ġkne el
Ġstr uc
Ġbook case
Ġfollow ing
Ġsquee zed
Ġunif orm
Ġlaught er
Ġstruc ture
Ġag ree
Ġbu ried
Ġeat en
Ġra z
Ġrem ove
ĠK ing
Ġbump ed
ĠFr eddy
Ġpengu in
Ġpra ised
Ġs igh
Ġm ention
Ġpl ates
Ġbu ry
ĠP enny
Ġbean s
Ġincl ud
Ġvide o
c akes
Ġs ings
Ġto ng
Ġr ise
Ġplay s
Ġsp ear
Ġsn ap
Ġche ss
Thank s
Ġinst r
Ġmin er
Ġfu el
Ġfle a
n ies
Ġs imp
Ġsc ooped
Ġbl inked
Ġhill s
ĠO r
Ġtorn ado
I s
Y uck
Ġwas hing
Ġe qu
Ġsn apped
Ġunderstand ing
Ġign ore
Ġring ing
Ġcap tain
iv al
Ġbatter y
Ġsett led
Ġdestroy ed
Ġraz or
Ġd ried
Ġm all
ion ary
Ġkeep ing
Ġide as
Ġgrow led
Ġblanket s
Ġappreci ate
Ġto es
Ġp alm
Ġadm ir
ict ionary
i b
p le
Ġf est
Ġman age
Ġwat ches
Ġgl o
Ġfire place
Ġsit s
Ġent er
Ġwander ed
Ġsandcast le
Ġaeropl ane
i ved
Ġmy self
omed ay
Ġlab el
Ġble ed
Ġd ictionary
Ġp ort
am ber
ĠI s
ĠĠ Ġ
ĠJo y
Ġbrave ly
Ġcoat s
Ġmelt ed
Ġt ide
Ġy ucky
all ey
Ġj unk
ĠEvery day
Ġset ting
Ġjewel ry
Ġstraw berries
Ġyog a
Ġoat s
Ġfreez er
r ing
Ġto re
ĠIt s
Ġsc ore
Ġro ot
ugg age
Ġsnee ze
Ġstom ach
Ġclaw s
Ġtut or
Ġl uggage
Ġp ages
Ġpr ide
Ġtr ade
Ġclimb s
Ġgif ts
M ummy
l oe
Ġs omeday
be y
Ġflo ating
Ġmoment s
Ġplan es
Ġhit s
Ġvan ished
Ġscrat ch
Ġairpl ane
Ġbe amed
Ġpr op
Ġapp ear
um ble
ant ly
Ġsu b
Ġbelie ved
Ġbee f
ĠCh loe
Ġrepe at
Ġstrugg ling
r ise
Ġg a
Ġwe ap
ĠM e
Ġblue berry
Ġburn ing
Ġtem ple
a h
l s
v et
Ġd ire
Ġit em
Ġch ores
Ġv alley
Ġjo gging
em ember
Ġdra in
Ġelephant s
Ġwhist ling
Ġweek s
Ġtong ue
is hing
Ġg ear
Ġn ation
Ġsh ot
Ġsp ort
Ġim mediately
Ġcall s
Ġrem ain
iss ion
Ġcudd led
Ġperm ission
ĠUn fortunately
ĠCo co
Ġfest ival
Ġ V
Ġl ily
le nd
Ġher s
Ġre s
Ġran ch
Ġch amber
Ġpo ison
Ġsun rise
Ġra ise
Ġcr unch
Ġteach ing
Ġbat he
T o
h ouse
i ers
Ġh omes
ĠB eth
Ġpull ing
Ġste ak
Ġpatient ly
Ġmarble s
Ġbreat he
Ġprov ide
Ġhe sit
ĠH ave
ut ure
se ek
ap ed
Ġca lend
ĠRe my
Ġpeanut s
Jim my
Ġcalend ar
' ve
o sed
Ġf uture
Ġp aused
ĠL iz
Ġst itch
Ġj azz
Ġsp it
ĠG ood
Ġwarm th
Ġbuck le
Ġpast el
Ġcollect ing
Ġtick et
ĠPe ople
all ow
ip ment
Ġthr illed
Ġdiffere n
Ġhot el
Ġpray ed
Ġappro ached
Ġd aisy
Ġg ust
Ġshe d
fu me
Ġal right
Ġte ase
Ġwar ning
ĠAnn e
Ġencou raged
Ġchirp ing
Ġequ ipment
Ġbe gged
Ġso cks
Ġsh amp
Ġco al
Ġsk ull
Ġsk ipping
Ġper fume
Ġansw ers
Ġmiss ile
Ġpan ic
Ġearth qu
Ġpun ish
Ġinsist ed
Ġshamp oo
Ġc akes
Ġn one
Ġli ck
Ġrest ore
os ity
Ġsold iers
Ġtwist ed
m other
Ġme owed
Ġdog gy
Ġhard ly
xt ure
Ġgu y
Ġresp ons
Ġsol ved
Ġjew els
Ġrece ived
Ġobser ve
Q u
W elcome
s hing
Ġl ect
an ny
Ġe vent
Ġso re
Ġli c
Ġse w
Ġun ite
Ġrece ive
Ġbri cks
Ġreve aled
Ġlect ure
J ill
f y
Ġp ist
an na
ĠN ut
Ġbit es
The se
Ġdeep er
Ġord ered
Ġpist ol
O uch
a ct
Ġb ang
Ġd igg
Ġst y
Ġfa sc
Ġco pper
Ġcom fy
Ġpart s
Ġmat ches
Ġpattern s
Ġrecogn ized
Ġrefre shed
r s
Ġe mer
Ġrem ained
Ġwork s
Ġinv ite
Ġdigg ing
Ġs ip
it ies
Ġr ow
Ġup stairs
Ġj ail
Ġch ir
as es
Ġbl ood
Ġdr inking
Ġwar n
Ġsupp osed
Ġh ate
Ġra cing
Ġmust ache
Ġdisco very
ÅĵThat Ã¢
Ġdiscu ss
Ġgrin ned
Ġchir ped
c c
s ity
ar i
ĠN ot
Ġwhere ver
Ġru sh
Ġour s
Ġbooks he
Ġcirc us
Ġur ge
Ġmeas ured
Ġsimp le
Ġfasc in
" ,
ĠM at
Ġgirl s
Ġsp ill
Ġdec ision
Ġsun light
Ġma ss
Ġplant ed
Ġgrap e
Ġlic ense
b ers
e ed
l vet
r iger
Ġe ff
Ġbe g
Ġjo gged
Ġrepl ace
Ġcra shed
Ġve lvet
Ġpig s
ĠBu bbles
Ġapolog ize
Ġref riger
Ġbuzz ing
Ġsuff er
Ġearthqu ake
Ġrefriger ator
Ġb ak
Ġo bey
all en
ĠF o
Ġgl owed
Ġwr ites
sp ap
Ġact ually
ĠCh irp
Ġclear ing
ĠNut ty
M mm
o ved
Ġhe at
!" ,
Ġnew spap
Ġra ised
Åĵ No
Ġbring ing
ĠO l
Ġeas ier
ĠCh r
Ġsell ing
Ġuniver sity
Ġweap on
Ġdifferen ce
t ory
Ġb ill
Ġhis tory
Ġch allen
Ġrest ed
Ġmar ching
Ġbath robe
Ġinv it
Ġaw e
Ġsett le
Ġcartoon s
Ġbookshe lf
Ġto e
om ing
Ġg ain
ht ray
Ġas htray
Ġwor se
Ġla id
ĠP oppy
Ġlet s
Ġturn ing
Ġcontin ue
Ġspark les
Ġland s
Ġdecor ations
Ġprep ared
k ins
Ġb es
Ġf ed
ent y
Ġwh ip
Ġsc ur
Ġfl ood
ĠSu zy
Ġstr ang
Ġrem em
Ġcomp any
Ġspoon s
Ġfiref ight
Ġd are
ll ie
ĠL ucky
ĠF ro
Ġsl ip
Ġwater ed
ĠC at
Ġhat ed
Ġagre ement
ĠFl oppy
Ġbri ck
Ġmen u
Ġremem bers
g ing
ĠL una
Ġtre mb
bb led
Ġproblem s
u de
Ġso ared
ĠB y
Ġpo ssible
iz ard
Ġfam il
Ġchew ed
Ġadmir ing
Ġcrunch y
Ġm itten
Ġwant ing
Ġatt ached
Ġexam ined
Ġtomato es
Ġdisag re
W ould
f ied
w alk
ĠM oral
Ġwere n
ind y
Ġmon sters
loo king
Ġsprink les
Ġbes ide
h a
Ġt ip
Ġsl ice
Ġfix ing
Ġpract icing
Ġvill ag
ÅĵI Ã¢
Ġneighbor hood
Ġpup il
Ġcur led
ĠChirp y
Ġstrang ers
ĠH oppy
Ġr ust
Ġfl ap
Ġop er
Ġgre y
Ġbra in
Ġcu b
ĠG re
Ġtra pped
Ġtra cks
Ġmouth s
ĠFr ank
Re ally
Ġgrocer y
Ġsurround ed
Ġeff ort
Ġnewspap er
S p
c les
he st
Ġc al
Ġon wards
Ġwe ight
ĠA n
ĠJ am
Ġpe el
Ġwo nd
Ġcont ain
Ġcut ting
Ġglo ves
Ġw re
Ġb un
Ġha nger
ĠA d
Ġfl av
ĠC ar
ĠR ob
Ġfree ze
ĠBet sy
n ie
x y
nd ay
Ġwa ist
ĠT illy
Ġd uring
or a
Ġsp aces
ĠSu nday
Ġper ched
Ġcomp le
Ġside walk
Ġcollect ion
Ġsaf ari
Ġseat s
Ġgun s
Ġpin ched
Ġesc aped
Ġrid es
Ġmod el
Ġsub way
Ġvillag ers
W ill
Ġr hy
Ġdown stairs
Ġrain ed
Ġtal ent
Ġbow ed
Ġbuild ings
Ġpaint s
Ġremind er
Ġwis dom
Ġarg ued
Ġcostum es
Ġsaus age
ad ed
ĠA m
Ġfa shion
Ġwait s
Ġdrink s
Ġwhist led
Ġintrod uc
A l
u ing
Ġw izard
Ġm ister
ĠM ad
Ġgot ten
Ġz ipped
Ġfire men
Ġvisit ing
Ġaccident s
Ġslid ing
Ġtwig s
Ġmem ory
Ġperm it
B ob
S h
d o
n eath
Ġ x
Ġs ix
Ġw id
Ġp itch
Ġmu ddy
Ġpe ered
th m
Ġz ero
Ġste el
Ġpet ted
Ġpan cakes
Ġpri ce
Ġdinosaur s
Ġminer al
Ġbleed ing
Ġb ones
Ġwe ighed
Ġpe ars
Ġany time
ĠJo sh
ĠJen na
Ġeag le
Ġmountain s
Ġmeas uring
ĠSad ly
Ġbun nies
O k
Y um
id ed
at ch
Ġst ing
ist en
Ġpe arl
Åĵ Thank
Ġneighb ors
Ġfold ed
Ġhur ric
H a
ĠT iny
Ġl amb
Ġn avy
Ġare a
Ġbr id
Ġche f
Ġvo ices
Ġsho pping
av i
ĠSome one
Ġscrat ched
Ġgrand mother
Ġencou rage
Ġpad d
Ġbrus hed
Ġprun e
ĠS ure
Ġbr ings
Ġme ow
as p
Ġdecid es
Ġbed s
Ġswim s
Ġpet s
Ġbott les
Ġpillow s
Ġguess ed
Ġped al
Ġmass age
Ġwond ers
! '
N ot
Ġl ung
Ġr ipped
ri age
Ġle ather
Ġsnow ball
Ġsecret s
ĠO ut
Ġcomfort ed
Ġinvit ation
Ġhurric ane
c age
m are
s on
ĠThe se
id es
Ġhapp iest
ter day
ic a
Ġbird cage
Ġran g
Ġover joy
ĠLet Ã¢
Ġcatch ing
Ġcudd le
Ġornam ent
Ġfascin ated
Ġdisagre ed
Ġoverjoy ed
S he
c ious
l en
ĠS unny
Ġsc oop
Ġstr uck
Ġunder ground
Ġsto le
Ġmark ers
Ġzoom ing
ĠZ oe
Re ady
Ġwaff les
Ġinstr uct
Ġsty le
Ġoper ation
xy gen
Ġrhy thm
L ittle
ig z
ĠF or
Ġpu pp
Ġpret ti
Ġsn ail
ĠC indy
Ġkind ly
Ġbra nd
ĠP r
Ġnight mare
ĠO llie
Ġact iv
Ġsnee zed
Ġrecogn ize
Ġbrid ges
Ġpretti est
O r
ay s
Ġre le
Ġex act
Ġevery day
Ġbl ouse
Ġv owed
Ġte asp
Ġra il
Ġcon es
ĠR a
Ġtast es
Ġdri ft
Ġsat is
Ġwood en
Ġdoctor s
la ire
Ġhur ried
Ġsucceed ed
Ġdisturb ed
Ġtrave ll
ĠAd am
Ġteasp oon
m ble
o ed
Ġt ugged
Ġb are
ĠJ an
Ġcont ro
ĠSomet hing
Ġpil es
ĠSh aring
Ġstud ied
Ġbill board
g ers
Ġo xygen
et ch
Ġstr uggled
Ġim age
Ġby e
ast er
Åĵ Look
Ġkeep s
Ġcre pt
Ġtun e
Ġacorn s
Ġmuff ins
Ġlip s
Ġitem s
u ke
Ġl ines
Ġc aut
ĠB ig
Ġtre mble
ant a
Ġunder neath
Åĵ Don
Ġlady b
Ġperf or
Ġplan ned
Ġser ved
Ġbloom ed
ĠJess ie
Ġinclud ed
Ġspaces hip
im y
ĠL izzy
Ġlo ving
Ġoff icer
Ġsu itc
av id
Ġpar ked
Ġscream s
Ġtick ets
Ġsoar ing
Ġmention ed
Ġrespons ible
Ġbeg in
ĠJam ie
d ing
Ġwa gging
ĠS low
Ġbe at
Ġbe ard
ĠIt Ã¢
Ġsor ting
Åĵ We
Ġkeep er
Ġcre ation
ff ic
Ġtra ffic
Ġland sc
ĠUn cle
Ġneighbour hood
ĠJul ie
Ġcomple ted
Ġto night
ĠS anta
ĠH op
Ġe ight
Ġeat s
Ġhon k
Ġsight s
Ġshiver ed
Ġpotato es
Ġol ives
Ġd ied
Ġg ained
Ġbe nd
ĠD avid
Ġcuri osity
Ġemer gen
Ġscur ried
Ġintroduc ed
Ġinstruct ions
R emember
ĠJ on
Ġv ent
Ġpre cious
iz ing
ĠC laire
Ġpaint ings
Ġdecor ated
Ġuniver se
. '
Ġn icer
Ġag o
Ġwhat ever
Ġreal ize
Ġste ep
Ġacc om
Ġmach ines
Ġmov ies
Ġcompetit ion
Ġshadow s
Ġprun es
Ġexact ly
Ġs i
Ġan n
Ġrock ed
ĠG r
Ġun e
Ġdraw s
Ġgu est
Ġprotect ed
Ġsol ut
uct antly
igz ag
Ġlandsc ape
B illy
u x
z en
Ġsad ness
Ġsl apped
ĠP ip
Ġown ed
Ġbeh a
Ġprin ter
Ġfro sting
Ġben eath
Ġpow ers
Ġintrod uce
Ġprop erly
Ġwre ck
ĠSlow ly
ux u
b ies
Ġb ank
Ġin ch
ber t
Ġshould ers
Ġyell ing
Ġcont est
Ġpour ing
Ġlem ons
Ġlibr arian
Ġsteal ing
âĤ¬âĢ Ŀ
Ġrubb ing
Ġpengu ins
Ġrele ased
Y e
a les
Ġl uxu
Ġwe b
ĠJ e
Ġkn elt
Ġru in
Ġba bies
Ġsister s
igg y
Ġmix ing
Ġkey s
Ġgather ing
Ġtwirl ing
Ġsil ence
Ġur ged
f it
h ins
ĠB ir
as hed
Ġstrugg le
Ġpur red
Ġcontro l
om as
Ġtheir s
Ġsor ted
ĠAfter wards
Ġforg i
ĠDo lly
Ġfro zen
Ġrel uctantly
Ġunl ocked
Ġcrack ers
Ġfirework s
Ġbare ly
Ġaccom pl
r r
Ġs ides
Ġm ice
is hes
Ġso ak
Ġsh ock
Ġout do
Ġex it
Ġbu dge
Ġdra gged
Ġcr umb
Ġmus cles
Ġspid ers
Ġpun ished
Ġstrip es
Ġchallen ge
i ar
in t
Ġd am
Ġloo se
Ġout fit
Ġgl itter
Åĵ Can
ĠN ick
Ġpast els
Ġboun cy
Ġdolp hins
Ġrepe ated
Ġachie ve
E x
G ra
z ing
Ġ 1
pp ers
Ġran ger
ag ull
Ġop in
th ank
th ough
Ġwait er
Ġbre aking
Ġprin ted
Ġwin ning
Ġpocket s
Ġexp ect
Ġexp ected
Ġroad s
Ġroar ing
Ġfig ured
Dad dy
Ġemergen cy
r ance
Ġ Qu
Ġth ro
Ġli ed
Ġch ases
ĠD id
Ġbec oming
bb ing
Ġbucket s
Ġmiss ion
ĠSt op
Ġpolice man
Ġbrus hes
ues day
Sp ot
Ġthro at
i en
ed ding
ĠT uesday
ĠL ike
Ġse agull
Ġcl ick
Ġpe aches
Ġsl imy
Ġlet Ã¢
Ġwonder ing
ĠTh omas
ĠEm my
Ġplan ets
Ġent ire
Ġstir ring
Ġscream ing
Ġclap s
Ġdiscover ing
Ġcamp ing
Ġcrow d
H appy
S omet
Ġw est
Ġto ur
Ġp ies
Ġsn ugg
Ġsees aw
Ġsit u
Ġstar ing
Ġstret ching
Ġsne aked
Ġapplaud ed
Ġincre ase
Ġguy s
ÅĵDon Ã¢
p ected
x pected
ĠF u
Ġhome work
Ġhow ever
ĠP ipp
Ġact ed
Ġspray ing
Ġcountry side
Ġbalan cing
Ġsi ren
Ġune xpected
d ie
z ie
Ġb oo
Ġf art
it ely
Ġd a
ĠH anna
le e
Ġwor ries
Ġgood night
Ġtouch ing
Ġhig hest
ĠAl ways
Ġgigg ling
Good bye
Ġconf ident
Ġtremb ling
Ġcaut ious
Ġsuitc ase
Ġoutdo ors
b ric
j am
Ġ Yes
er n
Ġhe el
Ġm ittens
ĠB oth
Ġall ow
Ġfa bric
Ġte asing
ĠN an
Ġbro om
Ġour selves
ul ts
ĠK ay
Ġmar riage
Ġpass ing
Ġscr u
Ġlead er
Ġdemand ed
Ġsigh s
ĠMat t
Ġladyb ug
jam as
he ll
Ġc ape
Ġpl enty
Ġsc ra
Ġmat ching
Ġrainbow s
Ġent rance
Ġsupp lies
Ġshiver ing
Ġnail s
Ġdire ction
Ġluxu ry
ver s
Ġr ipe
Ġst are
Ġre lease
ind a
Ġfl at
Ġv ict
Ġgr ant
Ġsweet s
Ġba ked
ul u
Ġreach ing
Ġwin ner
Ġcomplet ely
ĠRo ver
Ġsatis fied
Ġsolut ion
d ies
Ġm ater
ak y
Ġgre et
Ġte xture
Ġrest ored
Ġcut s
ĠJess ica
.. .
Ġtwink ling
Ġmater i
A h
n es
Ġt i
Ġw edding
Ġhe av
ĠL arry
as on
Ġpo king
ac ed
Ġsweet ies
Ġpro ject
Ġcur ly
Ġsurf ace
Ġcurtain s
Ġseas on
Ġbalan ced
Ġres ult
ĠRa bbit
o dy
v in
Ġb unch
Ġf ara
Ġg e
ĠH appy
ĠL inda
ĠL ulu
Ġe ast
ĠB ird
ĠM ick
are n
Ġsn akes
ĠC arl
Åĵ Hello
ĠP inky
Ġwr itten
Ġsing er
Ġroll s
Ġpa jamas
Ġpast ries
Ġintere st
Ġresc ued
cu se
Ġload ed
low ers
Ġquack ed
ĠHanna h
Ġfara way
u ly
Ġw ound
ed nes
ĠW ednes
Ġcom m
Ġfore head
Ġun ited
ĠN ina
ac ob
Ġz igzag
Ġpol ishing
Ġmark er
Ġpray er
Ġhorn s
Ġmelt ing
Ġrecord ed
Ġstudy ing
Ġtask s
Ġpad dle
Ġincl ude
Ġbur row
Ġdisag ree
Ġkneel ed
To day
ĠWednes day
ĠL uke
Ġbo om
Ġfl ames
Ġstr ings
Åĵ This
ĠK e
Ġcreat ing
Ġmat ched
Ġdes er
Ġtrip s
Ġcrab s
Ġmagn ets
Ġshel ves
Ex cuse
p e
ĠT ess
Ġst air
ĠM on
ĠA bbie
ic orn
Ġcat ches
Ġsl ap
Ġbra very
Ġun icorn
Ġtow els
Ġkick ing
Ġcheer ing
Ġvan ish
Ġdust y
Ġphot os
ĠAm el
W hen
Ë ľ
Ġw ink
Ġd ent
en a
ig i
un e
Ġstart led
âĤ¬ Ëľ
Ġch at
Ġbl ink
Ġpe bbles
led ge
Ġbed time
Ġrepl aced
Ġsing le
Ġdragon s
Ġmot ion
Ġpencil s
Ġbump s
Ġstamp s
Ġweep ing
Ġitch y
Ġornam ents
Ġga zed
Ġvent ured
g o
he e
Ġs way
Ġf etch
ir m
ĠB ye
ĠJ acob
Ġhug ging
Ġknow ledge
Ġtr uly
ĠJack y
ĠG igi
Ġwork er
Ġcra cked
Ġbuy ing
Ġheal ed
Ġmiss es
Ġarg uing
Ġregret ted
Somet imes
c ers
ĠM ira
Ġrem oved
Åĵ Mommy
Ġwr ist
Ġfood s
Ġtra ctor
Ġrain co
Ġstick ing
Ġus ually
Ġprin ts
Ġdri ves
Ġwasn Ã¢
Ġpol ished
ang led
Ġpat ience
Ġrelie f
Ġrocket s
Ġtick le
Ġcover s
Ġsandcast les
ĠBet ty
ĠChr ist
Ġactiv ities
Ġfart her
Ġrainco at
b oo
c ope
il es
Ġr umble
Ġst ern
Ġsh ined
Ġcan s
Ġro ots
ĠSu zie
ĠC he
ĠP am
Ġexplore rs
Ġsto len
Ġus ual
Ġopen ing
Ġgrow ling
ho g
Ġchew ing
Ġflag s
Ġpee king
Ġstri ke
ĠSoph ia
Ġobser ved
ĠAmel ia
l ings
y ou
Ġc ent
Ġp out
or ds
ĠM any
ĠA bby
ĠE x
ust ed
Åĵ Oh
Ġsmile y
Ġus es
Ġyell s
Ġpart ic
Ġthre at
Ġcolour ed
Ġglass es
Ġtrave led
Ye ah
ĠKay la
Ġb umpy
Ġr isk
Ġyou th
Ġsp ike
op es
Ġfa ult
Ġch ips
Ġsn at
Ġrock ing
Ġru ler
Ġgrow l
Ġcelebr ation
Ġherb s
ab el
Ġfirefight ers
m as
ri ous
ĠM a
ĠA unt
ĠJ ay
ind r
ĠE lly
ĠE ls
ĠF riend
Ġch uck
as m
Ġra indr
Åĵ Why
Ġstay ing
ĠP l
oy s
Ġown ers
Ġteac hes
Ġdes ert
Ġval ued
Ġtick led
Ġsil ent
Ġfre ed
Ġseem s
Ġsquare s
Ġrub s
Ġhedge hog
Ġimpro ved
Ġseas hell
Ġsque aled
Ġcrumb s
Ġvict ory
R o
j o
Ġd ipped
Ġso bbed
ĠD ays
Ġlisten s
Ġru le
Ġyes terday
Ġcream y
Ġpat ted
ĠO wl
Ġtem per
Ġfu zzy
Ġpartic ular
Ġto dd
Ġf irm
Ġc aused
Ġd en
ĠL ou
Ġbe ad
Ġex ha
ĠW ater
Ġla p
bb ly
Ġpe ppers
Ġcolor ing
ĠLe ave
Ġadd ing
Ġwander ing
Ġwigg led
Ġfamil ies
ĠGre en
ĠJe ff
ĠChrist mas
o h
he llo
Ġc ash
id ing
en ces
op sy
Ġwork ers
Ġwin ked
Ġsaf er
Ġreve al
Ġtwink le
Ġga ze
Ġopin ion
Ġsitu ation
Ġraindr ops
T hen
p ite
Ġa st
Ġc ous
Ġd ared
Ġp ause
is ies
es ome
Ġe ch
Ġne ct
Ġcan Ã¢
Ġfa ced
Ġch oo
Ġneed les
ĠSp ark
itc hes
Ġrest ing
Ġarri ve
ĠK aren
Ġagre es
Ġpack ing
Ġact ions
Ġunpack ed
Ġda isies
Ġexha usted
Ġnect ar
F ine
U h
b and
e ke
f l
Ġt im
Ġa ff
Ġl ined
Ġc ough
Ġwas ted
le y
Ġyou Ã¢
Ġgo als
ur ry
Ġman e
Ġsw ooped
ĠC ra
Ġdel i
ol ine
Ġbowl s
Ġinv iting
Ġple asure
Ġnet work
Ġaw esome
Ġjack ets
Ġdeliver ed
ĠFo llow
Ġscru bbed
Ġtemper ature
n joy
Ġc ause
ar ter
im mer
on i
Ġli qu
Ġsm arter
ĠJ u
ĠJ une
Ġro bb
ong o
ĠC u
Ġbeh avi
Ġread s
Ġdark ness
Ġfair ies
Ġmar ked
Ġwar ri
Ġspe aking
ĠZ oom
Ġbloom ing
Ġcop y
Ġhall way
Ġgrocer ies
Ġliqu id
G re
h ile
Ġw ow
ed s
Ġh i
Ġp iggy
Ġso aked
ĠB ongo
Ġwe ars
ĠM el
Ġsc ales
Ġfe ver
Ġkne es
ĠP o
ĠR obby
Ġimport ance
ugg les
Ġprincess es
ĠO w
Ġrep ly
Ġblow s
ĠSn uggles
Ġwire s
Ġachie ved
Ġcal med
Ġdrift ed
Ġcautious ly
Ġsnat ched
Ġ Y
Ġt y
ir ts
Ġst em
Ġse ven
ĠJ ones
ĠJ azz
Ġsome body
ĠMom o
Ġyour selves
ĠFl opsy
Ġwouldn Ã¢
Ġcow b
izz ie
Ġlead ing
Ġribb ons
Ġrecommend ed
Ġinterest ed
Ġchuck led
Ġbead s
Ġdeli very
C h
o ssible
Ġs ense
Ġb ars
Ġg lee
ĠM il
Ġsp ong
ĠF ar
Ġsw irl
Ġtw in
em ma
Ġimp ossible
bo at
Ġpot s
ĠSus an
Ġmask s
ÅĵWhat Ã¢
Ġflutter ed
Ġbak ery
Ġsnowball s
Ġdent ist
J ust
m ies
Ġm es
ig ning
Ġr ip
ĠB inky
Ġk ites
Ġlo sing
Ġrem ote
Ġbad ge
Ġdream t
Ġnap s
Ġnap kins
Ġorgan izing
ĠBu zzy
Ġwip es
ĠZ oomy
Ġknight s
Ġhelm ets
ĠRo bbie
Ġtem pt
Ġstro ll
Ġstro ked
ĠOl ive
Ġpadd led
Ġforgi ven
Ġmes mer
i k
Ġl imes
ĠL izzie
Ġlearn s
Ġjo king
ĠJohn son
Ġclos es
ĠDo ggy
Ġfro ze
us band
Ġpoin ty
Ġsec ure
ĠAl though
ĠWith out
ĠBe ing
Ġaw ake
ĠRo bert
Ġped als
Ġbak er
Ġann oy
ĠPipp in
Ġcash ier
m allow
w eet
Ġo pp
ar ling
Ġbe lly
ĠB ess
ĠM abel
ĠEvery body
Ġcolor ed
Ġhid er
Ġpass en
ĠTw o
Ġprotect ing
Ġsplas hes
Ġdeterm ination
Ġseek er
Ġfill ing
Ġrad ishes
arsh mallow
Ġstom ped
ĠS orry
Ġin sp
ĠL ena
ad es
Ġno ses
ĠP ut
ĠG et
Ġde al
Ġstore keeper
Ġtall est
Ġmus cle
Ġtail s
Ġsign ed
Ġscar ing
Ġscar ves
Ġcand ies
Ġlean ing
Ġgira ff
Ġobject s
Ġsneak y
ĠNot hing
Ġaccompl ish
Ġti pt
Ġwarri or
Ġspong e
v a
Ġt ig
Ġa ud
Ġs ib
Ġh usband
ou ch
il ed
ĠH oot
ĠL au
Ġr ising
end y
al ph
ĠW atch
?" ,
Ġback ed
Ġle ap
Ġme als
Ġevery body
ish y
ĠG ary
Ġcre ations
Ġun f
Ġafter wards
Ġheal th
br ush
Ġmil es
Ġzoo keeper
Ġrecord ing
ĠMike y
Ġarrow s
Ġart ist
Ġcheek s
Ġsnugg le
Ġgiraff es
Ġtig ers
t uce
v est
ĠS pl
an s
Ġwe eke
itt ed
Ġare n
Ġfl apping
Ġch ip
ĠD uring
Ġlet tuce
Ġdan cers
Ġcon n
Ġcon cer
th s
Ġar r
Ġste er
Ġpart ies
Ġhid es
Ġmark s
Ġdi ving
Ġsal ty
Ġgrace fully
Ġavo id
Re x
Ġhesit ated
ĠGood bye
ĠPr in
Ġtravell ed
Ġweeke nd
Ġc ust
Ġd ots
Ġm i
an n
Ġth ird
Ġy um
Ġfe ast
Ġsl ices
ĠJo jo
Ġsn uck
Ġra cc
Ġhands ome
Ġde f
Ġtri cked
Ġsail boat
Ġpot ion
ment s
Ġbur st
Ġdiscu ssed
Ġhesit ant
Ġrust y
Ġtalent ed
ĠGr anny
Ġtodd ler
Ġaff ord
Ġcust om
Ġracc oon
a a
n ers
p r
Ġt angled
ĠS c
Ġhis sed
ĠW endy
ick ed
Ġsl am
ĠP u
Ġdra wn
Ġcorn ers
ĠAl ong
Ġspoon ful
Ġpan s
ĠZ ara
Ġswe at
Ġrequest ed
Ġdire ct
ĠMad dy
Ġlung s
Ġsib lings
z es
Ġc ott
Ġd ie
id s
Ġne ither
Ġback wards
ĠE arth
ep t
Ġfl ight
Ġsw ept
Ġhand ful
ĠJane y
Ġprin ting
Ġpretend s
Ġdark er
Ġsnow men
Ġembarra ss
Ġfold ing
ĠBlue y
Ġpump kins
Ġlog s
Ġwrap s
iv ity
Ġsaus ages
Ġflutter ing
ĠMil o
Ġtipt oed
ĠLau ra
Ġmi xture
d ed
p it
Ġl ower
il ity
ĠE l
ĠE njoy
Ġch op
Ġgra ndp
Ġgra bbing
Ġad ult
Ġdraw ers
Ġgas p
Me ow
Ġsuperhero es
Ġinsect s
Ġwid ened
Ġcous in
Ġaud ience
B oo
B un
J ane
Ġw ins
ĠT ara
Ġo cc
Ġg ross
Ġbe am
Ġfe ars
Ġwor n
Ġco nd
Ġwill ing
ak er
Th ose
sh ions
Ġwind y
Ġgrass y
Ġriver s
umb ling
Ġstar fish
ĠThank s
Ġclown s
Ġref le
Ġbase ment
Ġexper ien
ĠFo x
ĠChr is
Ġfamil iar
Ġflav or
Ġchef s
Ġperfor man
Ġbegin ning
ĠMick ey
ĠEx c
ĠPrin cess
E w
a bby
n o
ĠH olly
se qu
Ġre fu
ie ce
Ġdad s
Ġbu lly
Ġcon sequ
Ġun s
Ġsnow fl
Ġcreat ivity
Ġforget ting
Ġwra pping
Ġcelebr ating
Ġpay ing
Ġknock s
Ġcompl ained
Ġsprink led
ĠJul ia
Ġfirefight er
Ġheav ier
Ġpout ed
Ro ar
Ġgrandp are
ĠExc ited
R un
W hee
Ġm erry
ĠL i
Ġr opes
ad os
Ġwe pt
Ġre ass
Ġbo dies
dd led
Ġstay s
ob ody
ret ty
Ġkick s
Ġshr inking
Ġrec ipe
Ġsour ce
Ġind eed
Ġfork s
Ġscrat ches
Ġavoc ados
Ġsepar ated
Ġprov ided
Ġsurround ings
Sh h
Ġpupp ies
Gre at
ĠBess ie
N ext
S ally
t le
ĠS qu
ĠS que
Ġr ings
ĠA sh
ĠJ ax
Ġsp ikes
au la
ile y
Ġdoll house
Ġcre w
Ġbel oved
Ġatt ack
ĠSt ay
Ġtrick y
Ġsecond s
Ġhuman s
Ġpress es
Ġinclud ing
ĠFro ggy
Ġgrant ed
ĠKe ep
ĠFriend s
ĠJu dy
ĠFar mer
Ġconsequ ences
? '
B ad
c ake
f all
w k
Ġh our
Ġd arling
Ġm aster
Ġn ine
Ġha wk
ll en
Ġst ool
Ġpl ucked
Ġgo bbled
Ġgl ued
ĠG ina
Ġdress er
ath an
Ġmagic ian
Ġtalk s
Ġplan s
Ġneighb ours
Ġhor iz
ĠSt itch
Ġwis hing
Ġed ges
Ġtunn els
Ġgem s
Ġdeliver ing
Ġneat ly
Ġinstr um
Ġbeha ved
Ġdeser ve
Ġtim er
e al
Ġto uc
Ġc au
Ġte ased
ĠR alph
Ġru ining
Ġru shing
Ġam ong
Ġsail ors
Ġplan ning
Ġcross ing
Ġlollipop s
Ġsymbol s
Ġbuzz ed
Ġscrew s
ab ly
Ġwarn ings
ĠFro g
Ġswims uit
Ġmateri als
Ġaccomplish ment
Ġperforman ce
Ġhoriz on
r ig
Ġh itting
Ġm arshmallow
Ġp ens
ĠL isten
Ġon ward
ĠB ee
ĠM ouse
ch oo
Ġsp ices
Ġhelp ers
Ġfa ct
Ġag e
Ġfl as
Åĵ Do
ĠN obody
ĠR emember
Ġremember ing
Ġam ount
Ġblock ing
ĠO ur
Ġpath s
Ġdrum s
Ġdesign s
Ġmushroom s
ron aut
Ġcobweb s
Ġast ronaut
Ġech oed
Ġdirect ions
Ġtouc hes
n k
Ġm er
ĠS im
at ur
Ġst ung
Ġon ions
ri e
ĠB o
Ġplay ers
st ep
Ġle ast
Ġbr u
ĠD r
Ġte les
Ġra ces
ĠG emma
Ġstrong est
Ġcho ices
Ġbasket s
Ġforget s
Ġpeace fully
Ġmatter s
Ġtest ed
Ġresist ed
ĠAb i
ÅĵYou Ã¢
Ġwigg le
Ġdam age
Gra ndma
ĠQu ack
Ġscra ped
Ġmarshmallow s
Ġteles cope
f ire
t ier
Ġ Q
Ġc or
Ġsa nk
ri p
Ġyou nger
nt il
ĠW ell
ick y
Ġv ines
Ġpret tier
Åĵ Wow
Åĵ My
Ġcon vers
Ġgrow ls
Ġbath s
Ġimag ining
Ġhon ked
Ġgen ie
ĠU nder
ĠU ntil
Ġpoem s
Ġminer als
Ġrust ling
Ġgreet ed
Ġpassen gers
Ġocc as
F o
J enny
d ges
i el
Ġt uck
it ion
Ġm ast
Ġm unch
ay ing
ĠS k
ĠS mo
Ġst itches
ĠB oun
Ġne are
Ġsc ient
Ġad ults
Ġcu shions
ĠP retty
ĠP aula
Ġac he
Ġnear ly
Ġcurious ly
ĠTo dd
Ġresp ond
Ġimag es
Ġfeed ing
Ġvan illa
Ġpray ing
Ġborrow ed
arth a
ĠDave y
mand a
Ġcomplain ing
Ġincre ased
Ġbeha ving
ĠFu zzy
Ġcomm un
immer ing
ĠCu rious
Ġbehavi or
Ġmesmer ized
Ġuns ure
Ġscient ist
L ucy
a ired
l ves
t he
Ġc oral
Ġsa le
Ġplay time
ĠM artha
Ġnot es
all owed
Ġsw allowed
Ġtr amp
Ġtw ice
ue en
Ġwo bbly
Ġdan ces
Ġjoy ful
Ġstand s
Ġdriver s
Ġhope ful
Ġrep aired
Ġsunf lowers
Ġzipp ing
Ġenthus i
Ġreward ed
Ġcent er
ĠSpl ash
rig ued
Ġtramp oline
H ave
O ur
O ops
i ppy
Ġc oup
Ġp ours
Ġo h
Ġn ibb
ĠA manda
ĠW ally
Ġno on
Ġsc en
Ġco c
Ġfl own
Ġsw ords
Ġtree house
Ġtr ot
Ġbra ver
Ġwo bble
Ġwo bbled
Åĵ Hi
Åĵ Well
ĠR ain
Ġdro pping
Ġhear ing
atter ed
Ġheal ing
Ġact ion
Ġspread ing
Al ice
ĠBir thday
Ġge ese
Ġarr anged
Ġenthusi asm
Ġcoup le
w eed
y es
Ġ 2
in itely
it ched
it ude
Ġd et
ĠS un
at ul
Ġn ood
Ġe ase
ri ver
ĠM art
ide y
Ġj ugg
Ġsp ins
Ġbl ast
Ġpe cked
Ġsl ips
ion a
Ġfin al
Ġfin ishing
ac y
ĠSp idey
ĠR avi
Ġwarm er
Ġsand pit
Ġlight er
Ġslow er
Ġel f
ang ing
Ġpro ve
Ġbee h
ĠSt an
Ġwip ing
Ġhero es
Ġencou rag
Ġtriang les
Ġrefre shing
ĠMay a
Ġtravell ing
Ġguest s
Ġ1 0
ĠEls a
ĠSque aky
ĠQ ueen
- -
b ell
b ird
Ġa imed
ĠS ince
Ġsa dd
Ġth orn
ver al
Ġpl ain
ĠM o
Ġsh irts
Ġre ason
Ġse veral
ĠW in
Ġfl ips
Ġpo ss
Ġexpl o
Ġoff ic
Ġfo cu
Åĵ Mom
Åĵ Come
Åĵ Now
Ġthr own
Ġde fe
ĠTh ose
ĠFin n
Ġste ady
Ġpen nies
Ġsea weed
Ġlift ing
Ġact ing
ert ain
Ġant ic
Joh nny
ĠZ ero
Ġexam ining
Ġsell er
Ġaw o
Ġcamp fire
Ġoy sters
Ġbreat hed
Ġvide os
Ġfiref ly
Ġyield ed
ĠMe an
Ġdef initely
Ġfocu sed
E very
L ike
Y ummy
e ars
y ond
Ġs y
Ġf aded
an es
Ġbe yond
Ġst ain
st ick
Ġsc amp
ĠF iona
Ġch os
Ġpe ck
Ġgl itt
Ġhead ing
Ġsqu ishy
Ġbow s
Ġpol itely
Ġvisit or
Ġcup cakes
Ġcho pped
Ġexp ress
Ġlift s
illi am
Ġthu d
ye ars
Ġcudd ly
Ġprop er
Ġsport s
Ġfreed om
ĠSpark y
Ġsnowfl akes
ĠSqu irrel
Ġcau sing
ĠSim on
Ġnood les
Ġbeeh ive
Ġchos en
L isa
S ue
T ime
b ro
c her
r atul
w hile
Ġd aring
ing er
ĠH ope
Ġso fter
st r
un ched
ĠM uff
ent ly
Ġsh own
Ġro ars
ong ratul
ĠF ire
Ġwho se
Ġtw enty
ĠN ora
Ġwarm ly
Ġthrough out
ĠK elly
Ġwon Ã¢
ĠAl ison
Ġdi ved
Ġnervous ly
Ġtwist ing
Ġdiamond s
Ġtoast er
Ġsniff s
Ġsnee zing
Ġsurf board
Ġstack ed
Ġinsist ing
Ġpupil s
Ġflav ors
ĠMad die
ĠTess a
Ġrobb er
Ġcowb oy
Ġslam med
Fo llow
F l
L e
W oof
c l
k y
m ered
u zz
Ġa im
id o
on ies
Ġin j
ut ter
ĠB ri
ĠW illiam
Ġch arge
Ġint rigued
Ġpu ff
Ġover come
Ġexplore r
Ġsto pping
Ġwr ink
us hed
Ġtable s
ott en
Ġbelong ings
Ġmail ed
Ġdrive way
Ġign oring
Ġdecor ating
ĠU p
Ġtwist y
Ġstream ers
Ġdesign ed
Ġwhisp ers
Ġgrand son
Ġstat ues
Ġperform ing
ĠKat y
Ġlend ing
Ġtwink led
Ġloop s
Ġwhisper ing
Ġsuff ered
ĠSad ie
Ġlick ing
Ġsew ed
ĠBir dy
ĠQu ick
ĠCra bby
ik i
Ġgrandpare nts
Ġawo ke
a ven
c ter
u pt
y an
Ġf ant
ĠT una
Ġd ot
Ġm ate
Ġp onies
Ġr otten
ĠI m
Ġplay room
Ġsh oo
Ġro ses
Ġco ach
Ġco sy
Ġpr ob
ĠF ido
Ġgood ies
Ġsl ed
Ġbeauti fully
Ġdoll ars
Ġun w
Ġforest s
Ġbel ts
Ġunderstand s
me al
Ġjoin ing
Ġfit s
Ġcalm ly
ĠZ ip
Ġlead s
Ġswan s
ĠRo ger
Ġoat meal
Ġsurrender ed
Ġquarrel ing
Ġnovel s
Ġres ults
Ġpunish ment
Ġtremb led
Ġwid er
ĠOut side
Ġrefle ction
Ġantic ip
Ġscamp ered
Ġfant astic
Ġprob ably
a el
c us
s m
s ers
w he
Ġt iss
Ġt ying
Ġg ap
ĠS w
Ġn apping
im ent
on se
ĠL ove
ri er
ĠB ack
ĠM ich
ĠA ny
Ġman ag
dd ing
Ġch ara
Ġsl ither
Ġwater fall
ĠP andy
Ġfin s
ĠR yan
ĠDo g
Ġcold er
Ġfox es
Ġshop s
oun ced
Ġresp onse
ĠSt art
Ġpicnic s
Ġappreci ated
Ġconf l
Ġperfor med
Ġrisk s
Ġforgiven ess
Ġconn ected
Ġmer ma
ĠMean while
bro ken
ĠMuff in
ĠMich ael
Ġchara cter
L isten
b ra
c row
d river
e el
m ates
r up
Ġa is
Ġwa ddled
re en
it s
Ġc ertain
il ted
Ġg est
ck y
ĠM other
ĠM aisy
ch ild
Ġas ide
Ġsc ored
Ġpo ster
Ġpo sit
Ġtw eet
ĠJo anna
Ġhand ing
Ġgarden er
Ġcon vin
Ġrain y
Ġel bow
Ġcloud y
ĠSt ill
Ġpost man
Ġsniff ing
Ġgrand child
Ġappreci ation
Ġscrew driver
Ġspill s
Ġseashell s
ĠLou ise
Ġannoy ed
Ġencourag ing
Ġsy rup
Ġanticip ation
b ut
f ound
o ss
Ġ X
Ġt ar
Ġt ipped
Ġwa g
Ġl ent
Ġn i
on na
es pite
oo king
Ġr amp
Ġwe eds
Ġsh ady
Ġk ings
Ġre un
Ġj ars
Ġex cept
ight ing
Ġch anging
ĠD espite
Ġwater ing
Ġsmall est
Ġsn ort
Ġbra vest
Ġche ers
ĠG inger
ĠR ock
Ġsweet est
Ġcra ft
Ġworry ing
Ġsail s
Ġbelie ving
Ġheart broken
Ġlay ing
Ġpop s
ĠBe cky
Ġbell s
Ġneckl aces
Ġsuggest ion
Ġprep aring
Ġped aled
Ġrever sed
Ġstud ents
Ġincre asing
ĠMe g
Ġrespons ib
Ġsuffer ing
rr r
ĠFu zz
Ġconvers ation
Ġoffic ers
M ine
f ather
m unk
o llen
Ġt ies
Ġt umbled
re y
Ġg onna
ĠS al
am bled
Ġst umble
st orm
Ġre app
ĠMom ma
Ġsw ollen
ĠC le
Åĵ Of
Ġcon qu
ĠG abby
Ġblock ed
Ġbit ing
Ġnest s
Ġrespect ed
Ġang els
Ġpepper oni
Ġbatter ies
ĠDan iel
Ġperm itted
Ġzebra s
ĠSee ing
Ġmeow ing
Ġpupp et
ĠNan cy
Ġge ars
Ġconcer t
Ġreass ured
Ġtrot ted
c ie
w ise
Ġto ss
Ġh oo
Ġhe ight
or der
ĠL ia
Ġe v
Ġe arn
Ġu nd
Ġr ather
Ġst all
Ġthat Ã¢
Ġsm ashed
Ġan ger
Ġsp ook
Ġme mb
Ġnew found
Ġbl ond
Ġthought s
Ġta pped
Ġsk unk
Ġqu ilt
ect ion
Ġwr igg
ĠR iley
Ġtow ard
ath y
Ġfire s
Ġdr own
Ġcra shing
Ġprom ises
Ġcount s
Ġve gg
Ġpaint brush
Ġplant ing
ĠAl i
Ġstreet s
Ġpay s
Ġscr ambled
Ġsoap y
ĠSn ap
Ġsuit s
Ġdiscover ies
Ġspeed ing
ĠPe pper
ĠPe ggy
ĠPat ty
uct or
Ġpassport s
amb oo
Ġdelay ed
Ġwigg ly
Ġuniform s
Ġeffort s
Ġdam aged
Ġfirm ly
Fl uffy
Ġmerma id
Ġspook y
Ġmemb ers
? !"
A my
G eorge
m s
o ey
s ie
v as
he w
Ġw oof
Ġp ound
Ġn uzz
an ces
or ter
am ma
Ġbe ating
Ġso ot
ad ing
ug s
Ġsp ed
fu s
rom ise
ust y
Ġcle ared
Åĵ Okay
Ġdan gers
Ġclean er
Ġrain s
Ġhop s
Ġmon ths
Ġtable t
ĠJen nie
Ġju dges
Ġshap ed
Ġmin ts
Ġband ages
Ġpan icked
Jo e
Ġtid ied
Ġclear ly
ĠZ oey
Sam my
Ġfill s
Ġadd ress
Ġfis hes
Ġcover ing
Ġmagn if
Ġfrown ing
iv ia
Ġcudd les
Ġsurf ing
Ġmill ion
Ġexerc ises
Ġbrus hing
Ġbreat hing
Ġstro ke
Ġpur rs
Ġdiscuss ing
ĠOl ivia
ĠFrank ie
ĠJan ie
ĠNan a
Ġopp os
Ġinsp ired
Ġcond uctor
step s
Ġtiss ue
Ġtar get
Ġvegg ies
I n
S ome
V ery
w ater
Ġd ep
ĠS l
en ing
Ġn ur
Ġr out
Ġso aking
ĠB aa
Ġk ittens
Ġse als
Ġcan vas
Ġal ien
Ġtre ated
ĠF eel
ĠF ighting
Ġthan king
Ġtr ans
Ġunt ie
ast y
Åĵ Hey
urpr ise
Ġdoor way
Ġnight s
ĠThat Ã¢
Ġsmell ing
Ġspark s
Ġspr out
Ġpack ages
Ġdes per
ĠO ther
ail s
Ġpuzz led
Ġfoot steps
Ġtool box
Ġremind ing
Ġtidy ing
Ġwis ely
Ġsquee zing
Ġtravel s
Ġgrand father
Ġpige ons
Ġload ing
Ġart work
Ġmagaz ines
Ġdisplay ed
Ġprevent ed
Ġsque ak
Ġadmir ation
Ġglo be
Ġmateri al
Ġexperien ced
Ġrefu se
Ġoccas ion
Ġconvin ced
Ġreun ited
J en
W h
b age
c ent
n ow
p en
Ġs ou
re w
ĠT ake
Ġc oug
Ġhe aven
Ġm oo
ar row
Ġg er
ĠS leep
Ġn asty
Ġsa v
ig hing
Ġr ays
ĠB ecause
Ġmom mies
ĠM amma
Ġan k
Ġsp y
lp h
are t
ĠE ver
Ġgood by
Ġch in
Ġch illy
ĠD oug
ĠSu per
Ġbl inking
ink le
ĠJo sie
Ġfo nd
Åĵ Where
Ġdress ing
Ġduck ling
Ġswim mer
ord inary
Ġdist ract
Ġdes pite
Ġimag inary
Ġhon king
Ġshr unk
Ġchocol ates
Ġban ged
Ġple aded
Ġsol ving
Ġtrust ing
Ġgar bage
Ġcrown s
Ġcam el
Ġguess ing
Ġextra ordinary
Ġsend ing
.. ."
Ġrot ting
Ġvehic les
Ġsque aked
Ġsew ing
Ġaccompl ished
Ġsway ed
Ġstern ly
Ġmunch ing
Ġev il
Ġoppos ite
Ġgoodby es
D ear
E m
M ary
S o
T ake
b ec
e ople
f ia
g ain
h ind
v ant
v room
Ġb amboo
is ions
id ence
or i
ĠH allow
Ġr in
Ġwith in
ĠB ra
Ġdo d
Ġdo ves
Ġwh oo
Ġlo c
Ġsp at
Ġex ch
Ġkn ots
Ġman ners
dd les
Ġla pt
Ġla sers
Ġfl ipped
ild a
Åĵ But
Ġdis c
air y
ugg y
Ġcomfort ing
sc reen
ĠSt ella
ĠBe hind
Ġ' '
ĠZ ee
Ġgener osity
Ġscr ub
Ġpray ers
Ġweal th
Ġenv iron
Ġemer ged
Ġobey ed
Ġcub es
Ġchip munk
Ġcustom ers
ĠExcited ly
Ġmast erp
ĠSk ip
Ġrespond ed
Ġnibb led
Ġcoc oon
Ġgest ure
ĠHallow een
Ġenviron ment
W atch
e w
e edy
r ink
ĠT aking
ĠT erry
Ġhe n
Ġm ood
Ġm aker
Ġn atur
or ation
Ġin ter
ĠI zzy
Ġshe ets
ly n
ic ate
ĠW elcome
Ġbr ide
Ġdec l
Ġch anges
Ġsun screen
Ġfo cus
Ġbra ins
Ġdon key
Ġsurpr ising
ac les
ĠSp eedy
Ġmove ments
ĠGra nd
Ġmar ve
Ġvisit s
Ġgrow s
Ġcoll ap
Ġaf ar
Ġbus iness
ĠAl bert
Ġstorm s
Ġpin ching
ĠBr uce
Ġdig s
Ġaw ful
Ġunl o
Ġshovel s
Ġconf idence
Ġbury ing
Qu ick
ĠAn other
Ġpeel ed
Al ways
Ġencourage ment
Ġpadd ling
ĠJon ny
Ġforgi ving
int ment
Ġglitter ing
Ġty pe
Ġwrink led
ĠFeel ing
Ġank le
Ġlapt op
S urprise
a e
d ress
o c
p s
w e
w orm
Ġt ing
Ġwa kes
re ct
Ġg room
an a
an ish
im mered
ĠL ooking
Ġfor m
el ie
ry ing
Ġno dding
Ġwho ever
Ġdec isions
Ġfl ick
Ġfl ip
ĠD ory
Ġwater s
ip es
Ġforg ives
iss a
Ġbit s
ĠFin ny
Ġhair dress
bo ards
Ġlesson s
Ġfloor s
Ġtight er
Ġcomp ared
ĠFl ora
Ġcup cake
Ġjob s
Ġca w
Ġtrouble s
Ġpresent ed
Ġmatter ed
Ġrec order
Ġpri ck
Ġswe ep
ĠSnow man
Ġpand as
Ġtire s
Ġrepe ating
Ġspell s
Ġlip stick
Ġlangu ages
Ġbother ing
Ġsnap s
Ġleap t
Ġbru ises
Ġcor rect
Ġneare st
Ġsadd er
Ġthorn s
ĠStart led
Ġconfl ict
Ġtrans f
Ġger ms
Ġnatur al
Ġhairdress er
A ny
B oys
H enry
l t
l ine
p es
w hat
Ġs ill
Ġs igning
Ġto ssed
Ġb ou
ou ched
Ġd ump
Ġp ins
id er
ĠS ummer
at s
le ts
Ġst eth
Ġsh all
Ġre ly
ĠA na
Ġlo ses
Ġgirl Ã¢
Ġcl ues
Ġal though
Ġsc ent
Ġsc ores
âĤ¬ ,
ĠF ort
Ġpo se
Ġexpl oration
Åĵ Maybe
Åĵ See
Ġwind ing
ac le
Ġclos ing
Ġlea king
Ġcra cks
Ġpart ed
Ġdri pping
Ġsnow y
Ġdes igning
Ġsur v
ĠSt ar
Jo ey
Ġsel f
Ġadd s
ĠFred die
Ġjog ger
Ġham ster
Ġfrown s
Ġcomb ed
Ġtap ed
Ġcomput ers
Ġwindows ill
Ġunpack ing
Ġhook s
Ġtear ing
Ġobser ving
Ġexplain s
Ġappl ause
Ġluck ily
Ġbur ger
Ġfreez ing
Ġpur r
ĠV room
Ġspit s
Ġoutfit s
Ġseagull s
Ġtexture s
ĠEls ie
Ġcott age
ĠLi bby
Ġinstrum ents
ĠQuack ers
Ġexplo ded
Ġbou qu
Ġsteth os
A n
B ang
G et
M r
M andy
P l
T eddy
b elt
b ank
b aby
j ack
k er
Ġc ongratul
ing ing
Ġg all
Ġy el
Ġr owed
ĠB uggy
Ġli es
Ġsh allow
Ġsh orter
ĠJ asm
Ġsc ri
Ġfa iled
ĠYou Ã¢
Ġcar ries
ĠD e
Ġcare s
ant ha
ĠSo fia
bb ling
and a
Ġstr um
Ġsn apping
ast e
Åĵ The
Åĵ Who
ĠP en
be e
Let Ã¢
ĠR uth
ĠGra cie
Ġcomp ete
Ġpro d
ĠTw inkle
Ġgigg les
Ġspray s
Ġrobot s
Ġstret ches
Ġclass mates
Ġwis er
Ġapolog ised
Ġscare crow
Ġbeet les
Ġmem ber
Ġer ase
Ġstamp ed
Ġscoot ers
ĠPat ches
Ġfilm s
Ġbeep ed
Ġtub es
Ġtrave ling
Ġlumber jack
Ġbother ed
Ġsimp ly
Ġrepeat s
ĠPr ince
Ġsiren s
ĠKe vin
ĠAunt ie
ĠHoot ie
Ġsweat y
Ġcott on
Ġastronaut s
Ġais le
Ġmasterp iece
Ġdecl ared
ĠFort unately
Ġbouqu et
ĠJasm ine
A ll
C l
F or
e my
e ens
i bbit
v al
w ell
Â ¦
Ġa ctor
Ġs ipped
Ġb ound
ĠT ime
ĠT ry
ĠT urt
Ġd ip
er k
il ities
ĠS ay
Ġfor ts
Ġsh in
ĠA r
ĠA gain
ĠJ ason
um ent
âĤ¬ Â¦
ĠD uck
ant ed
Ġqu eens
Ġen emy
Ġjo ked
Ġjo ins
ort un
Åĵ Good
ĠP aw
Ġstor ed
ĠR ay
Ġbright est
Ġsqu ir
Ġsqu ished
Ġcr ouched
Ġpap a
Ġtast ing
Ġcomp an
Ġca fe
Ġbus es
Ġwhist les
Ġpurp ose
Ġboun ces
bar row
Ġseat belt
ĠGo ld
Ġpizz as
Ġwheel barrow
Ġrelax ing
Ġhunt ing
Ġaw are
Ġcro aked
Ġhoop s
Ġgrand d
Ġdestro ying
Ġbrace lets
Ġcrocod iles
ĠPe ep
Ġdisturb ing
ĠMe gan
Ġactiv ity
Ġexpect ing
ĠBird ie
ĠPl aying
Ġtempt ation
Ġopp ortun
Ġsteer ing
ann e
Ġcustom er
Ġflas hing
ĠBri an
Ġunw ra
Ġdrown ed
Ġnuzz led
Ġstethos cope
Ġcongratul ated
Ġyel ped
P eter
S andy
T w
T oo
d a
f lowers
l ers
o lph
p o
p y
r ily
Ġ Okay
Ġt ilted
Ġs ens
Ġthe at
Ġb less
it a
Ġd arl
Ġwas ting
il i
ĠS a
ĠH oney
ĠL enny
Ġbe a
Ġplay d
ĠM oo
ĠM ag
Ġsh ave
Ġsh immering
ĠA ng
Ġbo nd
ĠJ elly
ic le
ic ia
ĠD ot
Ġbl own
Ġta pping
Ġunt ied
Ġche cks
ct ric
Ġra ising
Åĵ Sure
ĠP et
ĠP ear
so l
ĠN ice
Ġste pping
ul ars
Ġvisit ors
Ġpet ting
ugg ing
Ġriver bank
Ġwin king
Ġcour t
Ġneck s
ĠOn ly
Ġcheer fully
ÅĵI f
Ġbat tle
Ġbreath s
Ġcheck ing
Ġturt les
Ġfigure s
Ġterri fied
Ġscare s
Ġliz ards
Ġrat s
Ġknock ing
Ġtrap s
ud olph
ĠPat ch
Ġbin oc
Ġvest s
Ġshort s
Ġfle as
Ġapplaud ing
Ġthumb s
ĠIs n
Ġflap s
ĠJon athan
Ġinch worm
ĠPo or
ĠPu ppy
Ġembarrass ing
ĠAsh ley
Ġni bble
Ġconqu ered
Ġnur ses
Ġprick ly
Ġcompan ion
Ġtheat re
Ġdarl ings
Ġbinoc ulars
D ave
H is
i eter
j est
l ied
Ġ ill
Ġb as
Ġh u
Ġc uc
is dom
Ġg az
at itude
an i
ĠH ar
ĠL y
Ġr umbling
am my
Ġmom Ã¢
ĠM in
Ġwh ales
Ġbo ards
ĠJ et
ain t
Ġcl erk
get ic
Ġfa ith
Ġtre as
ĠE ric
Ġch ili
Ġsw at
Ġbl oss
ĠSam antha
Ġqu ieter
ĠAnd rew
ĠC D
em pt
Ġend s
Ġgr atitude
ĠR ight
ĠR ita
ĠR udolph
ĠR ani
Ġmean ing
Ġsqu aw
Ġsing ers
Ġset s
Ġslow ed
sp eople
Ġjoy fully
Ġatt empt
Ġtown speople
Ġteacher s
Ġact ive
Ġanswer ing
Ġhum ming
Ġwhis k
Ġord ers
Ġcrawl s
Ġgoat s
Ġresc uing
Ġtooth brush
Ġmis chie
Ġgrand baby
Ġquestion ed
Ġotter s
ĠTr ust
Ġstud ent
Ġfloat s
ĠV ery
Ġcal mer
ĠPipp a
Ġwound s
ĠMa e
Ġrobb ers
Ġbeam ing
ĠBo bbie
ĠSmo key
ĠMart in
Ġglitt ered
Ġmate y
ĠPear l
Ġmischie vous
b u
p ing
Ġt ips
Ġb itten
in ts
Ġwa king
ĠT in
Ġp ouch
om b
Ġg rip
ĠS il
en n
Ġha b
ot o
ĠL ion
Ġr iddle
ri ck
ĠB ang
Ġwe ighing
ĠM an
end ant
Ġle vers
Ġfl ashed
ĠD in
ap ot
Ġpo ses
Ġbu bbly
Ġpe ep
Ġsk ies
Ġover head
Ġsn ug
ĠC ro
Ġgr umbled
Ġgarden s
Ġte apot
Ġdoor bell
Ġun fortunately
ĠSp anish
Ġblue bird
ĠR oo
Ġsand y
Ġmess es
Ġmess ages
ĠK iki
Ġpol ar
Ġele ctric
Ġwelc oming
Ġexp ert
Ġreturn ing
Ġzoom s
Ġsupp lied
ĠBe a
Ġremind s
Ġburn s
Ġdecor ation
Ġapolog y
Ġaw hile
keep ers
Ġarg ument
Ġsquee zes
Ġsupport ed
und red
Ġkay aking
Ġscold s
Ġener getic
Ġstro kes
And y
Ġsque aky
Ġmosquito es
Ġfascin ating
Ġspill ing
etch up
ĠJe an
Ġclick ed
Ġsway ing
Ġcowb oys
Ġcommun icate
Ġexpress ion
Ġmanag er
Ġsoot hing
Ġdisc ou
Ġtreas ured
J ake
N ice
p lease
r ough
v ince
Ġw ig
Ġh ood
Ġh ike
Ġwa ded
ĠT oto
Ġn apped
an ing
or king
or med
on nie
Ġin vent
ĠL uc
ĠL ots
Ġfor ce
Ġfor med
ĠM ila
end ed
Ġk etchup
Ġre wards
ĠA va
Ġas hes
Ġj ing
ĠW oo
Ġcl ue
Ġwhat Ã¢
Ġbu ddy
em on
Ġflow ing
Ġche ated
Ġgl isten
Ġgl iding
Åĵ Please
Ġfin ishes
Ġcon cent
Ġcon vince
ĠN athan
Ġdis o
Ġam u
Ġba a
Ġem bra
Ġinst antly
ĠThank fully
ĠO ink
ĠO ff
ball s
Ġpres chool
ĠCh uck
Good night
Ġwild flowers
Ġmind s
Ġple as
St ay
Ġstir s
Ġtest ing
Ġtick ling
Ġteam s
Ġcheck out
Ġcheap er
Ġlab els
Ġumbrell as
ud ged
Ġimpro ving
ĠMat ty
Ġscur rying
Ġpedal ing
Ġann ounced
ĠMon a
ĠMon key
Ġparticular ly
Ġchoo sing
Ġannoy ing
Ġyum m
ĠIm mediately
Ġresponsib ility
Ġrout ine
Ġgaz ing
Ġdiscou raged
Ġconcent r
D eal
P ut
c uit
f ly
f ive
r ite
r upt
u lp
w are
x ophone
Ã ĥ
Ġb is
Ġf et
Ġf ade
ĠT y
ĠT re
ĠT iger
Ġl im
Ġl ump
Ġc ages
Ġo dd
ĠS and
ĠS ash
at ive
Ġsa xophone
ĠH old
ĠB ow
el ve
el ope
Ġwh ined
Ġwh ipped
Ġk it
Ġsm elt
hing s
Ġcl ut
are fully
Ġsc ulp
Ġro ast
Ġsomet ime
Ġbird house
ag ine
if t
Ġch ill
Ġsw allow
Ġsw itched
ĠD ra
ĠD own
our ed
au s
Ġover whe
ĠC arefully
Ġhard est
Ġrock y
Ġcon s
Ġun co
Ġwr it
Ġma jest
Ġde v
Ġde ars
ĠDo ve
Ġcr is
Ġtri cycle
Ġbow ing
Ġgu ide
Ġgu ards
ĠFl o
Ġdry er
Ġdry ing
ĠO ak
ĠO uch
izz a
Ġtun es
ĠRe ady
Ġcoo per
Ġship s
Ġcher ish
Ġharm ony
Ġcop s
ĠAlex a
ĠFr an
Ġlow ered
Ġscrat ching
Ġtor to
Ġmel ody
ĠPat rick
ĠTr ina
ĠSte ven
Ġbur nt
Ġsprink le
Ġoffer ing
Ġairpl anes
ib ly
Ġappear ance
Ġcontain er
Al right
Ġhonk s
ĠMel issa
Ġgasp s
Ġinstrum ent
ĠBoun ce
Ġdet ails
Ġjugg ling
Ġslither ed
Ġcharacter s
Ġblond e
elie ve
Ġsurv ive
Ġgall op
Ġgrandd aughter
Ġbis cuit
ĠSash a
Ġsculp ture
Ġoverwhe l
A rrr
G ot
M ar
c ar
l o
l or
o ff
Ġ ouch
Ġ icky
re st
Ġm unched
Ġp uck
Ġp ipes
ĠHe len
Ġpl umber
st y
Ġre bu
ic s
ĠW il
ĠW as
ĠW isdom
Ġkn it
ick ing
Ġpr ank
ĠE r
ell e
ook s
Ġbl ades
Ġbl ushed
ap s
Ġbu nd
Ġho ot
Ġpe as
Ġsl apping
ĠJack Ã¢
Ġgl ared
Ġunder water
ĠP a
ĠP ink
ĠP up
Ġclean s
Ġreal izes
Ġun able
Ġsure ly
Ġsqu inted
Ġdifferent ly
Ġflo ppy
Ġsweet ly
igg le
Ġpass es
Ġbuck led
Ben ny
Ġben ches
ĠO f
Ġinv ites
Ġpatient s
Ġfeather ed
Ġfoot pr
Ġser vant
ĠLe ah
ĠDon Ã¢
Ġchew s
Ġmir acle
Ġshark s
Be ep
Ġzip s
Ġsupport ing
Ġmay or
Ġcryst als
ĠRos a
Ġbackpack s
Ġhaircut s
Ġunlock ing
Ġslipp ing
Ġpress ing
Ġmeat balls
ĠCat ty
ĠAm i
Ġopin ions
Ch oo
Ġattack ed
Ġposs ess
Ġdefe ated
Ġposit ive
Ġwrigg led
Ġdod ged
Ġcollap sed
Ġcorrect ly
Ġpeep ed
Ġglisten ing
Ġdiso bey
Ġwrit er
, '
D anny
H oney
M ark
T weet
a ving
d ers
j ust
Ġ 5
Ġ Yum
Ġt um
nd ed
Ġto pp
Ġb omb
Ġh undred
Ġl ar
er g
Ġwas hes
ĠS urpr
ĠS weet
Ġha ven
Ġth ump
Ġin ches
Ġr oo
am ing
Ġbe ast
ĠB ad
ĠB ust
ĠM ine
ch y
Ġsh ines
Ġnot icing
Ġwh ine
Ġwh imp
Ġsp are
Ġback s
Ġfun n
Ġro amed
Ġwor st
dd ie
Ġpark s
Ġbl ob
Ġsl eds
Ġfo am
Ġgl ided
Ġgl immering
Ġra cer
sh adow
Åĵ How
ĠP ick
Ġbad ger
ĠN ell
ĠN ever
ĠR oy
Ġstore s
Ġcr ops
Ġste w
ĠK ait
Ġhot ter
Ġcount ries
ang le
ident s
Ġspr ang
br ina
Ġsmo king
Ġpract ised
Ġzoo keepers
Ġprotect ion
Ġser ving
Ġhar vest
Ġmeadow s
Ġpost c
ĠCl aus
Ġguard ing
Ġcur l
fa ction
Ġeng ines
Ġcompl iment
ĠSh ann
Ġexerc ising
Ġsle e
Ġpoison ous
cc idents
Ġsatis faction
Ġreveal ing
Ġbehavi our
ĠBoun cy
Ġscen ery
Ġinj u
Ġcraft s
Ġpound s
Wh ich
Em ma
Ġloc al
ĠPen elope
Ġopportun ity
ĠSa brina
Ġbea ver
Ġelectric ity
Ġoverwhel med
Ġtum mies
ĠBust er
ĠKait lyn
ĠShann on
! '.
B ella
H old
H mm
J ames
K e
N ever
N ina
S oon
T r
g ar
o ard
w w
Ġ 4
Ġ Oh
Ġ icing
Ġb orn
re nt
Ġf aint
ĠT e
ĠT hings
Ġl ull
Ġd ou
Ġd ashed
Ġhe els
ar on
il iar
Ġg orge
Ġn arrow
ĠH o
Ġth ie
le st
le phant
ĠHe llo
ĠL ight
ĠL and
ig ger
Ġr ipp
am iliar
Ġst alk
pp ies
ĠLily Ã¢
st and
Ġwe Ã¢
Ġsh attered
Ġwh izz
Ġk illed
ĠBut t
ĠE d
ĠE ddie
ĠF el
Ġgood ness
ĠD ay
ĠD uke
ĠD eal
Ġab ility
Ġab oard
Ġho llow
Ġho ses
Ġpe ac
Ġtr aded
Ġtr igger
Ġmo at
Ġche at
sh ip
Åĵ A
Åĵ Be
Åĵ Ok
ĠG oose
Ġun less
Ġthr ill
ĠN ate
Ġfish y
Ġsweet er
Ġsleep s
ren ch
Ġmove ment
Ġhun ger
Ġcomp romise
ĠFl utter
Ġcup boards
ĠO t
ĠO strich
ĠAl icia
Sara h
Ġpres ence
Ġpill s
Ġshr ank
ĠBe ep
Ġhum med
Ġcoo lest
Ġbat s
Ġhonest y
Ġpri v
Ġstuff ing
Ġtick les
Ġtent acles
Ġbull ies
Ġcudd ling
ĠCl ar
Ġpant ry
Ġdesk s
Ġcur rent
Ġspring time
Ġmill er
ĠRu fus
Ġchain s
Ġmug s
Ġprov iding
ab ra
Ġweigh s
Ġsince re
Ġweap ons
ĠGre g
ĠCar oline
ĠRob in
Ġnightmare s
ÅĵWe Ã¢
Gra ndpa
ĠYes terday
Ġheav ily
Ġcomm on
ĠChe ese
Ġech o
Ġty pes
Ġswirl s
Ġunf amiliar
ĠEl iz
Ġexperien ces
Ġdefe at
Ġproper ty
Ġinj ured
Ġsnort ed
Ġmagnif ying
Some one
Ġcoug hed
Ġamu sed
Ġpleas ant
Ġtorto ise
Ġlar ger
Ġgorge ous
B obby
V room
c a
g re
l ish
Ġa rom
Ġl ush
Ġd ips
er ing
Ġg ates
ĠS y
Ġn ic
an ced
ut e
ck er
Ġr ips
Ġst ur
Ġpl ow
ĠM ina
Ġwh ir
ĠA lly
ĠA ccidents
ec ul
ĠW hee
Ġall ey
Ġal oud
Ġsc ow
Ġcar riage
Ġla unch
Ġfl ock
ro ll
Ġbl ur
Ġpo les
Ġpe ak
Ġtw elve
ĠJo Jo
ĠJo anne
Ġen ch
Ġunt angled
Ġgr ump
Yes terday
ct s
ĠG irl
ĠR icky
Ġenjoy able
Ġru ff
Ġde ed
Ġmon th
Ġwood cut
Ġwood pe
Ġarm or
Ġgu lp
Ġcream s
Ġatt itude
Ġalong side
ho le
og a
ĠSt acy
Ġpeaceful ness
Ġbat hing
Ġweak er
Ġtent s
Ġcaterpill ars
Ġlean s
Ġstri king
Ġenc ount
Ġleop ards
ĠSh are
Ġvi br
ĠV o
Ġrow s
ĠOl iver
Ġinvit ations
ĠCar ly
Ġladyb ird
Ġvent ure
Ġsitu ations
Ah oy
Ġsilent ly
Ġtempt ing
Ġcond ition
Ġfact s
Ġreapp eared
Ġearn ed
ĠBra ve
Ġwhoo sh
Ġexch ange
ĠTurt le
Ġunwra pped
Ġrebu ild
Ġwhimp ered
Ke ep
ĠButt ons
Ġpeac ock
Ġarom a
Ġnic est
F r
H o
f ree
g r
h ib
m on
p an
p aste
s ite
u ess
w ing
y le
Ġto t
Ġd umb
Ġp ecul
id i
ĠS atur
Ġn anny
an ie
on est
ĠH ank
Ġth ir
ir ing
Ġy elp
Ġst ate
ce ll
Ġpl ugged
ĠM ic
ĠM oon
all ed
se ed
ĠJ illy
Ġsp ies
art ment
ic iest
ĠW ake
Ġle vel
Ġbird seed
Ġother wise
ĠF ind
ĠD ee
Ġpo ppies
bb a
Ġpe els
ven ir
Ġhand y
ĠC ara
Ġkind est
Ġad op
Ġra ked
Ġsoon er
Ġdoll ar
Ġlisten er
Ġar my
ĠTh rough
Ġglad ly
Ġgrass ho
Ġmess ed
Ġdri p
Ġcool ed
Ġroll er
Ġpet al
Ġcho pping
Ġsmart est
Do es
Ġinv ol
Ġwra pper
ĠCh ad
ĠRe bec
Ġmyster ies
ĠSt rip
Ġsal on
Ġcart on
Ġcoo ed
Ġgroup s
Ġcirc led
ĠZ ack
ĠZ igzag
Ġpri est
Ġhang s
Ġhang ers
Ġfre ely
Ġincred ibly
Ġhunt ers
Ġthick er
Ġobedient ly
Ġchar ged
Ġtooth paste
Ġthunder storm
Ġguard ian
Ġrubb ish
Ġscatter ing
Ġkangaroo s
Ġexplain ing
Ġexper iment
Ġcomet s
Ġspeak er
Ġrever sing
Ġstrip s
Ġluck iest
Ġcell s
Ġquack ing
Ġlecture s
Ġsty les
ĠMat ilda
Ġcub s
ĠCar la
ĠCar rie
Ġpupp ets
Ye ars
Ġscru bbing
Ġwink s
Ġchoo ses
Ġflas hes
Ġjugg le
bell e
ĠSw im
ĠCle aning
Ġhoo ves
Ġdep ths
Ġsou venir
Ġdistract ed
Ġmarve led
Ġtransf ormed
Any time
Tw o
ĠAng ie
Ġbloss om
Ġstur dy
Ġwoodcut ter
Ġwoodpe cker
Ġencount ered
Ġpecul iar
ĠSatur day
ĠRebec ca
" !
H urry
O pen
P olly
c ad
h il
i al
i ens
l ook
m ark
s a
w hy
Ġ ic
Ġt in
Ġf ul
Ġf ries
ĠT ell
ĠT ia
Ġl ens
ing ly
ĠS et
Ġn ations
le c
ut ely
ig e
Ġst inky
ĠB onnie
el vet
ĠM uffy
Ġsh immered
ĠA lf
Ġat op
ĠTom orrow
art ed
Ġex amp
ic ated
Ġcan es
Ġal iens
ĠE va
ĠD ora
Ġpo pping
Ġint ently
ĠAnna belle
ĠC olin
sh op
Åĵ Mummy
Ġreal ise
Ġreal izing
ĠN elly
ĠSp ring
ĠR ory
Ġwork shop
Ġsound ly
Ġpart ner
Ġdin ing
ĠK athy
Ġbuild er
Ġbuild ers
ĠAll ie
Ġlunch time
col ored
ĠAl an
Ġfarm s
Ġact s
ĠEll e
ĠSt r
ĠSt ep
Ġrob in
Ġmoon light
Ġnet s
Ġdisappo intment
Ġpri ces
Ġesc ap
Ġind o
Ġcost s
Ġtwist s
Ġguess es
Ġcrack er
Ġer upt
Ġsniff led
Ġdust pan
uct ion
Ġreward ing
ĠRu dy
Ġpad s
Ġrepair man
Ġbulb s
ĠMiss y
Ġdisappear ing
Ġpur ring
ĠWho ever
Ġdemand ing
Ġkneel ing
Ġhesit ation
Qu ack
ĠFro sty
Ġcal f
ĠCar ol
Ġrail s
ĠRa ven
Ġcaut ion
Ġsuitc ases
ĠGreen ie
Ġtempt ed
Ġhealth ier
ĠSc ott
Ġsweat ers
Ġneare r
Ġcommun ity
Ġglitt ery
Le ave
ĠQuick ly
Ġcertain ly
rey a
Ġreapp ear
Ġrin sed
Ġprod uc
Ġshin ier
Ġplayd ate
sol utely
ĠSand ra
ĠEr nie
Ġthie ves
Ġench anted
ĠVo lcano
Ġthir ty
cad abra
' ,
S us
Z oom
c he
c ri
g aret
m it
m ie
Â ©
Ġ Years
Ġt ink
Ġt iring
Ġf ist
Ġd ate
er ina
ar les
Ġg oo
ĠS inging
ĠH i
ĠHe idi
ck less
ig aret
Ġr ack
Ġr umbled
Ġhis s
Ġhis ses
ĠB ree
ĠB arry
ĠM s
ĠM ight
Ġdo zed
end ing
Ġre ckless
ĠA lec
Ġas s
Ġlo cks
Ġbo ld
Ġj ets
ur ity
Ġex hib
ĠW al
Ġkn ives
um ed
get s
ĠF urry
ĠF airy
ĠF reya
Ġch atter
Ġbec omes
Ġke en
Ġball erina
Ġlook out
Ġop t
ĠJack ie
Ġmo ons
oth y
iz mo
Ġlong est
ĠC r
ĠC on
Ġra ises
Åĵ Yay
Åĵ Thanks
ĠP in
ĠP izza
ĠP hil
be ep
Ġfore shadow
Ġcon str
ĠG izmo
Ġcre ep
ĠSp rite
Ġgreat est
Ġtal ents
Ġwarm ed
Ġz ig
iss y
Ġdr oop
ĠDo es
Ġhat ched
Ġcut est
Ġduck lings
Ġtast iest
us hes
Ġgu ided
ĠWhat Ã¢
Ġpat ches
Ġsec urity
Ġgrate fully
Ġtown s
ipp o
Ġph ones
Ġlunch box
Ġyoung est
oun ce
Ġca f
Ġmist y
Ġbush y
ĠCh ick
ĠBu bba
Ġspe ars
Ġtrust y
Ġtest s
Ġeld ers
ĠU sing
Ġtrunk s
Ġpil ed
Ġtank s
Ġcro ak
Ġfresh ly
Ġenvel opes
Ġavo ided
Ġdisgust ed
Ġghost s
Ġcricket s
Ġsend s
Ġcamp site
Ġcourage ous
Ġvine gar
ĠRu ss
Ġspell ing
Ġbarrel s
Ġener g
Ġhadn Ã¢
Ġbur gers
agg ing
Ġmusician s
ĠV elvet
Ġchallen ged
Ġsnugg ling
ĠMa ia
ĠLi am
Ġdesper ately
ĠOther wise
Ġinter rupt
Ġcaw ed
Pl aying
ĠMin nie
ĠWoo ly
ĠTy ler
Ġmajest ic
Ġlull aby
ĠFel ix
Ġgrassho pper
Ġexamp le
Ġindo ors
ĠMight y
C he
H E
M oo
M ore
P aul
b ed
f lower
g a
g ie
h and
o st
o pped
r um
r ope
r iting
t ock
Ġ Yay
Ġt ill
Ġt ant
Ġw etter
Ġh ips
ĠT uffy
ĠT oni
Ġl ur
Ġc ine
Ġc igaret
Ġhe Ã¢
Ġp ounced
Ġn iece
Ġha lves
or ay
ĠH urry
ĠL ina
ri ce
Ġpl opped
ad ually
ĠB oom
ĠB igg
st ream
ĠM ake
Ġdo lly
Ġne cess
ĠA y
ĠA pr
Ġbo iled
Ġbo lt
Ġgo d
ĠJ emma
fu sing
Ġle ver
Ġfa il
Ġfa cing
ĠE ating
ĠF anny
ĠF ishy
Ġla kes
ell ing
Ġfl ipp
Ġdecid ing
ĠD ina
Ġbl ade
Ġab solutely
ara ble
Ġgra in
Ġpo llen
Ġbu bbling
Ġold est
Ġtr im
and el
ĠJo se
Ġsk irts
Ġwater m
ump kin
Ġen em
ĠC ora
Ġbra kes
urp ed
Ġjump er
Ġra cers
sh aped
ĠP umpkin
ĠJoh ny
Ġwind s
eet le
ĠR ich
ĠR usty
Ġenjoy s
Ġchild hood
Ġnight stand
Ġdr ill
ĠDo ctor
Ġtop s
Ġsho el
Ġtight rope
ĠFl ash
ott e
Ġpro ved
Ġpro cess
orm ation
Ġmust n
ĠO ver
ĠCh arles
Ġocean s
Ġpan icking
Ġser vice
Ġshy ly
Ġtrust s
Ġbat hed
ĠZ ac
Ġteam work
Ġcap es
Ġang rily
Ġborrow ing
Ġglow s
ĠMar ie
ĠMar garet
Ġchar m
ĠCl are
ĠCl ucky
Ġserious ly
Ġunk ind
Ġdoesn Ã¢
Ġsurf er
ĠPe ace
Ġshrimp s
stri ches
Ġur ging
Ġclub s
ĠCharl otte
ĠInst antly
ĠBun Bun
Ġappro ach
ĠJul iet
Ġstomach s
Ġcomple ting
ĠTuesday s
Ġcrowd ed
Ġda ily
Ġunicorn s
Ġraincoat s
Ġcent re
Ġtim id
Ġswirl ing
Ġstroll ed
Ġmesmer ised
Ġunf air
Ġconn ect
Ġconcer ned
Ġtuck s
ĠSmo ke
Ġscen e
ĠWin nie
Ġpeck ing
ĠSal t
Ġdesper ate
Ġunlo ad
Ġsens ation
Ġhab it
Ġcons ider
Ġfootpr ints
Ġpostc ard
Sus ie
Ġtant rum
Ġcine ma
ĠApr il
Ġenem ies
? !
A choo
B ird
B aa
F ire
H arry
J ump
M rs
S leep
T ina
b s
b ook
b ars
c at
d on
g ress
h i
i or
k a
o f
p hew
r un
Ġt ugging
Ġs ection
Ġf are
ĠT urn
ĠT oys
ĠT ears
ĠT ori
ĠT ammy
ĠT HE
Ġl il
Ġd ates
Ġm itt
Ġp ace
ar la
is ie
Ġg ad
at rice
Ġsa cks
an ed
im ents
or ious
on ished
ot ion
ver ing
ĠL ori
Ġbe gs
Ġst ings
ĠI ce
Ġpl ug
Ġpl ank
ĠB oo
ĠB illie
Ġup side
el on
ĠM us
ch ard
Ġdo dge
Ġne phew
Ġre cess
Ġbo iling
ĠJ ere
ic o
ic al
ic ious
ĠW orry
ĠW ait
Ġro yal
Ġcar ous
Ġpr ison
Ġla va
as hes
ous and
Ġdad dies
Ġpe cks
ive ly
Ġtr ades
Ġtr ading
Ġrun ner
ĠJo an
ĠJo dy
Ġor chard
ĠWe Ã¢
Ġunt angle
ĠC ow
ĠC ould
ĠC ol
ĠC elery
Ġloud est
Ġwo ken
Ġwo bbles
ast ated
Åĵ S
Åĵ OK
Ġdoor step
ĠG aby
ĠJohn Ã¢
ĠN ia
ĠN urse
ac o
Ġapp ears
Ġright ful
Ġar rest
ĠK en
Ġju iciest
Ġclot hing
Ġdeep ly
Ġmust ered
ĠWh ich
cy cles
Ġowl s
Ġca ves
ĠO lly
Ġjourney s
Ġkiss ing
ĠCh om
Ġmed als
Ġhor ri
ĠSt and
ĠBe atrice
Ġbell ies
Ġmot ors
ĠBr ad
Ġfrustr ation
Ġsuccess fully
Ġmotor cycles
Ġcontent s
Ġcontent ed
Ġmic row
Ġang rier
Ġcher ished
Ġfright ening
Ġcop ied
Ġswe ating
Ġpant ing
Ġsnee zes
Ġhandle bars
Ġintellig ence
Ġperform ers
ĠPe anut
Ġvolcano es
Ġthread s
Ġpeek s
Ġrag s
Ġseas ons
Ġsurround ing
amb i
Ġaeropl anes
Ġbleed s
Ġbang s
ĠOl ga
Ġwre cked
Ġmeow s
Ġsolut ions
Ġweb s
Ġachieve ment
Ġ1 5
Ġallow ing
Ġstare s
Ġdeser ved
Ġchat ted
Ġchat ting
Ġwrist s
ĠChe ap
ĠMa isie
Ġpassen ger
Ġoccas ions
Ġ2 0
Ġposs ib
Le o
ĠAny thing
ĠAny time
Ġmanag ing
Ġrin se
Ġting le
Ġbound ed
Ġhu ddled
Ġfet ched
Ġdev astated
Ġgallop ed
ĠStrip ey
Ġescap ing
ĠCon fused
ĠRuss el
Ġnecess ary
Ġfare well
Ġcarous el
A bra
F red
K ids
M ike
M ittens
M aggie
P ete
R A
R ain
a ved
a ction
c an
c co
d r
f orm
f low
h ow
h aps
i ving
m ony
o ver
p arable
Ġs uck
Ġto n
in ter
in cts
Ġh uff
Ġh oof
Ġwa x
Ġwa nna
Ġf ences
ĠT ri
ĠT ippy
Ġc ities
Ġd emon
Ġm ur
Ġo striches
id night
Ġha mb
on ut
Ġth ousand
ut o
ĠL a
oo o
Ġr is
Ġst un
Ġst iff
Ġpl um
Ġso da
ĠB ambi
el ine
el iness
ĠM ist
ĠM ath
Ġsh h
Ġdo ck
al ity
ĠA maz
Ġbo oth
Ġgo gg
Ġj ay
Ġsp ice
Ġsp ied
ic ent
ĠW ow
ĠW itch
Ġall erg
Ġman Ã¢
dd le
Ġpark ing
if fere
ĠE lephant
ĠF ur
ĠF aster
Ġfl uff
Ġch unk
Ġsw ap
ist ened
Ġpo kes
Ġhow ling
Ġtr ad
Ġtw itch
Ġover flow
Ġqu izz
ace y
Ġfo ggy
ĠC ook
Ġgl istened
ct ed
Ġra king
Åĵ W
Åĵ John
Åĵ There
Åĵ Remember
Ġsu sp
ĠLucy Ã¢
Ġshare s
Ġcon fus
Ġcon fusing
Ġun st
ĠSp rink
ĠR olly
Ġdis ob
Ġdis aster
Ġvo l
Ġbright ened
Ġwarm est
ĠJane Ã¢
Ġpain ful
Ġper ch
Ġba it
Ġsoft est
Ġlight ing
Ġlight ly
Ġdri pped
Ġsho ots
ĠK ids
Ġland ing
Ġbar bec
Ġdragon fly
Ġlon eliness
Ġinst incts
Ġkey hole
ĠO pen
Ġsick ness
Ġadm it
Ġpar amed
Ġshr ug
Ġshr ugs
Ġhor ror
Ġprotect or
ĠSt acey
Ġmind ed
Ġstret cher
Ġbat t
Ġgold fish
arl ie
Ġboard ed
Ġmap s
ĠMar co
Ġaccept ing
Ġpil ots
Ġbloom s
Ġindepend ence
Ġstream ing
Ġguit ars
Ġpost s
ĠCl oud
aid s
Ġsne aking
Ġcur ls
ĠRo cco
Ġresist ing
Ġload s
Ġmush y
Ġfu ss
Ġshort cut
Ġstom p
Ġsurrender ing
Ġsle igh
Ġbicy cles
Ġsneak ers
Ġinse parable
Ġpra ise
Ġfiref lies
Ġsque al
Ġwigg ling
Ġappro val
Ġisn Ã¢
Ġfloat y
Ġrecommend ation
Ġtong ues
Is n
Ġpalm s
Ġenter ing
Ġdifferen ces
Ġchallen ges
ĠGre gg
ĠCar rot
Ġfashion able
Ġpearl s
Ġbend s
.' '
Ġladybug s
Ġast onished
Ġcous ins
ĠJu ice
ĠCu ddles
ĠOw en
ĠY oga
Ch arlie
Ġstroll er
ĠEl isa
Ġgrandpare nt
Ġamong st
Ġswimsuit s
Ġnibb ling
Ġcoc onut
ĠRain bow
Ġstain s
ongratul ations
Ġshoo ed
Ġund one
Ġmagnif icent
Ġdep artment
ĠSl imy
Ġfond ly
ĠGrand mother
Ġsquir ted
Ġcuc umbers
Ġwhisk ers
enn is
Ġembra ce
Ġyumm iest
Ġtopp ings
Ġcompliment ed
Ġslee ves
Ġruff led
Ġvibr ant
Ġful f
ĠWal ter
Ġenerg ized
Ġwaterm elon
Ġlil ies
Ġmicrow ave
Abra cadabra
Ġdemon str
Ġhamb ur
Ġgogg les
iffere nt
Ġconfus ion
' ?"
A d
B unny
D an
D aisy
D anger
F rom
T ry
a ly
r idge
r imp
s he
s hes
t hat
t weet
u dy
y l
Ã Ĥ
Ġw icked
Ġw rench
ed ro
re m
ĠT oo
ĠT ree
Ġl umpy
Ġd arted
Ġp als
Ġp urch
is ible
il s
at ors
at form
ĠH aw
ĠH airy
ll a
Ġin no
ig ure
pp a
Ġpl atform
ĠB iggy
Ġplay house
Ġfor ced
el ina
un ior
ĠM ack
ĠM arshmallow
Ġre jo
Ġre action
ĠA f
ĠA aron
ĠTim othy
Ġbo bbed
Ġsp ee
ur ly
Ġex ist
ic ally
ĠW ise
Ġkn itting
Ġcl am
Ġbird ies
ag er
Ġco de
ĠF igure
ell er
Ġch amp
Ġch attered
as hing
Ġsw itches
ĠD ash
ĠD ifferent
ĠSu sy
ap tain
ĠMax i
Ġmommy Ã¢
Ġtr oph
Ġpick les
ĠC ount
ĠC andy
ĠC urly
Ġkind er
Ġgr uff
Ġgarden ing
Ġgl immered
Ġwo lves
sh irt
ĠP an
ĠP ix
Ġdra g
ĠG en
Ġma car
ĠN ear
ĠR ace
ĠR ibbit
Ġown s
Ġimportant ly
Ġde ck
Ġread er
Ġbuy s
ĠK yle
Ġju d
Ġpro gress
Ġtrain ing
Ġatt endant
Ġdisapp ears
Ġmust aches
Ġsmo ot
Ġob st
Ġinv isible
ĠCh oo
Ġorgan ised
Ġlad ders
Ġmind ful
Ġpan cake
Ġcart whe
Ġsplas hy
Ġdelight ful
Ġsmooth ly
Ġspe ck
Ġsol id
ian a
Ġbat ch
ĠBr other
Ġpri zes
Who a
Ġrid er
ĠMar ley
Ġharm ful
Ġisland s
Ġvalu es
ĠCl iff
Ġcere mony
Ġlaw s
Ġcarp ets
Ġpersist ence
Ġtap es
Ġdust ed
ĠPe ppa
Ġimpatient ly
Ġspring ing
Ġfu rious
ĠWhere ver
ĠSh ow
Ġsucceed ing
Ġspeak s
Ġinf ormation
Ġstrip e
Ġdisplay ing
Ġsupply ing
To by
Ġbang ing
Ġworks he
Ġmass ages
Ġbeg un
Ġdisagre ement
Ġintroduc ing
Ġscoop s
ĠJan ice
Ġscra ps
Ah h
Ġti ppy
Ġcomm otion
Ġdeser ves
ĠChe w
ĠChe ss
ĠJay a
ĠFriend ship
ĠPl uto
ĠSpark le
Ġunf old
ĠPu ddles
Ġbru ise
lves ter
ĠSun flower
ĠStan ley
Every one
Every thing
utter ed
Ġpops icle
Ġhoo ked
Ġtarget s
Ġcoug hing
Ġmoo ed
Ġunlo aded
Ġactor s
ĠLy nn
Ġattempt s
ĠSil ver
Ġinvent ion
Ġjing le
ĠOff icer
Ġclut ched
Ġcris py
Ġcooper ate
Ġbiscuit s
Ġsculpture s
Ġbund le
ĠPa ige
Ġroo ster
Ġfunn iest
ĠHo pper
ĠSy lvester
Ġscow led
cell ent
Ġic icle
ĠStr ong
ĠPin chy
Ġlur king
Ġflipp ers
Ġgad gets
Ġpossib ilities
Ġquizz es
ĠSprink les
Ġbatt les
Ġspee ch
Ġtroph ies
ĠPix ie
Ġmacar oni
B C
B l
E njoy
F riend
F irst
H op
I m
J ess
K itty
N A
O O
P e
P ush
b el
c ip
h ave
k s
n ings
o ving
r ings
r ons
s itter
t aker
u el
u dge
v ia
w ar
w elcome
w orking
Ġt umbling
Ġa h
Ġs om
Ġs um
Ġs inking
Ġw ilted
in ting
re led
ĠT ad
Ġl imp
Ġc ords
Ġp endant
is her
is bee
Ġg le
ĠS itting
or se
ĠH app
ĠShe lly
ut t
ĠL ife
ĠL aser
Ġr um
Ġst itched
Ġon line
ri zz
Ġmom ma
Ġfor wards
un o
ĠM ore
ĠM op
ĠM idnight
ch ief
her ry
Ġsh aky
Ġwh irl
Ġne g
ĠA BC
ĠĠ ĠĠ
Ġse aled
Ġout run
Ġat mo
Ġsp ik
Ġsp arrow
ĠW ings
ĠW orm
ight ly
Ġcl ucked
Ġro am
ĠF ly
ĠF ae
Ġla ces
Ġch ances
ĠD are
ĠD ennis
Ġbl amed
Ġbl ush
Ġcare free
Ġcare taker
Ġdog gie
ers aul
Ġbu d
Ġta les
Ġsun b
ak en
Ġsn oring
ort h
Ġbra g
Ġche ating
Ġgl oom
Ġgl imp
Th ree
ĠP ain
ĠP iggy
ĠP romise
ĠP edro
Ġdra gging
ĠN e
ĠSp ider
Ġwait ress
Ġgreat er
Ġnight fall
Ġbeh old
Ġprin cip
Ġsoft ened
Ġarri ves
ĠK ind
sp here
Ġbaby sitter
Ġhide out
igg ly
iet y
Ġblack sm
Ġsmart s
asket ball
ĠWh ite
Ġmin i
Ġdes ce
Ġdes cri
ĠO tter
Do g
Ġfarm ers
Ġwra ppers
Ġbirthday s
Ġear rings
Ġret rie
Ġfan s
Ġhoney com
og o
Ġap rons
Ġpract ising
Ġlay er
ĠAnn y
Ġcart s
Ġcalm s
ĠBe ary
Ġant lers
Ġfold s
ĠBr uno
Ġnumber ed
Ġscr unched
ĠBl ack
Ġwheel ed
Ġeld er
Ġcap ture
Ġsil k
que ak
Ġsell s
ĠU se
Ġext rem
Ġjack s
Ġloyal ty
Ġfour th
Ġmod els
Ġstream s
ĠCl own
Ġhipp os
Ġreco vered
Ġstack ing
Ġpor ridge
Ġspell ed
Ġquar reled
Ġsunset s
Ġiron ing
io let
heart ed
Ġsneak s
Ġgro aned
ĠCo le
ĠCo pper
Ġvend ors
Ġattach ing
Ġknob s
Ġstud io
ising ly
Ġdelay ing
Ġsub st
Ġvalley s
ĠV iolet
ĠLiz a
ĠSunday s
ĠMad eline
Sh oo
Ġwid ely
Ġperfor mer
Ġbend ing
.' "
ĠPip er
Somet hing
Ġallow ance
ĠMick y
Ġrisk y
ĠPl ay
Ġstem s
Ġembarrass ment
Ġrefu sing
Ġsnowfl ake
ĠAsh lee
Ġ10 0
ĠWin ter
Ġexplo de
cl oth
ĠIm agine
Ġposit ion
Ġgrandchild ren
Ġheight s
ĠSleep y
Ġexch anged
po le
Ġbless ing
Ġcuc umber
ĠDin ner
ĠDra ke
Ġunco vered
Ġouch y
Ġpossess ions
Ġinju ries
Ġdou ble
Ġstalk s
ĠEliz a
Ġinvol ved
Ġexhib it
Ġconstr uction
ĠJere my
ĠTri x
ĠMist y
Ġallerg ic
Ġoverflow ing
Ġdisob edient
Ġbarbec ue
Ġsom ersaul
rizz ly
Ġatmo sphere
Ġspik y
Ġglimp se
Ġprincip al
Ġblacksm ith
Ġextrem ely
A w
A nn
B rrr
F ly
F reeze
L ola
L ena
M ake
N G
O oh
P r
R ob
S H
S illy
b l
b ly
b elieve
c r
c are
d ream
f ess
f ield
f ived
g ood
g ae
m i
m ade
o k
r is
r uck
s orry
u art
y dr
Ġ 8
Ġt end
Ġt umble
Ġa id
nd s
Ġb ins
in ny
Ġh ind
Ġh ydr
Ġf if
ĠT abby
ĠT iki
Ġl en
Ġd amp
il ar
ĠS id
an cing
ĠH ill
ĠH ood
ĠH ugs
Ġher mit
ot ch
Ġy uck
oo ked
oo sh
Ġr ash
Ġst ained
Ġhis sing
Ġday dream
ĠB all
ĠB oy
ĠB izzy
ĠB asketball
Ġplay fully
Ġfor ty
ĠM ap
ĠM uch
ĠM int
ĠM iles
Ġsh ame
Ġsh if
Ġsh uff
Ġsh ots
Ġdo dges
Ġwh ining
Ġwh ines
Ġk ill
al ia
Ġbo il
Ġj aw
ill ow
Ġout ing
ic les
ĠW ish
ĠW orking
Ġle aped
Ġsc an
Ġsc ree
Ġro be
Ġnew ly
Ġpr ops
ĠF ore
ĠF ather
Ġhome less
Ġbl ues
ist a
Ġbu bbled
Ġpre f
Ġho vering
ma ster
Ġhow led
Ġsk ating
Ġsun k
Ġmo ld
Ġcom mand
Ġfo ss
ild ren
ĠC ars
Ġgr umbling
Ġgl immer
Åĵ Are
Åĵ Here
Åĵ Mama
Åĵ Wait
Åĵ Welcome
Åĵ Would
Åĵ Will
ĠP anda
ĠAfter ward
ĠG us
ĠG ret
ĠG iggle
Ġfr isbee
Ġun z
Ġthr one
th an
âĤ¬âĦ¢ .
ĠSp eed
Ġac cess
Ġhead ache
Ġcook s
Ġcr ushed
Ġrest oring
Ġsoft ness
Ġhat ch
Ġste ad
Ġsnow ing
ul ous
ĠK isa
ĠK arla
ĠJim mie
ĠFl appy
ol anda
ĠJust y
Ġpack et
Ġsmo other
Ġmark ing
sc ar
Ġpudd ing
ĠCh ina
ĠSt uart
Ġdirt ier
Ġlast ed
Ġcloth s
Ġcoo p
Ġreg ister
Ġspoil ing
Ġtick ly
Ġcontent ment
Ġsuggest s
Ġfierce ly
ĠAlex is
Ġstri ped
ĠDan ie
Ġclum s
Ġsniff les
Ġmel o
Ġmel ons
Ġhammer ing
ray s
ĠTr ista
Ġyawn ing
Ġhurry ing
az zy
ric a
Ġbeep s
Ġbeep ing
ĠSh rimp
Ġquar rell
Ġgolf er
Ġexerc ised
Ġstom ping
Ġinf ection
Ġrot ted
Ġstro king
Ġquack s
Ġautomob iles
ĠOr ange
umble s
ĠMe i
Ġevent s
Ġrow ing
Ġcal ming
Ġflav our
Ġflav ours
Sh aring
Ġpadd les
!' '
Not hing
Ġsi xt
Ġbank s
Ġfart hest
ĠKay lee
hell e
Ġthreat ened
ĠCra ig
ĠMel ina
Ġstroll ing
Ġinsp ected
ĠSc are
ĠEl mo
Ġconvers ations
ĠUnder neath
ĠSun shine
Ġaim s
Ġni bbles
Ġtoss ing
Ġund o
Ġdump ed
ĠMag gy
ĠPet ey
Ġconcentr ated
ĠSurpr isingly
ĠNell ie
ĠLight ning
Ġpriv ate
Ġgulp ed
ĠMic helle
Ġadop t
Ġtink ling
ĠCr usty
Ġcreep y
Ġcaf Ãĥ
ĠJose ph
ĠAf rica
Ġworkshe et
Ġlen g
ĠMap le
A t
C o
C ar
G uess
M ad
M illie
N O
R alph
V D
a i
b ang
c ies
e at
j a
k ids
m ers
n ut
n if
n ival
n ew
p ect
r it
s aw
t alk
u ice
u nder
Ġ 9
he ard
Ġs im
Ġs izz
Ġs ips
Ġs ipping
Ġw itches
nd y
Ġf ift
Ġd ed
Ġd itch
Ġd andel
Ġm ashed
Ġm ended
Ġp itc
Ġo intment
Ġo gre
ar ies
ar led
il ot
Ġg ummy
ĠS keleton
ĠS NA
en ise
Ġn udged
on ed
ĠH ot
ot ty
ir ly
Ġr ic
Ġr ink
Ġr ibbit
Ġbe gging
ce l
Ġday care
ĠB re
ĠB os
ĠB ooks
Ġup s
st op
ĠM ac
ĠM oney
ent ial
Ġsh aken
Ġre v
ĠA c
Ġlo bby
Ġloo s
Ġgo bble
ĠJ umpy
Ġj er
Ġout sm
Ġsp here
Ġsp ades
Ġex cellent
ic ation
ĠW ant
ĠW ild
ĠW oof
ĠW illie
ĠW riting
ĠBut ter
um n
ĠTimmy Ã¢
Ġcl uck
Ġcl ip
You ng
Ġsc aly
Ġro ds
Ġboy Ã¢
Ġag es
own er
ag ged
Ġcar rier
Ġcar nival
ĠE than
Ġla z
Ġla ce
ell ow
Ġdec re
Ġsw er
Ġsw apped
ĠD el
ĠD VD
ĠD enise
ro ccoli
Ġbl ame
Ġdown stream
Ġv ar
Ġab ilities
Ġkne els
Ġlearn er
Ġpe a
Ġsl ime
Ġsl ightly
Ġrun ners
ĠJo die
Ġover heard
ate ful
Ġsn ipped
ĠC RA
ĠC herry
Ġad v
pt ied
Ġche es
Ġgl anced
Ġhard working
Ġrem oving
Åĵ C
ĠP ass
Ġsu nd
ĠG low
ĠG rizzly
imb o
Ġun iting
Ġun ison
th is
Ġclos est
That Ã¢
ĠR ead
ĠR iding
ĠR ik
Ġwalk ie
Ġquick er
Ġown ing
llow ed
Ġsqu ish
Ġhop sc
ĠTh ough
Ġnight light
ĠSarah Ã¢
Ġz igz
Ġstory book
ĠIn a
ĠDo gs
Ġcra z
Ġprin ces
Ġdin er
Ġdri es
Ġ- -
Ġlion ess
ĠK ent
ĠK erry
Ġcontin uing
Ġrel ation
Ġtight ened
ĠJen nif
sp ass
Ġpoin ter
Ġfight s
Ġspl inter
Ġpol ka
Ġjoy ous
zz z
ix ing
Ġem ptied
Ġele ven
ol k
Ġwin ners
ord an
umb s
Ġsmo ky
ĠO scar
Ġsick er
Ġadm itted
Ġgiant s
Ġdi v
Ġdi ves
ĠSt ret
ÅĵI s
ĠBe es
Ġcolour ing
St ir
ian na
Ġleaf y
ĠZ ane
Ġfil es
Ġpay off
Ġfig uring
Ġflag pole
ĠSn iff
Ġjog s
Ġaw a
Be ware
ĠMy a
Ġcro aking
Ġdesign er
Ġroof s
ĠFr ustr
com ing
Ġrat tle
Ġmis be
Ġgrand kids
Ġcur ve
Ġtap s
Ġattract ed
Ġsuper mark
ĠMaria h
gu ard
Ġengine er
Ġfu lly
Ġscold ing
Ġstrugg les
ĠSh awn
Ġinsist ent
Ġchirp s
Ġprevent ing
Ġimagination s
Ġble nd
Ġble ssed
ĠCo zy
Ġchalk s
Ġpit ched
Ġequ ally
ĠIs la
ĠIs abel
Ġappear ing
Ġres umed
Ġearthqu akes
Ġsimple st
Ġflood ed
Ġrust le
ĠGre at
Ġweight s
Ġscoop ing
Ġdrift ing
Ġemergen cies
ĠGr umbles
ĠBir ds
Ġscra pe
Ġvict orious
Ġdisagree ing
ĠCra b
ĠMel anie
ĠY olanda
Ġreass uring
Ġcor als
Ġdet ect
Ġais les
ĠRock o
ĠRock y
Ġresponsib ly
ĠBra ndy
Ġdod ging
Ġwhoo shing
ĠGrand ad
Ġscri bbles
Ġscri bbled
ĠDe bby
Ġsquir med
ĠMag ic
ĠDot ty
ĠPet al
ĠCro cod
ĠLuc ie
Ġyumm ier
Ġroast ed
Ġservant s
Ġpossess ion
Ġwhizz ed
Ġwhizz ing
ĠOt to
Ho oray
Ġtot ally
ĠAlf red
ĠChick ie
ĠYay a
Ġcigaret te
Ġgod mother
Ġtrim med
Ġshoel aces
Ġconsider ate
ĠMus ic
ĠCol or
Ġris en
Ġplum s
ĠFur ball
Ġsusp icious
Ġparamed ics
Ġhambur ger
Ġpurch ase
Ġrejo iced
Ġcartwhe els
ĠChew y
Im agine
Ġsomersaul ts
Ġpref er
Ġsixt een
ĠScare crow
talk ie
Ġfift een
Ġpitc her
ĠSNA P
ĠBos co
ĠRead ing
ĠRik o
Ġhopsc otch
Ġzigz agging
ĠJennif er
Ġsupermark et
C at
D ra
E at
E ven
F ree
G l
G row
L illy
M ira
S u
S ur
U n
W ith
a way
c oon
c up
e be
g ive
m ind
m ower
p ow
p ilot
t ruck
w en
Ġ Yuck
Ġt v
Ġs ly
Ġs ite
Ġb i
Ġb ould
Ġb urped
Ġh int
re s
Ġf itting
Ġf ading
it ive
ĠT illie
Ġc av
Ġp es
Ġp au
Ġo ily
ar med
ĠS illy
at ty
en zie
an ked
im et
ĠH igh
ĠH aving
le cted
ot or
ĠL oop
ĠL acy
Ġst ash
pp ie
ve y
ri et
ri bble
Ġso bbing
ad ia
ĠB er
ĠB op
ĠB eetle
st al
un ged
un ate
ĠM acy
ent er
all ing
al a
al f
ĠA pp
ĠA bb
ĠA men
Ġfriend Ã¢
Ġlo ss
ec il
Ġbo oming
Ġsp out
Ġsp ine
ur r
ĠTom Ã¢
ic ts
um e
um sy
Ġal gae
Ġsc ience
Ġfe ared
Ġbird Ã¢
Ġfa wn
Ġco cked
Ġco aster
Ġcar ved
ĠE ng
ĠF le
ĠF ake
ĠF ish
ĠF ribble
Ġfl ush
Ġfl icked
Ġch amb
as c
as y
as ia
Ġsw oop
ĠD is
ĠSam i
Ġv oy
ap a
ap er
Ġab ack
Ġab and
arn ing
Ġgra sp
Ġsor row
ma ker
Ġany ways
Ġshow ers
Ġtr udged
Ġtw itched
Ġqu ality
Ġsn arled
imal s
ĠC athy
ĠC aptain
Ġend less
Ġgr ade
Ġbra id
Ġte en
Ġhurt ful
ast ian
ast asia
Åĵ P
Åĵ Help
Åĵ When
Åĵ Just
ĠP it
ĠP ark
ĠP illow
ock s
It Ã¢
Ġdra ined
Ġcon st
ĠG e
ĠG ro
Ġcre ak
Ġcre aking
Ġcre aked
Ġadventure rs
ĠJohn a
ĠN one
ĠN adia
ac ing
ac ulous
ĠR es
ĠR el
ĠR un
ĠR anger
Ġquick est
Ġrain water
Ġru by
co vered
Ġstore owner
Ġsqu at
ĠTh ree
Ġz ap
Ġfire truck
Ġsweet ness
ĠDo ing
ĠDo ll
Ġcr uel
Ġmess ing
Ġmess ier
Ġmagic ally
Ġduck ed
Ġduck ie
uff le
Ġste ered
Ġprom ising
Ġdri ven
ĠTo ot
sp ecially
Ġcomp are
Ġspl attered
Ġside ways
me ow
Ġsign al
Ġje ans
Ġpass ion
Ġpass age
Ġspr ings
Ġpers u
ĠTw it
Ġgentle man
Ġcorn field
Ġinst ant
Ġplac ing
ĠO ld
Ġmail ing
col ate
Do ll
Ġob l
Ġjourney ed
Ġbread cr
Ġmeet s
Ġclever ness
Ġlay ed
Ġthin ner
Ġsal sa
eb astian
Ġmind ing
Ġign ores
Ġrec ital
ĠBu d
Ġfold ers
Ġselfish ness
ĠZ eke
Ġfeed er
osaur us
Ġscr unch
Ġtick ing
ĠNo sy
Ġdish onest
Ġrare ly
Ġmeasure ments
Ġcabin ets
ĠMar c
ĠMar vin
Ġmelt s
Be ing
Ġham mered
ature s
Ġunl ike
Ġterri bly
Ġnorm ally
Ġstri ct
Ġbump ing
ĠCl umsy
Ġhalf way
Ġregular ly
Ġflashlight s
arry l
Ġer ases
Ġcomb ined
Ġcareless ly
Ġenc l
Ġspeed s
Ġcur ved
Ġcur sed
Ġcur ves
ĠRo llie
Ġsupport ive
Ġhung rier
Ġorder ing
Ġsilver ware
Ġcompl icated
Ġstack s
Ġpony t
Ġrecogn izing
ĠSh a
ĠSh ould
Ġped alled
Ġcrow s
Ġcaulif lowers
Ġenthusiastic ally
Ġchimney s
Ġstretch y
Ġshouldn Ã¢
Ġble nded
Ġallig ators
Ġvac u
Ġlawn mower
Ġleak s
Ġwigg les
Ġyield ing
Ġstructure s
ĠIs land
Ġscratch y
Ġres our
ĠFo xy
Ġnewspap ers
Ġgain ing
ĠAn astasia
Ġhurried ly
ĠJan a
Ġloving ly
ĠJon as
ĠGr adually
Ġluxu rious
Gra ce
Ġ1 2
Ġti ara
Ġheav iest
ĠHappy land
Ġcent imet
ĠMa ja
ĠPl us
Ro bbie
ĠLou ie
Ġhi ked
ĠPo ppie
Ġswirl ed
Ġartist s
Ġarr ange
ĠSk ipping
Ġsadd le
ĠMo le
cl ock
Ġconfl icts
Ġramp s
Ġexcept ion
ĠCle o
Ġconqu er
Ġrout e
Em ily
Ġtransf orm
Ġbas il
ĠHar riet
ĠLy la
Ġmeaning ful
Ġsquaw ked
ĠSil via
Ġhab its
Ġembra ced
Ġlim its
Ġunco ver
lor ia
Ġdisobey ed
Ġhundred s
ĠSurpr ised
Ġinju ry
Ġripp les
ĠOt ty
ĠClar ice
Ġecho ing
Ġwhir ring
Ġgrump iness
Fr ank
Ġblossom s
Ġproduc ts
Ġgoo ey
Ġforeshadow ed
Ġinterrupt ed
hand ed
ĠBigg ie
ĠChom py
ĠStand ing
Ġmur ky
Ġstun ned
ĠHaw k
Ġchamp ion
Ġobst acles
Ġgle aming
ĠNe ither
Ġdesce nded
Ġhoneycom b
Ġscree ch
Ġleng th
Ġchees y
ĠSniff er
Ġawa ited
ĠFrustr ated
ĠColor ful
Ġprefer red
Ġbould er
ĠAbb i
Ġchamb ers
Ġvoy age
Ġbreadcr umbs
Ġcentimet ers
? ,"
A A
B r
B u
B le
B less
D el
F un
F ro
H er
K at
K im
L i
M ag
M ove
N ew
P er
R E
S w
S ay
S ix
S oph
S now
a iley
b ur
c red
e ld
f riend
f reeze
g irl
h orse
i bbles
n ap
n old
t op
t eller
v ious
Ġ ident
Ġt us
Ġt roll
Ġs id
Ġs ucked
nd a
ed ience
Ġwa ddle
re at
re ssed
Ġf ired
it ute
ĠT ick
Ġl itter
Ġhe y
Ġhe ed
Ġm end
Ġp y
Ġp ave
Ġp airs
Ġwas p
om p
ar ch
Ġg al
Ġg umb
id y
id ance
ĠS our
ĠS ale
ĠS ebastian
Ġsa ves
Ġha lo
an ation
or nn
or sy
on ny
ĠH ippo
ĠH orsy
ll er
et ah
ĠL ime
Ġu nn
am s
On ly
ri a
ri osity
ri pe
ĠB ing
ĠB iff
el ines
ĠM oe
ĠM ason
Ġli f
Ġli ar
Ġli king
Ġsh immer
Ġk enn
Ġlittle st
Ġre el
ĠA mer
Ġsaw ed
Ġbo ast
Ġbo omed
ĠJ ing
ĠJ es
ĠJ ub
ĠJ imbo
ĠJ ordan
Ġj ig
Ġj unior
Ġsp ect
ur ray
ĠW he
ĠW ar
ĠW iggle
ĠW iggly
um in
Ġback ground
Ġcl ung
Ġcl ips
Ġfe atures
Ġsome how
Ġbr ist
Ġfa ire
Ġfa shions
Ġcar ve
ĠE at
ĠE ag
ĠE specially
ĠF a
ĠF ier
Ġgood s
Ġch ann
Ġch ugging
as ers
as hy
ĠD aughter
ĠD arryl
ro b
Ġbl urry
ant s
nder ed
Ġta le
bb er
Ġho st
Ġho vered
Ġhow l
Ġsk ate
Ġhand led
ump h
Ġexpl anation
Ġoff ers
ĠC ry
ĠC able
ĠC ecil
urn ed
vent ure
Ġche etah
Ġcol ony
Åĵ Stop
Åĵ They
Åĵ He
Åĵ Dad
Åĵ Because
ĠAs ked
ĠP er
ĠP ast
ĠP ico
ĠP urr
Ġimp act
Ġfly er
ĠG av
ĠG uess
ĠG ogo
ĠG loria
Ġun gr
ĠN O
ĠN at
ĠN ibbles
ĠSp ud
Ġapp et
Ġac rob
Ġhead ph
Ġde vice
Ġmor nings
Ġsqu irt
Ġsqu ashes
Ġcont ained
Ġper ked
Ġcr umble
Ġtri umph
Ġfix es
Ġhair s
ĠEm mi
Ġsho ve
Ġbuy er
Ġarri ving
ĠK arl
Ġtable cloth
Ġgu idance
Ġcomp ost
Ġmother s
Ġfew er
Ġmusic al
ĠFl ops
ĠFl ashy
os ure
Ġpat ting
igg les
Ġbelie ves
uit s
Ġmix es
Ġpot ty
Ġmust ard
Ġbuck les
Ġpast ure
ĠWh ist
ĠWh ippy
ĠTw ig
Ġwhe ther
Ġsea horse
Ġdes ire
col oured
Ġnest led
Do ggy
Ġcow girl
Ġround s
ho colate
Ġ3 0
Ġband aged
to ed
Ġimag in
ĠCh ud
Ġsur ger
Ġlay s
Ġrespect ing
Ġdi al
Ġdi aled
Ġlad ies
Ġrec ords
Ġpin ches
ĠZ ippo
Ġtwirl s
Ġpri cked
ĠBl ow
ĠBl oom
Ġcap able
Ġtag ged
ti v
Ġshoot er
Ġlamp s
iv ian
Ġunl ucky
Ġcompet ing
Ġstubb ornn
Ġcro iss
Ġcrack ing
Ġcrack le
Ġpost master
Ġstri kes
Ġcact i
Ġtrump ets
Ġbeak s
Ġcere als
Ġrat t
Ġcomb ination
Ġview s
ĠKim my
Ġcarp enter
Ġsink s
Ġsett ling
ĠRo ss
ĠSnow ball
Ġzipp ers
Ġrece iving
ĠSm iling
Ġyawn s
Ġbri ef
uct ive
Ġpainter s
ĠSh ar
ĠSh all
Ġunlock s
Ġsepar ating
Ġbreat hes
Ġdisturb ance
Ġfort unate
Ġquarrel s
Ġrepair ing
Ġtrail s
Ġpinch y
Ġaut umn
Ġpra ises
ĠHelp ing
ab eth
Ġrequest s
Ġcable s
Ġrecommend ing
Ġtut u
Ġdemand s
Ġachie ving
Ġfest iv
Ġremain s
ĠV ivian
Ġcrunch ing
eed ee
Ġcontain ers
ĠRob o
ĠAm ber
Ġrele asing
Ġcontro ller
Ġann ounce
Ġsnugg ly
Ġboo st
ĠMatt hew
Ġstair case
Ġslap s
boo s
Ġtodd led
ĠJeff rey
ĠY ellow
Ch irp
Ch ildren
Ġinsp ect
Ġleap ing
ĠSc otty
ĠPu ss
Ew w
ĠSque ak
Ġscen es
ĠMart i
Ġpuff y
sm elling
Ġstall s
Ġpound ing
ĠSl ip
ĠDoug ie
Ġgesture s
Pl ay
Ġstrum med
Cl imb
Ġbound aries
ĠAr row
ĠAr nold
Ġbless ings
Ġsquaw k
ĠCro co
ĠLuc as
Ġconcentr ate
ĠDra gon
ĠWil bur
Ġhoot ed
Tr ust
ĠEliz abeth
Ġtot al
Ġroller co
ĠSwim ming
ĠStep hen
Ġerupt ed
ĠAy la
Ġmitt s
Ġhorri ble
Ġcontented ly
Ġton e
ĠAmaz ingly
Ġtwitch ing
Ad am
yl an
Ġinno cent
ĠMack enzie
ĠCount ing
ĠCliff ord
Friend s
ĠHapp iness
ĠABC s
ĠWorm ie
ĠPain ter
Ġsubst itute
fess or
Ġhydr ant
Ġshif ted
Ġjaw s
Ġstead ily
Ġmelo dies
ĠBre nda
spass ing
Gl ad
Ġbi king
ĠEng lish
Ġaband oned
Ġteen ager
ĠGro ver
Ġsquat ted
Ġencl osure
Ble ch
Ġtus ks
Ġsid elines
Ġpave ment
Ġgumb all
Ġkenn el
ĠFier ce
ĠGav in
Ġungr ateful
Ġheadph ones
Ġstubbornn ess
A s
A unt
A ww
B aby
B roccoli
C atch
C ongratulations
D in
E lla
F ound
H oppy
I ce
I NG
J am
K aren
L L
L ia
L ove
M ay
M eet
O U
P o
R ose
S c
S un
T in
U m
W oo
a be
d es
d own
d les
d og
f or
f illed
h op
h adow
k i
k nown
l ock
l ove
o inted
r ous
r ors
t ney
u ar
v y
w h
w ow
w oof
z o
z oom
Ġt ed
Ġs ess
Ġw oo
Ġb id
Ġwa iled
Ġf id
ou ble
ĠT on
ĠT aco
Ġc y
Ġd ing
er i
Ġm ow
Ġm ound
Ġo o
ar let
il st
Ġg ri
id dy
id den
ĠS ir
ĠS ister
ĠS issy
at hing
en na
Ġsa m
im ber
or ra
on ica
on zo
Ġit ches
ĠH onest
le on
ĠShe ep
Ġin ched
Ġin ser
ver t
ver se
ĠL ast
ĠL ively
Ġy anked
ig her
am i
am ble
Ġshe Ã¢
Ġpl uck
Ġso ggy
ĠB ry
ĠB ert
ĠB umpy
ĠB ailey
Ġwe aved
ĠM ust
ĠM ush
ĠM indy
ĠM ixing
ĠM otor
ĠM eri
ch a
ent ions
Ġsh ades
Ġsh aker
Ġdo ze
se arch
Ġk il
Ġre nt
Ġre cycle
Ġre act
ĠA nt
ĠA round
ĠA ud
ĠA ria
Ġsm ash
ra in
ĠTim Ã¢
Ġlo sers
ec ess
Ġse vent
Ġj ag
ill s
ĠW ork
ĠW izard
ark able
Ġback ward
Ġcl amber
are r
Ġsee king
Ġro sy
Ġco z
if ic
Ġpr anced
ĠE sm
Ġfl aming
ous ers
ĠD usty
ĠD iana
ĠD ylan
ĠSu ki
Ġbl ed
Ġv ow
ist ory
Ġgra ins
ĠMax ine
ant elle
our tney
Ġthought fully
au ce
ma king
Ġtr an
Ġtr ousers
Ġrun g
Ġsk ates
Ġhand ker
Ġsn oo
Ġsn ip
ĠC oo
ĠC all
ĠC ari
ĠC urry
ĠC ourtney
Ġend ings
Ġflow ed
Ġad ored
Ġad vant
Ġgr unt
Ġgr anny
Ġdon ate
Ġte ch
Ġgl ory
ct ing
sh irts
Ġrem arkable
Åĵ Me
ĠP ig
ĠP ips
ĠP ippy
Ġstor my
Ġpeople Ã¢
ip ed
Ġground s
Ġreal ity
ĠG illy
ĠG orilla
ĠG lass
ĠG wen
ĠG abe
Ġun b
Ġun ripe
ĠN appy
ĠN orth
Ġtra ined
ĠR andy
ĠR up
ĠR oot
Ġbre w
Ġeyes hadow
Ġrain storm
Ġrabbit Ã¢
Ġsound ing
Ġru led
Ġru den
Ġde eds
Ġar cher
ĠTh ink
ey ed
Ġflo pped
Ġper se
ĠDo lp
Ġcra shes
Ġtri pping
Ġfix er
ĠLet ty
Ġfavor ites
Ġcut ter
bo om
Ġdark est
ĠEm ilda
ul ty
ĠK n
Ġscre ec
Ġelse where
Ġgu iding
Ġmar cher
zz le
os ie
gg ie
ire s
Ġacc ur
Ġpro ceed
Ġfarmer Ã¢
Ġpot ions
Ġspr inted
br ushes
Ġschool s
ĠAl onzo
Ġfing ert
ond ay
Ġcollect ions
ĠCh antelle
Ġpar lor
up id
Ġwild ly
Ġprotect s
Ġsal mon
Ġrec ipes
Ġsmooth ness
Ġant enna
Ġrep ort
Ġdisappo int
Ġpolice men
Ġsheep ish
ĠMark y
ĠBl oss
ĠBl ocks
Ġclass es
Ġcap s
Ġcap tiv
Ġmir rors
Ġsil ky
cept or
Ġfool ed
Ġter ror
Ġter rit
Ġjewel er
aw are
Ġthoughtful ness
Ġcop ies
Ġpost ers
Ġpost box
Ġprep ar
Ġpow ders
ĠCl imb
Ġsalad s
Ġow ie
Ġpersist ed
Ġtravel er
Ġsnee zy
Ġgraceful ness
Ġcur ry
Ġdust ing
ĠRo ar
Ġmoder ation
ĠSm all
Go d
ĠTr ouble
Ġshield s
Ġjug s
Ġmailbox es
Ġax es
Ġcompl iments
ĠWill ow
ef r
ĠSh ark
Ġshort ly
Ġvi o
Ġexper iments
Ġunh armed
Ġped d
Ġspirit s
Ġclassroom s
Ġtwink ly
ĠCo ffee
Ġambul ances
Ġsteam ing
ĠMiss ile
Ġregret ful
Ġwaste ful
Ġinclud es
Ġequ al
ĠBeth any
Ġjail er
Ġdiscuss ion
Ġmass ive
Ġeff ect
ĠChirp ie
Ġchallen ging
ĠAn chor
Ġpeel ing
Ġwond rous
Ġwre st
ĠRob ot
Sh ould
do h
Ġsting er
Ġlamb s
Ġinstruct or
Ġsnail s
ĠRa bbie
ĠJan elle
ĠGr umpy
ĠPip o
Ġentire ly
Ġconfident ly
Ġscra pes
Ġproject s
Ġburrow s
Ġblink s
ĠEx pl
Ġaff ect
ĠCu riosity
Gre et
Ġty ping
ĠFar ley
Ġsecure ly
Ġconcer n
pr int
ĠSc arlet
Ġslam s
ĠPu dding
pit ched
Ġrefu ses
ĠSqu ee
ĠBee f
Ġscientist s
the y
ĠMo st
ĠMo ira
ĠBri anne
Ġpuff ing
ĠUp on
Ġslither ing
Ġsnort s
Ġpops icles
Ġsou l
Ġheaven s
Ġmarve ll
ĠAlbert ina
Ġflick ering
Cl ose
ĠGold ie
Dave y
ĠHar per
ĠMin ty
ĠTin u
ĠDin osaur
ĠTre es
ĠTre asure
Ġlim ped
Ġclut ching
Ġpuck er
ĠWil son
Ġslee ve
Ġdou b
ĠEd ward
Ġthrill ing
ĠAlf ie
Ġopt ion
Ġopt ions
ĠAy a
Ġtimid ly
Ġplank s
Ġprison er
ĠCook ies
Ġvol ume
Ġfulf ill
Ġjud ged
Ġsmoot hed
Ġunfold ed
ĠStrong y
Ġspeech less
Ġlimp ing
Ġshuff led
Ġaccess ories
nut s
Ġsizz le
Ġdandel ions
Ġrev ved
ĠAc ceptor
Ġoutsm art
ĠDel ight
Ġvar iety
ĠCRA SH
Ġsund ae
ĠStret ch
ĠFle ck
Ġponyt ail
Kat ie
Ġgal ax
Ġbrist les
ĠFa ith
Ġappet ite
Ġacrob ats
Ġsurger y
Ġbrief case
ĠShar in
Ġrollerco aster
Ġted dies
orra ine
Ġinser ted
ĠBry an
ĠMust ache
ĠMush room
ĠAud rey
Ġjag uar
ĠEsm ie
Ġhandker chief
ĠPips queak
ĠRup ert
Ġruden ess
Ġproceed ed
ĠBloss om
ĠScarlet t
1 1
? !".
A lex
B ig
B oom
B ooks
B eetle
C are
C laire
D uck
E llie
F in
F our
F ive
G ina
G abby
K ate
M illy
P at
P ick
P ink
P oppy
P izza
S weet
W o
b un
c ling
c ony
e ers
e igh
e ather
f ed
f ect
f lies
g ra
g row
g ling
h appy
i ot
i eces
i amond
j ar
l ike
l aud
m ar
o kay
p air
r d
r id
s ery
t es
t ured
w ort
Ġ 7
Ġ ome
Ġ eter
Ġt il
Ġt ack
Ġt ilt
Ġa lph
Ġs is
Ġs ke
Ġw ilt
Ġto ad
Ġb ay
Ġb ased
Ġwa ft
re r
re ck
re verse
Ġf ate
Ġf ero
it am
ĠT ra
ĠT ane
Ġd il
Ġd un
Ġd aught
Ġd ash
er as
Ġm ain
Ġp ence
Ġp ity
ar r
ar rot
ar ina
Ġg or
Ġg own
id ers
id ered
ĠS oup
ĠS aid
ĠS ab
ĠS una
ĠS ora
ĠS igning
ĠS elina
at t
at ic
at ching
en ee
Ġn in
Ġsa uc
or ris
on k
ĠH ug
ĠH ouse
ĠH ippy
Ġth aw
ll e
Ġher d
ĠShe ll
ot ato
et ime
es ter
Ġin qu
ĠL aw
ĠL illie
ĠL anny
ĠL orraine
oo h
oo ke
ig o
ig ed
Ġr ay
Ġr akes
Ġr iches
Ġst ump
Ġst umbling
ĠI cy
ri but
ri ana
Ġpl ump
Ġpl us
Ġso bs
ĠB ar
ĠB uffy
ĠB itter
ĠB elieve
ĠB elle
Ġthey Ã¢
st ar
st on
st alk
Ġwe ave
Ġfor mer
Ġfor ming
ĠM and
ĠM ove
ĠM azzy
ĠM onday
ĠM orris
Ġsh rie
Ġsh aving
Ġdo zing
ly s
se y
Ġk o
al ing
al ities
Ġre sol
Ġre search
ĠA ma
ĠA de
ĠA str
ĠIt sy
Ġsm udge
ra ph
Ġsaw ing
Ġlo ser
Ġbo ar
Ġj uggled
Ġout er
Ġout come
Ġsp itting
art en
art ie
Ġex ting
ĠW anna
ood le
Ġal as
ame leon
Ġro les
Ġtre et
if y
Ġother Ã¢
ĠE len
Ġfl ushed
Ġch ugged
Ġch ameleon
as il
as per
ĠD epend
ĠD eedee
Ġbl ind
Ġscared y
Ġv ast
Ġv itam
Ġgra zing
ĠMax well
ant ing
Ġpo pper
Ġpre y
ĠAnna bel
Ġpe aked
Ġcat cher
Ġany body
Ġshow ered
Ġsl edding
Ġsl urped
ĠJo g
Ġhand les
Ġclo ver
Ġover night
Ġqu itting
Ġeat er
Ġeach other
Ġstr ay
Ġstr ut
Ġgre ed
Ġjo ey
Ġlong ed
ĠC ane
ĠC orn
ĠC ube
ĠC ubby
Ġcle ve
Ġcle arer
Ġad just
Ġad vert
Ġfast ened
Ġgr adually
urp le
Ġcu pped
Ġgl ac
Ġgl inted
Ġgl inting
sh ips
Åĵ One
Åĵ Bye
Åĵ Mum
Åĵ Ah
Åĵ So
ĠP ing
ĠP ow
ĠP op
ĠP uffy
ĠP aco
be ying
Ġdra gs
ĠG u
ĠG ill
ĠG ert
ĠG ray
ĠG ently
Ġfr ames
Ġbed side
Ġun aware
ĠBob Ã¢
Ġhas n
Ġma id
ĠN apping
ĠN ew
ious ly
ac her
Ġclos ets
Ġtra ce
ĠR ad
ĠR uff
ĠR hy
ĠR ena
ĠR enee
Ġbre wing
Ġdis p
Ġwonder land
Ġwork man
Ġuse less
Ġwarm ing
Ġsqu irm
ĠTh under
Ġz one
Mom ma
Ġcr op
Ġcr unched
ĠLet icia
Ġmum Ã¢
Ġpart ied
Ġlight bul
ely n
Ġthank fully
Ġspot less
Ġset up
Ġstre ak
Ġsnow storm
ens es
ĠK in
ĠTo ad
ĠThere se
ĠThere sa
Ġscre ens
ĠJim y
Ġgu ilt
Ġwhite board
row s
app ointed
Ġclothes line
Ġspl itting
Ġdeep est
Ġpat s
But ter
igg led
Ġpro ven
Ġpa wn
Ġstu bbed
Ġfruit y
Ġaccident ly
Ġcoll ars
Ġcoll age
Ġforget ful
ĠTw in
Ġstar ry
Ġdes ired
Ġdes pair
Ġmiss iles
Ġaf lo
Ġob vious
Ġob edience
Ġround ed
Ġband aid
Ġimag ines
Ġmilk sh
unt er
Ġfan ci
ĠEll iot
Ġmeet ings
Ġap e
Ġpract ise
Ġsur ge
Ġprot est
Ġsupp ose
Ġser ves
ĠGo at
ĠGo lf
Ġcalm ness
Ġspread s
ĠBe artie
Ġcelebr ations
St e
Ġchick s
Ġtrust wort
Ġbal cony
ĠBr ooke
ĠSus a
ĠZ og
Ġshore line
Ġvan ishing
Ġmummy Ã¢
ĠBl inky
Ġwis est
Ġmotor b
Ġtick ed
Who se
arl on
Ġrid dles
Ġadd ition
ĠNo d
ĠNo ah
ĠBlue bird
Ġcam els
Ġcam eras
Ġbrilliant ly
Ġtoug hest
Ġhorn et
Ġmeasure s
ĠMar ch
ĠMar cy
ĠMar ianna
Ġrecord ings
Ġharm onica
Be fore
Ġdiffic ulty
Ġbull s
Ġbull ets
Ġrug s
Ġgrap efr
ĠCl oe
Ġcactus es
Ġow let
Ġer ra
Ġer ased
Ġcomb s
Ġcomb ing
Ġtor ch
Ġbean stalk
Ġshiver s
Ġguard ed
Ġspeed y
Ġenv y
Ġperm itting
Ġscoot ed
ĠPe aches
Ġreind eers
ĠSm iles
Ġobser ves
Ġpad lock
Ġvi ol
Ġkayak s
Ġped alling
Ġturkey s
Ġfort une
ĠJess i
Ġappl ied
Ġinsist s
ĠTony a
Ġchalk board
ab et
Ġstud ies
Ġigloo s
ĠMe ow
Ġdire ctor
ĠV ince
ĠV ito
Ġlic enses
Ġsty lish
Mmm m
ĠFro ggie
Ġweren Ã¢
ha ving
ĠAn imals
ĠJam el
ĠAd riana
Al most
ĠMad elyn
Sh rink
!' "
Ġrhythm s
ĠFor get
ĠPr issy
Ġteaspoon s
ĠJan et
Ġune asy
Ġoutdo or
Ġtour s
Ġtour ist
Ġproject or
Ġinterest s
Ġwound ed
Ġzigzag s
ĠMon ths
ĠPam my
Ġsnat ches
Ġlap s
Ġwarri ors
ĠMel ody
ĠPo le
ĠY ield
ĠMil k
Ġrip est
Ġdef end
ĠEl in
Ġocc ur
Ġbeam s
Ġbru ised
Ġcor rid
Ġdet ail
ĠMart a
Ġencourag es
ĠWin ston
Ġunw ell
ĠCle m
Ġwrigg ling
Ġnuzz les
Ġnur sery
Ġsou ls
Ġsav oring
Ġsav ored
Ġsurprising ly
Ġcollap se
Ġting ly
Ġting ling
Ġsweep ing
Ġsurv ived
ĠDe af
Ġprod uctive
ĠGold y
ĠGold en
ĠAng elina
ĠTin i
ĠTin o
ĠCro c
Ġfet ches
Ġcons idered
Mar ia
ĠWil ma
Ġfootpr int
Ġtopp led
erg arten
Ġthump ing
Ġfunn ier
Ġharvest ed
Ġpriv acy
ĠClar issa
Ġwhir red
Ġgrump ier
ĠBrave heart
ĠFind ers
ĠSet tle
ĠStep h
Â© .
Ġfist s
Ġdroop y
ĠBigg s
Ġapproach ing
Ġarrest ed
Mike y
Ġthousand s
ĠLa zy
Ġfluff ed
ĠCook ie
Ġunst uck
Ġvol unt
Ġdemonstr ate
Ġexist ed
Jess ie
ĠKind ness
Ġdescri bed
Ġretrie ve
Ġfif ty
Ġfoss ils
Ġquarrell ing
Mad die
Ġ9 11
Ġded ication
Ġric her
Ġdecre ase
Ġcraz iest
Ġdiv ided
Ġdetect ive
cup ine
mind ed
Ġpes ky
ĠBer nie
ĠDis appointed
Ġconst antly
aculous ly
Ġobl iged
Mag ic
ĠTick les
Ġunn ecess
Ġlif etime
Ġjig saw
Ġfaire r
Ġimagin ative
Ġfestiv als
Ġannounce ment
Jam ie
Ġfid get
Ġkil os
Ġclamber ed
ĠCall ie
Ġadvant age
Ġgrunt ed
Ġscreec hed
Ġmarcher s
Ġfingert ips
Ġantenna e
Ġsheepish ly
Ġcaptiv ated
Ġterrit ory
Ġvio let
Greet ings
ĠSquee ker
ĠDelight ed
Care ful
Ġeter n
Ġalph abet
Ġske pt
Ġdil ig
Ġdaught ers
ĠSab ina
ĠMand i
Ġshrie ked
ĠAde le
ĠAstr id
Ġexting u
ĠElen a
ĠDepend able
ĠCube y
ĠGert ie
ĠRhy thm
Ġlightbul b
Ġaflo at
Ġtrustwort hy
Ġunnecess ary
' ."
1 0
A b
B ill
B ee
B eth
B uzz
B elieve
C K
C ool
C ount
C indy
E S
E lephant
F ish
J azz
J uice
L ife
L una
M iss
N ee
O ver
O ink
P ass
P retty
P aula
R u
R ec
R ight
R osie
S m
S unny
T a
T ell
T urn
W he
W ake
W as
Y ep
Y ipp
Y oga
Z oo
a ac
b ara
b ecause
c st
c hen
c ame
c led
d al
d est
d ough
e x
e in
f ing
f ying
f ork
f olk
g lass
h h
h ot
i w
i ally
i kay
i bo
i work
k ward
l ic
n is
n et
o le
o lf
o dge
o vers
p ill
p ress
p aper
r op
s ure
s ama
s ix
t w
t here
t ract
t een
u se
v o
v ie
x i
x ie
Ġ $
Ġ ess
Ġ ÃĤ
Ġt it
Ġt ad
Ġt ang
Ġt iles
Ġa qu
Ġs ug
Ġw iz
Ġto ck
Ġb ared
Ġb order
in ch
in col
Ġh ars
Ġh umb
Ġh ilar
Ġf atter
Ġf itted
it zy
ĠT ing
ĠT izzy
ĠT az
ĠT ouch
Ġc ore
Ġc ure
Ġc urse
Ġd ut
Ġd awn
Ġd azz
er ts
Ġhe ated
Ġm uttered
Ġp unch
Ġp oof
Ġp ounce
Ġo ink
Ġo ars
ay lor
ĠThe ater
ar ked
ar ium
Ġg ut
Ġg ig
Ġg iddy
ĠS e
ĠS ke
ĠS imb
ĠS ho
ĠS eth
ĠS ugar
ĠS arina
at ives
en e
en ess
Ġn umb
Ġn ym
Ġha irst
an ter
an ana
im id
or ations
ĠH ad
ĠH ome
ĠH ard
ĠH arm
ĠH ana
ĠH ammy
ĠH alf
ĠH unter
Ġth or
Ġth irt
ĠShe ila
ot am
et een
et tle
ir aculously
ĠHe Ã¢
ut her
ĠL ass
ĠL amb
ĠL emon
ĠL ala
ĠL uther
Ġe cst
Ġr ises
Ġbe ady
ĠI nt
ĠI gn
Ġso le
ĠB ed
ĠB al
ĠB ark
ĠB est
ĠB ull
ĠB oop
ĠB ern
ĠB asil
ĠB ibo
Ġup stream
st her
st ret
un ia
un ches
ĠM arlon
ĠM iraculously
itt ered
Ġsh aved
all ory
ime e
Ġwh oop
Ġwh ilst
Ġk ern
Ġk iw
Ġk ettle
al ise
Ġne ared
Ġne ater
Ġne ighed
ht aking
Ġre ct
Ġre cy
ĠA ce
ĠA llowed
ĠA lys
ĠA imee
Ġas sist
Ġlo lly
Ġloo ped
ĠJ a
ĠJ in
ĠJ ia
ĠJ ase
Ġj iggled
ill as
ic ola
ĠW ords
ĠW olf
Ġcan cel
Ġkn itted
um pl
Ġcl a
Ġcl ipped
are nt
op otam
Ġsc utt
Ġman ner
ure en
Ġtre k
own ie
Ġco ck
Ġco iled
if i
Ġnew est
ĠE aster
ĠF ace
ĠF ab
ĠF rench
ĠF isher
ĠF ifi
Ġmu lt
Ġhome made
Ġla pped
ell ie
ach ine
ep eat
Ġch a
Ġch om
Ġch andel
Ġsw ished
ĠD arling
ĠD ippy
ĠD river
ĠD oodle
ĠSu lly
ust ling
Ġv ig
Ġv ain
Ġv ases
ny ard
ap es
arn ed
Ġgra ze
ĠMax Ã¢
ant ic
Ġpo ndered
Ġbu ds
Ġho pper
Ġint entions
Ġint imid
ĠEvery time
Ġsl urp
Ġtw irly
ĠJo kes
Ġsk et
Ġhand iwork
ĠJack lyn
Ġsun s
Ġwater y
ank y
Ġover coming
Ġover came
Ġqu iver
Ġexpl os
Ġjust ice
Ġneed ing
Ġlong ing
ĠAnd i
Ġsn atch
Ġsn arling
uc cess
ĠC ake
ĠC ally
ĠC ass
ĠC ater
ĠC ream
ĠC ooking
ĠC onnie
ĠC hocolate
ĠC asper
Ġim it
em ons
Ġgr ades
Ġgr ouch
Ġeven ly
Ġeven ings
ase y
ast ing
ast le
Åĵ Jack
Åĵ Yum
Åĵ Daddy
Åĵ hello
Åĵ Lucy
ĠP ro
ĠP erry
ĠP urple
ob ble
Ġclean est
Ġclean ers
Ġdra ped
ĠG ara
ĠG ear
ĠG host
Ġturn ip
Ġun c
Ġun pl
Ġun cer
Ġun sc
What Ã¢
ĠN ee
ĠN avy
ĠN els
ĠN iki
ĠN icola
ac ular
ĠSp iders
ĠR eddy
Ġwalk er
Ġdis rupt
Ġdis bel
Ġrepl ies
Ġstrong ly
Ġru shes
Look s
Ġcook er
Ġnight time
Ġcont ract
Ġcont ribut
Ġlea ked
Ġstory teller
Ġgrass es
Ġper haps
Ġcr itter
Ġcr ooked
Ġcr umpl
Ġcr anky
Ġcut er
Ġmum mies
Ġtast ier
Ġpaper cl
Ġdri ps
Ġcool s
Ġdelic ately
Ġswim mers
Ġyellow s
Ġspot ting
Ġstre ssed
Ġslow s
Ġleft over
Ġleft overs
Ġsnow ed
ĠK ari
ĠK now
ĠK ai
Ġrel atives
ĠTo oth
Ġgent ler
Ġbreak able
Ġfight er
ĠMolly Ã¢
Ġmother Ã¢
app laud
ĠAmy Ã¢
Ġmet ers
Ġtail or
ĠFl ip
os quito
ĠAll ig
Ġsec ured
Ġbar nyard
Ġcho ked
less ly
ol ice
Ġatt ent
Ġpot ential
ĠEmma Ã¢
Ġpack s
ĠWh ale
Ġben ef
Ġsecret ly
Ġnaught iness
Ġph ra
Ġmat s
Ġwar s
ĠAl ma
to gether
Ġhope less
ĠEll en
Ġeas iest
Ġsharp en
Ġspin ner
ĠCh oose
Ġvill ages
Ġpath ways
Ġhon or
Ġwild ebe
een a
Ġdi als
ĠSt ory
ĠAnn alise
Jo sh
Jo Jo
Ġrec ently
ĠLe go
Ġtid ier
ĠBe an
old ing
Ġpaw ed
Ġspray er
Ġple ading
Ġcann on
Ġrep orter
Ġstra nds
Ġpin ec
Ġcross es
ĠZ ap
Ġmysterious ly
Ġmedic ines
ĠDon ny
Ġpoor ly
Ġpri zed
ĠBl ake
ĠBl ood
Ġdest r
Ġchew y
Ġteam mates
Ġrelax es
Ġadd ressed
Ġang le
Ġang les
work s
ĠU gly
ĠSn ake
ĠSn uffy
Ġaw kward
ĠMar la
ĠMar io
ĠMar go
Ġfoolish ly
Ġwand s
Ġpil ing
Be es
Ġgrown up
Ġfour teen
Ġbull et
Ġparrot s
ject s
Ġfrag rance
Ġpost ed
Ġchar ity
Ġmem orable
ĠCl ub
ĠFr anny
ĠDan cing
Ġlow ers
Ġow e
Ġer asers
Ġsniff ling
Ġhipp opotam
Ġaunt ie
Ġquestion ing
Ġfriendship s
ream s
Ġanxious ly
ĠRo d
ĠRo sy
Ġsurf ers
Ġphot og
ĠTr udy
Ġsupport s
Ġhung rily
cream s
Ġten nis
Ġpor cupine
ĠRu bber
kelet ons
ĠSh op
ĠSh aron
erc ise
Ġdess erts
Ġtoil ets
Ġspir al
Ġbreat htaking
Ġbuzz es
ĠBun bun
Ġfisher s
Ġfisher men
ĠSte aling
Ġprun ing
Ġcheek y
Ġsprink ling
Ġjourn als
Ġkingdom s
Ġble nder
Ġble ated
Ġhelicopter s
Ġgrill s
Ġimprove ment
Ġdestination s
Ġrecommend ations
Ġjunk yard
Ġsub mar
Ġsub tract
Ġsub jects
Ġremain ing
ĠV era
Ġhesit ate
ĠGood night
Ġrow boat
Ġwarn s
Ġbill s
Ġbill boards
Ġflood ing
Sp ray
ĠAd venture
Sh ow
Ġpitch fork
Ġspaceship s
Ġeight een
Ġgreet ing
aren ce
Ġzigzag ged
ĠWednesday s
Ġboom s
pe at
ĠMon ster
ĠChrist ine
ĠChe rie
Ġpout s
Ġthreat ening
ĠMa ureen
ĠPl op
ĠGreen e
Ġast ound
ĠSpark les
ĠY outh
Ġglee fully
ĠSpl odge
Ġconn ection
Ġarr anging
ĠSc reen
ĠEl ise
Ġreass ure
ĠListen ing
Ġmer rily
ĠSim one
ĠDr op
Fo x
Ġmast ered
ĠSk y
ĠSmo king
ĠMo ley
ĠFire works
Ġpuff ed
Ġwrink ly
Ġgap s
ĠAny a
Ġgest ured
Ġtweet ing
ĠRock er
ĠSal ad
Ġstumble s
Ġsoot he
Ġloc ation
Ġmarve ling
Ġflick er
Ġflick ered
Ġdump ing
Ġrely ing
Ġscri bble
ĠDe bbie
ĠPeep ers
Ġopportun ities
Ġbea vers
Ġplayd ough
ĠPet unia
Ġhu h
Ġhu nts
Ġswat ted
Ġsquaw king
ĠDin o
ĠLuc ia
Ġjing led
ĠNathan iel
Ġmajest y
Ġdev oured
Ġcris p
Mar ch
Ġpostc ards
Tr ue
ĠGoose y
Ġecho es
Fr eddy
Ġyelp s
Ġhandy man
Ġadop ted
ĠSwim my
Ġsouvenir s
ĠSet o
Ġproduc ed
ĠVolcano es
che ck
Ġass ured
Ġchatter ing
Ġtowns folk
ĠChick en
Ġcroak s
Ġcigaret tes
ĠDina h
Ġshoel ace
Ġtrades man
ĠChom per
Ġhorri fied
Ġton s
Ġtrad ers
Ġtrad ition
Ġsqueal ing
Ġfulf illed
ĠPan cake
ĠGen e
ĠNear by
Bl ue
Pe ace
Ġsum mit
Ġrum m
Ġneg lected
Ġsunb urn
Ġdescri be
Ġretrie ved
ĠTrix ie
Ann ie
Ġtend er
Ġdaydream ing
ĠFore st
Ġcommand s
ĠGret a
ĠGret chen
Ġunz ip
Ġunz ipped
ĠDanie lla
ĠDanie lle
Ġclums ily
Ġsim ilar
Ġloos en
Ġjer sey
Ġlaz ily
Ġswer ve
Ġmisbe have
ĠCrocod ile
Ġcav ity
ĠRes pect
Ġvacu um
Br ownie
Snow y
Ġident ify
Ġheed ed
ĠAmer ica
Ġboast ed
ĠJes us
Ġspect acular
ĠCry stal
Ġcowgirl s
Ġcroiss ant
Ġoo hed
Ġsam ple
Ġsevent een
Ġvow s
ĠKn ives
ĠClimb ing
Ġpedd led
Wo ah
Ġome let
Ġtil ts
Ġwaft ed
Ġfero cious
Ġgor illas
Ġnin eteen
ĠHug o
ĠBar bara
Ġvitam ins
Ġfanci est
Ġmotorb ike
Ġgrapefr uit
Ġvolunt eer
Ġetern ity
Ġskept ical
Ġdilig ently
Ġextingu isher
Yipp ee
dal ene
ikay la
Ġaqu arium
Ġsug ary
Ġwiz ards
incol n
Ġhilar ious
Ġgig antic
ĠSke lly
ĠSimb a
Ġnym ph
Ġhairst yle
anter n
ĠHarm ony
Ġthirt een
ĠLass ie
Ġecst atic
ĠInt rigued
ĠBern ard
Ġkern els
Ġkiw i
ĠFab ian
ĠCater pill
Ġgrouch y
Ġuncer tain
Ġunsc rew
ĠNee Nee
ĠNels on
Ġdisbel ief
ĠKnow ing
osquito es
Ġwildebe est
Ġhippopotam us
Ġsubmar ine
! ,"
? '.
A R
A T
B et
B anana
C le
C ook
D rink
E le
H ide
H ope
L iz
L ucky
L uke
L emon
M il
M art
M other
M oon
M ath
M aking
M erry
M arry
N umber
N ana
N eigh
O l
P L
P ow
P ark
P op
P hew
P eople
R iley
R ibbit
S l
S it
S ir
S ound
S oup
T e
T ed
T re
T aste
W illie
Z ara
Z oe
Z ero
a ld
a fe
a ves
a bbed
b ag
c ra
e ight
g ies
g osaurus
h ill
i ful
i qu
i us
j usted
j uice
k io
l ture
l iest
m ay
m ill
m ate
m ine
m atch
n ched
o d
o ids
o lyn
p at
p her
p op
p ool
p any
p iece
r ud
r alled
t est
t able
t ails
u er
w hen
w ood
w ho
w hee
y y
y um
y ers
y man
z er
Â «
Â ±
Â »
Ġ .
Ġ ?"
he ver
Ġa ck
Ġa ro
Ġa ched
Ġa ye
Ġs en
Ġs ons
Ġs outh
Ġw it
Ġto ot
Ġb urp
Ġb umble
Ġh ull
Ġh ire
Ġwa ry
Ġwa dd
Ġwa ggy
Ġwa ding
re p
re peat
Ġf ain
Ġf ished
ou rage
it z
ĠT ag
ĠT ilda
ĠT aylor
Ġl at
Ġl unged
Ġc ert
Ġd u
Ġd im
Ġd izz
Ġd ying
Ġd ense
er ful
Ġm id
Ġm ent
Ġm our
Ġp ry
Ġp est
Ġp oun
Ġp oop
Ġp ooped
om ile
is itive
Ġg el
ĠS it
ĠS at
ĠS el
ĠS ink
ĠS chool
ĠS auce
Ġn ug
Ġn av
an ma
or get
or gan
or us
or man
ĠH ay
ĠH im
ĠH ive
ĠH ours
ĠH alley
ĠH igher
ll ey
le op
ir ation
ir ates
ĠHe aring
ĠThey Ã¢
es ha
Ġin s
Ġin it
Ġin ner
ow ers
ĠL ady
ĠL inny
ĠL emons
ĠL incoln
Ġy olk
ig an
Ġr ipping
Ġr asp
am on
am ent
am illa
am omile
Ġbe llowed
Ġst uffy
ce y
ce ful
ri ke
ri cket
ri fied
Ġpl unged
ĠB A
ĠB E
ĠB es
ĠB ly
ĠB urt
ĠB ul
ĠB athing
Ġplay set
Ġplay mates
st ack
Ġwe e
Ġfor ked
Ġfor ces
el i
un es
ĠM c
ĠM ed
ĠM al
ĠM uck
ĠM ister
ĠM erry
ĠM anny
ĠM ica
ĠM urray
ĠM itzy
ĠM allory
ĠM achine
ĠM ikayla
ent ed
Ġsh ift
all s
Ġwh ic
al thy
Ġre as
Ġre ins
Ġre cept
Ġre new
Ġre arr
Ġsm udged
Ġsm ashing
Ġlo ot
Ġlo af
Ġloo ser
Ġbo bbing
ĠJ ump
ĠJ unior
Ġare as
Ġout stret
Ġsp ec
Ġsp ooked
ur ora
ĠW ine
ĠW opsy
ĠW anda
ĠW atching
Ġcan cell
Ġcl imber
Ġno ddle
op er
Ġal together
Ġsc oring
Ġsee ming
ss y
Ġmake over
dd ies
ĠMom ents
if icate
ĠE nt
ĠE ager
ĠE sther
ĠF un
ĠF ood
ĠF ive
ĠF unny
ĠF eather
Ġthen Ã¢
ach ute
Ġfl itting
Ġch art
Ġch ap
Ġch illi
Ġch ief
Ġch urned
Ġch anting
Ġch orus
Ġch amomile
qu i
Ġsw ell
pl er
pl ash
Ġevery time
ĠD ing
ĠD illy
ĠD anger
ĠD iamond
ĠD reams
ĠSu ch
Ġbl ister
Ġfind er
Ġv ess
Ġv iv
Ġgra ve
Ġpo d
Ġpo et
Ġpo ds
ĠSo l
Ġbu ddies
bb age
Ġho bby
ma il
Ġsl im
Ġrun way
Ġrun ny
ĠJo el
ĠJo lly
Ġsun hat
Ġsun be
Ġmo ist
Ġclo gged
Ġover alls
ge on
Ġpick y
ak ers
Ġgre ase
ĠThen ry
iz er
Ġjo ll
Ġlong ingly
Ġbear Ã¢
Ġsn ore
Ġsn ored
Ġsn ores
ough ly
ort ing
Ġunt idy
uc ation
ĠC art
ĠC op
ĠC omet
ĠC aut
ĠC ont
ĠC ongratulations
ĠC asey
ĠC astle
ĠC amilla
Ġdre nched
Ġkind ergarten
Ġad justed
aut iful
Ġfi ves
Ġfi ery
Ġgr u
Ġgr umble
Ġbra ids
Ġdon ations
Ġche m
Ġcu lture
Ġgl ide
Ġgl orious
Th row
Th omas
Ġra w
Åĵ it
Åĵ Sorry
Åĵ Max
Åĵ you
Åĵ Follow
Åĵ Which
Åĵ Emma
Ġsafe keep
ĠP ee
ĠP ipe
ĠP hew
ĠP otato
be k
be ar
be at
Ġbad ges
Ġdan gling
Ġred s
Ġstor med
Ġbook mark
ip munk
Ġcon so
Ġcon cess
Ġground ed
ĠG em
ĠG ale
ĠG ym
Ġey eb
Ġun p
Ġun ity
Ġun roll
th ree
th rough
ĠN ature
ĠN orman
ĠSp icy
Ġtra pping
Ġlisten ers
ĠR ot
ĠR ound
ĠR atty
ĠR onny
Ġgreat ness
Ġapp ly
Ġeveryone Ã¢
Ġvo lley
Ġtal ons
Ġhead band
Ġmean er
Ġmean ings
Ġmean ie
Ġbright en
Ġde w
Ġde gre
We e
Ġye ast
ĠTh row
Ġcont act
Ġthree Ã¢
Ġhere Ã¢
Ġcr ink
Ġhat es
Ġtired ness
Ġmum bled
ign ment
ster y
ster oids
Ġste gosaurus
Ġdin ners
Ġgreen s
Ġgreen er
Ġdri bbled
Ġcool ness
us hing
Ġmouse hole
Ġhill top
Ġfrog gy
ĠTommy Ã¢
Ġarri val
ul a
ĠK ana
Ġfair ly
Ġcast ing
Ġarm our
ĠDaisy Ã¢
Ġel ves
ĠJen kins
sp ort
Ġfight ers
Ġcomp artment
Ġpi er
Ġpi xie
Ġspl int
Ġpol ishes
Ġjoy s
ĠFl our
ĠFl oss
ĠFl owers
Ġhide away
eter ia
Ġfox Ã¢
me asure
Ġtreat ment
igg ling
Ġpaint brushes
Ġbelie f
Ġmouth ful
Ġdoctor Ã¢
Ġcho king
Ġpro fessor
Ġquiet est
Ġmost ly
Ġspr ung
Ġpast or
Ġupset ting
vel s
Ġmin us
ĠOn a
ĠMum ma
Ġcou ches
Ġmat ted
Ġca bbage
Ġpig tails
ĠO sama
ĠAl ina
ho ld
Ġfarm house
Ġdaughter Ã¢
Ġcomfort ably
Ġact ress
Ġpres ident
Ġhope fully
Ġspo ken
Ġcard igan
Ġent ertain
Ġpract ices
ĠCh ipmunk
Ġpar cel
Ġpar achute
ĠEmily Ã¢
Ġhon ored
ĠRe al
Ġmed ium
Ġrespect s
Ġprotect ive
ĠSt ir
ĠAnn ica
Ġign ition
ĠLe g
ĠLe arn
ĠLe arning
ĠLe xi
Ġban ner
Ġlast s
Ġtid es
Ġscar ier
Ġshy ness
old s
Ġpool s
Ġple a
Ġrep ay
Ġrep airs
Ġrep res
Ġstra pped
Ġpin ball
Ġgen ius
Ġmot ions
Ġflut es
ĠBr ight
ĠBr amble
Ġcirc ling
Ġwhis ked
ĠZ iggy
Ġfeed s
Ġfil th
Ġnut ty
Ġscr uffy
Ġlead ed
Ġweak est
Ġrad i
Who ever
Ġrelax ation
Ġmatch box
ĠNo vels
Ġind igo
Ġed ucation
Ġtoug her
ĠSn akes
ĠSn ail
Help ing
Ġapolog izing
Ġsuggest ing
ĠMar cie
ĠMar iana
Be have
Ġgrown ups
Ġskin ny
Ġcompetit ions
Ġcop ying
Ġrode o
Ġsuit able
ĠCl uck
ĠCl ose
ĠCl arence
ĠFr iday
ĠFr ances
ĠFr itz
arsh a
Ġtrumpet ed
Ġorig ami
Ġavo iding
Ġthunder ing
Ġhay stack
Ġstamp ing
Ġcareless ness
Ġflex ed
Ġmis chief
ud ges
Ġanx iety
Ġsett ings
ĠRo ll
Ġresist s
ĠPat ience
Ġskip s
ray ons
Ġrestaurant s
Ġshoe box
ĠSm iley
Ġreco very
Ġharsh ly
Ġorder ly
gu in
Ġvine yard
Ġenth ralled
Ġhall ways
Ġoctopus es
Ġnotebook s
Ġquar ter
Ġpun ishing
ron ted
Ġfort ress
Ġhut s
Ġdisplay s
Ġmarry ing
Jack ie
Ġlime ade
ÅĵYou r
Ġmeat s
Ġflame bird
Ġapart ment
Ġregret ting
Ġregret fully
Ġbalan ces
Ġholiday s
ĠWho Ã¢
Ġtut oring
Ġconf ronted
Ġchess board
Ġglo ssy
ĠIs aac
Ġprop eller
Ġbookshe lves
Ġbak ers
Ġbes ides
Ġflood s
ha ved
Ġoper ator
ĠGre edy
Sp icy
ĠJam al
ĠCar olyn
Ġwaist s
Ġrhy me
ĠAm ie
Ġbrid le
Ġpadd ed
ĠPr unes
Ġactiv ated
Ġtravell er
Ġlandsc apes
Ġbend y
ĠJon nie
Ġaccom pany
ĠGr ammy
ĠGr anma
rr rr
Ġcrumb ling
Gra b
Ġclick ing
Ġsnugg les
Ġboo gers
Ġfabric s
ĠCarl os
ĠMon i
ĠMon ty
Ġmotion ed
ĠChe ating
ĠEx ercise
Ġchuck le
Ġtodd lers
ĠLou is
ĠGreen y
ĠCra zy
ĠFollow ing
Gre en
ĠMel on
ĠPo ison
Ġreply ing
ĠY awn
ĠY OU
Ġinsp iration
Ġunf orget
ĠPrin ty
Ġweekend s
Ġdef ending
Ġdirect ly
ĠMaddy Ã¢
Ġrefle cted
Ġrefle cting
Ġperforman ces
?' '
Ġhour glass
Ġcau ses
Ġflas hy
ĠDr ink
Ġtrot ting
Ġ2 7
ĠMart y
Ġblast ed
Ġaim ing
utter ing
Ġtiss ues
ĠSw ans
ĠSw inging
Ġconvin cing
Ġelbow s
Ġsnort ing
Ġcraft ed
ĠSl ide
ĠSl inky
Ġsprout ed
Ġsqueak s
now ingly
Ġmoo ing
Ġsav oured
Ġinter net
Ġbusiness man
Any thing
Ġgall ery
Ġshin iest
ĠDuck s
Ġseatbelt s
Ġgrandd ad
Ġunwra p
Ġsens ible
ĠMag dalene
ĠJelly fish
Ġill umin
Ġbas ics
ĠHar vey
Ġfaith ful
Ġbloss omed
Ġmatey s
ĠTin Tin
Ġwig s
Ġjing ling
ĠWoo lly
Ġbaa ed
ĠTre spassing
Ġcris ps
Ġcooper ative
Got cha
ĠWas n
ĠEr in
Ġbund led
ĠPa o
Ġ5 0
Ġbomb s
ĠSweet y
Ġblob s
Ġ4 0
ĠTe ach
ĠTe asing
ĠTe esha
Ġnarrow er
ĠHo oray
Ġripp le
ĠClar ise
Ġyelp ing
Ġlevel s
Ġinvol ve
che ese
Ġass ignment
Ġforeshadow ing
Ġdroop ing
Ġcaf eteria
Ġfail ure
ĠRich ie
Ġhabit at
ĠTurn s
ĠMus cle
Ġdodge ball
ĠCol ors
Ġhuff ed
Ġstun ning
Ġchunk s
Ġunst able
ĠCloud land
Dan iel
ĠGen ie
Ġjud ging
Ġsmoot hest
Ġspeck led
Ġdisagreement s
ĠLynn e
Ġsum mon
Ġrum our
Ġwhirl ed
Ġbud get
good bye
Ġfif th
ĠBall oon
Ġscan ned
Ġfoss il
Ġquarrell ed
Co ffee
Ġloos ened
Ġcluck ing
Ġadv ised
Ġrelation ship
Ġrelation ships
Ġreassuring ly
ĠCrocod iles
Dra gon
Sur render
Ġpau ses
Ġpau sing
Ġgrasp ed
ĠRel uctantly
Ġpersu aded
ĠMarc ia
ĠSha un
ĠSha una
Ġresour ces
Ġresour ceful
Frank ie
Per haps
Sw im
Soph ie
cred ible
eld erly
Ġpy jamas
Ġshimmer y
ĠWhe at
Ġchann el
Ġratt ling
Ġsess ion
Ġwoo lly
Ġflaming o
Ġtran sport
Ġtech n
ĠDolp hin
Ġcutter s
Ġprepar ation
Ġdoub t
Ġgalax ies
ĠTra cey
Ġdun geon
Ġinqu isitive
Ġresol ved
Ġstrut ted
Ġadvert ise
Ġglac ier
Ġmilksh akes
Ste ve
Ġoccur red
Ru by
Whe ee
tw o
Ġess ential
Ġhars her
Ġdazz ling
ĠSho ot
ĠHalf way
Ġthor oughly
ĠJa qui
Ġtrek ked
Ġcock pit
Ġmult ip
Ġcha os
Ġchandel ier
Ġexplos ion
Ġimit ate
Ġcrumpl ed
ĠAllig ator
Ġphra se
Ġdestr uction
Ġrumm aged
Ġunscrew ed
Bet ty
Mart in
Sound s
Ġack now
Ġaro se
Ġsen sed
Ġwit ness
Ġbumble bee
Ġwadd ling
Ġlat est
Ġcert ificate
Ġdizz iness
ĠSel ma
Ġnav ig
leop ard
ĠBly the
ĠBul b
Ġwhic hever
Ġreas ons
Ġrecept ion
Ġrenew ed
Ġoutstret ched
Ġcancell ed
Ġchap ter
Ġvess el
Ġviv id
Ġsunbe ams
ĠCaut iously
Ġculture s
Ġsafekeep ing
ĠPee king
Ġconso le
ĠGale y
Ġeyeb rows
Ġvolley ball
Ġdegre es
ĠFloss y
Ġunforget table
! ?"
' !
' !"
' ,"
A r
A id
A ye
A men
A ha
B ra
B ess
B ear
C ir
C ra
C elery
C athy
C arla
D ing
D ream
E R
E n
F aster
F eel
G obble
H ot
H istory
I G
I gn
J e
J ason
J acob
K ay
K ing
K iss
L a
L o
M u
M ix
M ail
N ope
N obody
O P
O ut
O ld
O AR
P ay
P am
R R
R ed
R el
R ice
R aw
R aven
S ing
S qu
S nap
S plash
T iny
T ree
T oys
U se
U nder
V anish
Z ap
b ig
b um
b oy
c is
c est
c uff
d or
d ry
d um
d ia
d ance
d ney
d anger
e ven
f ight
f our
f ty
f ine
f ives
g h
g ent
g ic
g ant
g iving
h oo
h ia
h aw
i ven
k n
k ind
k ie
k est
l w
l ts
l ife
l iness
l isten
m es
m ix
n ot
n ine
n ier
n umber
o es
o pp
o intment
p ot
p ie
r am
r ong
s ag
s ary
s ized
s nap
t re
t on
t ake
t ened
t ale
u le
u ss
v ine
w ill
w ee
y nt
y uck
y ield
y cle
y sters
z ip
z agged
Ġ (
Ġt ipping
Ġa ward
Ġa jar
Ġa steroids
Ġs ect
Ġs ighing
Ġs keletons
Ġw owed
nd eed
Ġto ll
Ġto urn
Ġb on
Ġb alm
Ġb ony
Ġb zzz
Ġb ustling
in c
in i
in st
Ġh ints
re sh
Ġf al
Ġf ried
Ġf urt
Ġf izz
ou ry
it iz
it als
it ual
it eness
ĠT ap
ĠT andy
ĠT ube
ĠT aste
ĠT alia
ĠT idy
ĠT ester
Ġl ather
Ġl ining
Ġl ately
Ġl antern
Ġc umin
Ġc itiz
Ġd art
Ġd ong
Ġd ue
Ġd ye
Ġd ipping
Ġd ashing
er ie
er ris
Ġm ould
Ġm ash
Ġm ower
Ġm asc
Ġm akers
Ġp oo
Ġp ure
Ġp hy
Ġp ang
Ġo val
Ġo beying
Ġo dor
is el
is ins
is fied
il ings
Ġg ator
ĠS is
ĠS ave
ĠS PL
at he
en ger
Ġn or
Ġn ick
Ġsa p
an an
an king
im ate
im per
or ance
or gie
ĠH ia
ĠH undred
ĠH atty
ĠH idden
ĠH onk
Ġth ri
ir it
ĠHe y
Ġin h
ver ance
ut ting
ĠL u
ĠL ise
ĠL os
ĠL unch
ĠL ions
ĠL ost
Ġe ject
Ġe erie
Ġu pper
Ġu lt
ld ron
Ġy ards
oo oo
ig inal
Ġr ap
Ġr hino
Ġr itual
am ole
Ġbe llow
Ġst ations
Ġst ooped
ve re
ri ate
ri ages
ri ents
Ġpl un
ad a
ad ding
Ġday Ã¢
Ġday light
ĠB el
ĠB arn
ĠB and
ĠB ugs
ĠB anan
Ġup coming
st one
st em
st udy
Ġwe ed
Ġwe aving
my ard
un can
ĠM elly
ĠM aking
ĠM utt
ĠM ellie
ĠM arsha
ch ini
itt ers
Ġsh red
Ġdo c
Ġdo zen
Ġnot ices
all ist
se at
se ven
se ment
Ġwh imper
Ġtime out
Ġthere Ã¢
ĠA ustr
ĠA head
ĠA choo
ĠA kio
ĠA urora
Ġis s
riend ly
Ġan ch
ack ed
Ġwere be
ec a
ec orations
Ġbo g
Ġbo ssed
Ġbo lts
Ġtoo Ã¢
Ġse ated
Ġse lected
Ġse vere
ĠJ ail
ind eer
Ġsp ool
Ġsp iciest
ic i
ic ient
ic ier
ic ity
ic als
ic ating
ĠW es
ĠW arm
Ġnam ing
Ġcan ary
Ġkn itter
ight ened
um ents
Ġback up
Ġback seat
Ġcl as
Ġcl ink
Ġno stal
Ġno zzle
Ġal ike
Ġal bum
Ġsc ans
ick er
Ġman go
Ġfe llow
Ġro le
Ġro bbed
Ġro aming
Ġbr at
Ġbr ow
Ġbr ats
ings hot
Ġfa bul
Ġag ent
Ġtre spassing
ag ious
ie go
Ġco ax
Ġco ast
if ting
Ġcar ving
Ġcar riages
Ġpr ed
Ġpr ow
ĠE amon
ĠE inst
ĠF air
ĠF ear
ĠF oot
ĠF reck
ĠF olding
Ġla sag
Ġwho a
Ġfl ier
Ġfl urry
Ġch ore
Ġch anted
Ġch isel
as ive
Ġwal nuts
qu ack
Ġsw ipe
pl oy
ĠD ive
ĠD uncan
ĠD ecorations
ĠD iego
ro l
Ġbl ouses
ĠSam y
ĠSam Ã¢
Ġcare ss
Ġfeel ers
ist ic
Ġdad Ã¢
ess ed
Ġtree Ã¢
Ġpo sed
ĠSo ar
Ġta co
bb ies
Ġho bbies
Ġint ric
Ġint ense
Ġint rig
Ġint rud
Ġpu bl
Ġspecial Ã¢
ĠHer o
Ġpe w
Ġpe ering
Ġtr uffle
and as
Ġsl ug
Ġsl ingshot
ĠJo len
ĠJo anie
Ġor ph
Ġhand ling
Ġhand print
Ġhand cuff
Ġsun ning
Ġmo pped
Ġclo ak
Ġproud er
Ġqu ill
Ġqu ok
Ġqu alities
ump s
Ġstr ung
oth s
Ġjo gg
Ġfo al
ort ant
uc chini
ĠC ave
ĠC ere
ĠC elie
ĠC omb
ĠC eli
ĠC rayons
ĠC ynt
ĠC ici
Ġdre ad
Ġkind a
Ġflow s
Ġdon ation
Ġte ases
Ġgl ances
ase ball
Ġstill ness
Ġwo ve
Ġwo bbling
ct ic
Ġra iling
Ġra coon
Ġra isins
sh oot
sh rink
Ġrem arked
Åĵ Once
Åĵ let
Åĵ Go
Åĵ Timmy
Åĵ Molly
Åĵ Did
Åĵ To
Åĵ Jimmy
Åĵ Jill
Åĵ Little
Åĵ thank
Åĵ Excuse
Åĵ Those
Åĵ Next
Åĵ Nice
ĠP art
ĠP ho
ĠP ogo
ĠP iggles
ĠP arrot
ĠP irates
ĠP adding
ĠP andas
be que
be haved
Ġfin est
Ġpeople s
Ġsu pr
Ġfly ers
It s
led ged
Ġclean liness
Ġdra ins
Ġdoor kn
Ġkeep ers
Ġreal ising
ĠG l
ĠG as
ĠG ord
ĠG arry
ĠG inny
ĠG ianna
ĠG iggling
Ġcre st
Ġfar myard
Ġey el
ĠDad Ã¢
Ġun he
Ġun imp
Ġun bl
Ġun att
th ump
Ġma zes
ĠN ight
ĠN ap
ĠN umber
ĠN eed
ĠN aps
ĠN ico
ac amole
ĠSp in
ĠSp ain
ĠSp irit
ĠR ing
ĠR ice
ĠR em
ĠR alf
ĠR epeat
ĠR rrrr
Ġafter ward
Ġbro ad
Ġdis may
Ġdis organ
Ġgreat ly
Ġrepl acing
Ġwatch ful
Ġapp rop
Ġapp ointment
Ġfish ies
ĠSue Ã¢
Ġru ins
Ġde ath
Ġchild ish
Ġmag pie
Ġsqu a
Ġsqu ishing
ĠTh alia
Ġcont agious
Ġz agging
Ġz agged
Ġz ucchini
Ġfire wood
Ġbirds ong
Ġkid do
Ġdr ool
Ġdr ople
Ġsand als
Ġsand storm
Ġglad ness
ĠIn k
Ġcra ving
Ġcr ust
Ġmess enger
Ġworld s
Ġhat ing
Ġduck ies
ign orant
ĠJoe Ã¢
Ġfro st
Ġste amed
ĠSally Ã¢
Ġflower y
Ġflower bed
Ġlight est
iver sary
Ġsurprise Ã¢
Ġfull est
Ġsleep over
Ġcold ness
us ing
Ġdream land
Ġdream maker
Ġsho ved
Ġsnow s
ĠK yl
Ġfair ness
Ġmight iest
Ġtight en
Ġtight ness
ross ed
Ġcount ert
ĠGra ndp
sp e
sp icy
Ġcreat es
Ġbaby ish
Ġpink s
Ġpink y
Ġgu acamole
Ġmar vel
Ġmar ches
Ġwet ness
Ġpi an
Ġmet er
Ġspl itter
Ġsear ches
Ġpol icy
ĠFl uffle
ĠAll ison
ang les
ang ely
Ġgrow th
Ġve ins
Ġwon ky
Ġtreat ing
Ġele ments
Ġele gant
cle ver
Ġmouth piece
Ġwelc omes
Ġbar bers
Ġbar beque
Ġacc ord
Ġpro ving
Ġquiet ed
Ġblack bird
Ġatt end
Ġpa il
Ġpast ime
Ġheart beat
Ġpack ets
Ġpers pect
Ġfairy tale
Ġsmo kest
ĠJimmy Ã¢
ĠWh ose
ĠWh oosh
Ġswings et
Ġfree ing
Ġsoup s
Ġmin ers
Ġbelong ing
ĠO per
ĠO ysters
ĠAl vin
ĠSammy Ã¢
Ġmark ings
Ġround er
Ġband s
Ġband ana
Ġgift Ã¢
Ġlife guard
Ġcomfort s
Ġinc ident
Ġreturn s
Ġce ilings
Ġperson ality
Ġent ert
ĠCh urch
Ġcheer y
Ġvill ain
Ġshr inky
Ġshr ugging
ĠRe ach
ĠRe bek
ĠRe indeer
Ġmed allist
Ġsal iv
Ġhelpful ness
lex ible
Ġpan el
Ġsupp er
Ġwoman Ã¢
ĠBu lly
Ġash ore
ĠBe having
Ġhorse keeper
Ġremind ers
Ġsmooth ie
Ġwash cloth
Ġcoo ing
St and
St upid
St rike
Ġstra p
Ġstra ined
ĠMummy Ã¢
ĠAlice Ã¢
Ġhonest ly
Ġgar lic
ĠZ eb
ĠZ ork
ĠZ eld
Ġgener ations
Ġhospital ity
ĠDon na
ĠMark et
Ġnut rients
Ġfinger n
Ġbedroom s
Ġexam s
Ġship w
Ġtick lish
Ġcap tured
Ġrid den
Ġboard ing
Ġtag s
ĠNo va
Ġfre s
Ġsoap s
Ġdig its
Ġeye ing
Ġbrilli ance
Ġjealous y
Ġrough ly
Ġwagon s
Ġadventur ing
rag ile
Ġaw fully
Ġaw ait
Ġaccept s
Ġlog o
Ġcheerful ness
ira ffe
Ġham mers
ĠMy stery
Ġterri fic
Ġclay s
Ġbull do
Ġstraw s
Ġfier cer
Ġrug by
Ġcrack ling
Ġindependent ly
Ġstri ker
Ġchar ging
ĠFr ance
ĠFr uit
ĠFr ightened
corn s
Ġthunder ed
Ġflex ib
Ġmis under
Ġdough yman
Ġunk nowingly
Ġcur ling
Ġgum s
Ġeng rossed
Ġtruth ful
Ġsurf boards
Ġimpat ience
Re lease
Ġsuper pow
ĠTr uck
Ġshut s
Ġgoal ie
Ġrecogn izes
Ġrecogn ition
Ġadmire s
ci as
Ġsent ences
Ġmop s
ĠSh ake
Ġpun ched
Ġsepar ately
Ġmuseum s
Ġyach ts
Ġlid s
Ġclub house
Ġmechanic s
Ġbasketball s
Ġprov ides
Ġbaseball s
Ġbuzz er
Ġshelter ed
Ġnews boy
Ġtrail er
Ġbur sting
Ġpine app
Ġsprink ler
ĠCo al
Ġfle sh
Ġsteam y
ab ies
Ġrequ ires
Ġcomplain s
Ġcomplain ts
mm m
Ġsuff ers
Ġalarm s
Ġdelay s
Ġdear ly
Ġunif ormed
Ġraz ors
ĠKing dom
Ġport s
Ġport al
Ġpoison ed
To dd
Ġhesit antly
Ġstitch ing
Ġskull s
anna h
Ġfasc ination
Ġeff icient
Ġbeg ins
Ġdare s
Ġadmiring ly
Ġvillag er
Ġrust led
Ġoper ating
ĠAn cient
Ġcontain s
Ġintroduc es
Ġpermit s
Sh all
Ġwid en
Ġwid th
Ġsting ing
Ġsting ers
Ġpadd ock
!' ,
ĠPr u
Ġrail way
Ġcontro ls
Ġbegin nings
Ġbeat en
Ġvent uring
Ġsteep er
Ġann iversary
Ġachieve ments
Ġ1 6
Ġthroat s
Ġscra p
Ġflat tened
ĠMon u
ĠAmel ie
When ever
Ġknowledge able
Ġcent iped
Ġthreat en
ĠPl ace
Ġcough s
Ġtemperature s
ĠY et
ĠY ummy
Ġmuscle man
ĠLau rie
Ġunf riendly
pr ints
Ġspoonful s
Ġgasp ing
Ġrefle cts
Ew ww
Ġuns afe
eal ing
Ġcau ldron
Ġtuck ing
ĠBoun cing
ĠCurious ly
yes Ã¢
Ġplain s
ĠWin ning
Ġposs um
Ġoffic ial
Ġantic s
Ġsy stem
ĠFire fight
ĠIm press
ĠSw an
Ġmerma ids
Ġtweet ed
ĠRock s
Ġresponsib ilities
ĠPepper oni
Wh ist
Ġheaven ly
Ġsav our
Ġsav oury
Ġchin ny
So fia
Ġmasterp ieces
ĠGrand d
ĠDe an
Ġstrum ming
Ġprod uce
Cl ara
Tw inkle
po st
po les
Ġsens itive
ĠSa ila
Ġplayd ates
Ġbas in
Ġbas king
ĠHar old
ĠLy dia
ĠBea ver
Ġamu sement
Ġswallow s
Ġcooper ation
ĠFran co
ĠFran cis
Mar riage
off rey
Ġpuck ered
Ġbund les
ĠPa ola
Ġfoam y
shadow ing
Tr ade
ĠTe acher
Ġripp led
ĠFel icity
ĠSy dney
Ġscow ling
ĠStrip y
Ġexperiment ing
Ġful ung
ĠStr angely
Ġrack et
Ġbold ly
Ġexhib its
ĠPin ching
Che ers
Bird ie
Ġprison ers
Rain bow
ĠLa ila
Ġris king
ĠAmaz ed
ĠFur ther
Ġparamed ic
ĠCloud y
Ġshortcut s
Ġdemonstr ated
Ġhambur gers
ĠHaw ai
Ġinno c
Ġobst acle
Ahh h
OO M
Pe ggy
Ġah hed
ĠHapp ily
Ġneg ative
ĠPain ting
ĠSpider man
Ġsubst ance
Pr int
Rob ot
ĠSid ney
Ġclums iness
Co co
Mad dy
eat en
Ġded icated
Ġric hest
Ġclip board
Ġlaz iness
Ġdecre ased
Ġswer ved
Ġpea hen
Ġblend ing
Sur fing
Ġcav ities
ĠApp les
asc al
Ġswoop ing
ĠPillow y
ĠGe orgie
ĠGe offrey
ĠRel ax
Ġpersu asive
Ġvacu umed
Ġtransform ing
Del icious
Soph ia
Ġpy ram
ĠBing o
ĠEag le
ĠEag les
Ġchann els
ÅĵThey Ã¢
ĠPast a
ĠWhist ling
Ġratt led
Ġcombination s
Aunt ie
Din ner
Po or
wh oosh
Ġgri nd
ĠHonest y
ĠLast ly
Ġcoz ier
Ġsnoo ze
Ġsnoo zing
ĠCoo per
Ġunb uck
Ġarcher y
Ġperse vered
Ġperse verance
Ġaccur ate
Ġaccur ately
Ġeffect s
Ġwrest ling
Ġmarvell ed
Ġmarvell ing
ĠMushroom s
gra ndma
Ġtack le
Ġdash board
Ġsauc er
Ġthaw ed
Ġko i
raph s
Ġtreet ops
Ġcleve rest
ĠPow der
ĠGu ard
ĠRad ishes
Butter fly
Ġerra nds
Ġcorrid or
ĠSteph anie
Rec ycle
Ġtit le
Ġtad poles
Ġhumb ly
Ġdut y
ĠIgn oring
ĠBal ancing
Ġwhoop ing
Ġcla im
Ġchom ped
Ġintimid ating
Åĵhello Ã¢
ĠPro fessor
Ġunpl ugged
Ġcontract s
Ġcontribut e
Ġpapercl ips
Ġastound ed
pat het
Ġfain ted
Ġment al
ĠSat isfied
Ġnug gets
Ġrasp berry
Ġspec ific
Ġseeming ly
ĠEnt er
Ġjoll iest
Ġgru nts
Ġchem icals
Ġconcess ion
ĠGym py
Ġpier ced
ĠLeg os
Ġadvertise ment
ĠShoot ing
Ġacknow ledged
Cir cus
En ough
Rel ax
Raw r
danger ous
iven ess
Ġsect ions
Ġtourn ament
Ġfal se
Ġfurt hest
Ġcitiz ens
Ġphy s
ĠHundred s
ĠLos ing
ĠBel ow
ĠBarn ey
ĠBanan as
Ġwerebe ars
Ġclas ped
Ġfabul ous
ĠEinst ein
ĠFreck les
Ġlasag na
Ġintric ate
Ġpubl ic
ĠJolen e
Ġorph an
Ġquok ka
Ġjogg ers
ĠCere al
ĠCynt hia
Åĵlet Ã¢
ĠPho ebe
ĠPadding ton
Ġsupr ised
Ġdoorkn ob
Ġunimp ortant
Ġunatt ended
ĠNico le
Ġdisorgan ized
Ġapprop riate
ĠKyl ie
ĠGrandp apa
Ġbarbers hop
Ġaccord ing
Ġperspect ive
Ġsmokest ack
ĠOper a
Ġentert ained
ĠRebek ah
Ġsaliv a
ĠZeld a
Ġbulldo zer
Ġflexib ility
Ġsuperpow ers
Ġcentiped e
ĠFirefight ers
ĠImpress ive
ĠHawai i
Ġpyram ids
! !"
" ?
, .
A Y
A bby
A aa
A SH
B Q
B y
B ir
B ack
C ow
C oo
C ould
C aw
C hocolate
D a
D e
D one
D ance
D ucky
D avid
E P
F i
F ind
F eed
F uel
G r
G as
H ome
H igher
H onk
H annah
I N
I Ã¢
I LL
J ere
J erry
K n
K arl
K athy
L au
L and
L ion
L uc
L enny
L inda
L ulu
M a
M o
M in
M on
M ack
M ind
M ick
M imi
M atch
M osquitoes
N ut
N ick
N ap
N ate
O wl
O xygen
P a
P u
P en
P ri
P ack
P ain
P ull
P ower
P ipp
P arrot
P olice
Q uit
R a
R ot
R are
R est
R em
R ock
R hinoceros
R rrr
R OAR
S et
S ad
S and
S ail
S ale
S pid
S ince
S low
S anta
S wing
S queak
S uccess
T en
T ri
T ra
T ick
T ara
T ough
T illy
T ony
T erry
T una
T hings
U G
V ict
W ish
W endy
W isdom
W riting
W rong
Y ield
Y ucky
Y ES
Z ip
a ndered
b it
b our
b aa
b ushes
c oo
c cess
c ord
c alm
c hest
d el
d uck
d ink
d ely
d rip
e v
e es
e arned
f un
f ace
f oot
f ragile
g um
h is
h am
h ide
h igh
h ol
i ant
l ong
l ist
l oved
l via
m n
m ia
m oon
n ied
n ces
o il
p om
p ers
p ion
p ast
p ower
p lex
p olog
p ipe
r an
r us
r ises
r ont
r ito
r ann
s k
s omet
s pl
s uit
s ail
s aur
t ocked
t uring
t urned
t asting
u h
v an
v ings
v able
w ould
w ist
w berry
y ummy
z ens
z ero
z agging
Ġ *
Ġ 6
Ġ ir
Ġ ut
Ġ iv
Ġt amb
Ġa ver
Ġs ought
Ġs ue
Ġs ized
Ġs illi
Ġs ooo
Ġw ed
Ġw ick
Ġw ooo
nd mother
Ġto ed
Ġto ken
Ġb ung
Ġb asis
Ġb ases
Ġb icker
in te
in nied
Ġh arn
Ġh ired
Ġh ues
Ġwa gg
Ġwa res
Ġwa vy
re ted
re sp
Ġf ry
Ġf ame
Ġf ract
Ġf izzy
Ġf erris
ou ng
it able
ĠT id
ĠT own
ĠT ally
ĠT au
ĠT ower
ĠT ape
ĠT ye
ĠT ula
Ġl ing
Ġl itt
Ġl ack
Ġl oun
Ġl unches
Ġl oung
Ġc ases
Ġd us
Ġd ents
er ous
er os
Ġhe ater
Ġm oths
Ġp om
Ġp ell
Ġp ried
Ġp igg
ay a
ĠThe rm
ar p
ar my
ar ma
il ant
Ġg ur
Ġg irly
Ġg ills
id a
ĠS ack
ĠS ur
ĠS ens
ĠS to
ĠS omeday
ĠS onny
en ched
en us
Ġn ook
Ġn ooks
Ġn udge
Ġn orth
Ġsa cri
Ġsa cred
Ġha z
Ġha lw
an cy
an nies
im ble
or ke
or ous
or pion
on ce
Ġit ching
ĠH a
ĠH and
ĠH istory
ll ect
le ction
Ġ" '
ot ed
ot ions
et ti
ir us
ĠHe aven
Ġin sc
Ġin ev
ow ered
ĠL o
ĠL ad
ĠL ake
ĠL ill
ĠL ung
ĠL ying
ĠL asers
Ġe el
ld ier
Ġy ay
Ġr im
Ġr oug
Ġr ins
Ġr aged
Ġbe ings
Ġbe aches
Ġst ock
Ġst ale
ĠI rel
ce led
ce lebr
Ġshe pher
ve iled
ri al
Ġpl ush
Ġpl aster
Ġso b
ad led
ĠB ug
ĠB ap
ĠB iting
ĠB aking
ĠB aker
ĠB roccoli
ĠB IG
ĠB aseball
ĠB OOM
ĠB BQ
Ġup wards
Ġplay thing
st o
st ay
un gry
ĠM ild
ĠM ead
ĠM ab
ĠM osquitoes
ch aser
Ġsh aded
Ġdo Ã¢
Ġdo zens
se e
Ġwh ips
Ġwh innied
Ġk a
al ow
al ance
al ope
Ġne ighing
Ġhappy Ã¢
Ġre x
Ġre ven
ĠA ir
ĠA very
ĠA ren
ĠA RE
ĠA ida
ĠIt chy
Ġsm acked
ra cks
ra wberry
Ġsaw s
Ġfriend lier
Ġas se
ack s
Ġse ren
Ġse ize
Ġse lection
ĠJ ade
ĠJ ungle
Ġj umbled
Ġj azzy
Ġgirl friend
Ġout com
Ġsp an
Ġsp ite
Ġsp atul
Ġsp icier
fu sely
art z
ic an
ic ine
lp ful
ĠW i
ĠW ood
ĠW illy
ĠW inky
Ġcan celed
Ġfriends Ã¢
Ġall Ã¢
Ġback st
Ġfun ction
Ġcl atter
Ġcl amp
Ġcl ang
Ġcl uttered
are s
Ġle ashes
Ġno ble
Ġno ddles
op ed
op ards
Ġal er
Ġsc ents
Ġsc orpion
Ġfe at
Ġlike ly
Ġsome place
Ġro ly
Ġbr ay
Ġbr amble
Ġme Ã¢
Ġme andered
ice Land
ss ss
Ġbird y
Ġtre ad
oud ly
Ġcar vings
Ġpr ance
Ġpr oof
Ġpr ancing
ĠE ar
ĠE le
ĠE ve
ĠE ast
ĠF ine
ĠF ull
Ġagain Ã¢
Ġmu ck
Ġmu les
Ġla sting
Ġla pping
ell ed
ep iece
Ġfl u
Ġfl akes
Ġfl ipping
Ġfl ushes
Ġch ug
Ġch urn
Ġch ipped
Ġch ords
Ġwal rus
qu ired
qu iet
qu ility
Ġsw um
Ġsw arm
Ġsw ishing
Ġsw ift
Ġsw iped
pl ing
pl aced
ĠD ipp
ĠD eena
ĠSu ccess
ro ve
ro ken
ro cket
ro ze
ax i
Ġbl ushes
Ġdown ward
Ġcare er
Ġone Ã¢
Ġv at
Ġv irus
ap ers
Ġgra zed
ers on
our ine
Ġkne ad
Ġkne ading
Ġwill ow
ĠSo ap
ĠSo ldier
Ġbu ries
Ġbu rial
bb ery
Ġpre c
Ġpre fere
Ġho ll
Ġho ard
Ġho bbled
ged y
ĠAnna Ã¢
Ġold s
Ġpe ed
Ġpe gs
au nt
Ġhow ls
Ġtr out
Ġtr ink
Ġtr ough
Ġtr und
Ġsl ot
Ġsl iced
Ġsl ope
Ġsl ashed
Ġrun gs
Ġhouse work
Ġtw ister
Ġtw ittered
ven e
Ġor b
Ġor chest
Ġsk i
Ġsk ated
ĠJack alope
Ġsun Ã¢
Ġsun nier
Ġsun rises
Ġmo aned
Ġclo cks
Ġover turned
Ġqu artz
ty ard
Ġen sure
Ġstr ate
Ġcom ment
Ġneed y
iz ation
Ġjo lt
Ġfo il
Ġsn out
Ġsn arl
Ġsn orke
ine a
Ġunt ies
Ġunt wist
uc ted
ild ing
ĠC ob
ĠC row
ĠC omp
ĠC ourage
ĠC ricket
Ġim m
em ing
ber g
Ġgr ime
Ġgr illed
Ġbra ke
Ġbra ked
Ġbra gged
Ġgarden ers
Ġdon ut
Ġte eming
Ġgl ance
Ġgl aring
Ġgl ues
Ġgl ancing
Ġloud spe
Ġjump y
sh ake
sh ield
Åĵ F
Åĵ and
Åĵ Tom
Åĵ Anna
Åĵ Jo
Åĵ And
Åĵ Yuck
Åĵ Mmm
Åĵ Sp
Åĵ Bob
Åĵ Not
Åĵ Today
Åĵ Meow
Åĵ Jane
Åĵ Have
Åĵ Time
Åĵ but
Åĵ Amy
Åĵ Take
Åĵ Always
Åĵ we
Åĵ All
Åĵ Stay
Åĵ Alright
Åĵ Tweet
Åĵ Sarah
Åĵ Grandpa
Åĵ don
Åĵ Everyone
Åĵ Rob
Åĵ okay
Åĵ Anything
Åĵ yesÃ¢
ect ar
ĠAs k
ĠP ay
ĠP ine
ĠP ret
ĠP ract
ĠP aint
ĠP ieces
ĠP olice
ĠP erson
be ard
be known
Ġimp ul
Ġfamily Ã¢
Ġred uce
Ġstor ing
Ġsu l
Ġsu ds
ock ey
Ġpic tured
Ġcon co
Ġwind shield
ĠG um
ĠG ail
ĠG iant
Ġcry baby
Ġfr illy
Ġfr amed
Ġey epiece
ff led
Ġun ra
Ġun veiled
oy al
ĠBob ro
th ur
Ġma c
âĤ¬âĦ¢ !
âĤ¬âĦ¢ ,
ĠN ed
Thank you
ac on
ĠSp iceLand
Ġtra iling
Ġtra gedy
ĠR at
ĠR est
ĠR ail
ĠR hino
ĠR ascal
Ġdis inte
Ġrepl anted
Ġrain cl
Ġac quired
Ġmean est
Ġru lers
Ġru dely
Ġfollow er
Ġbright ness
Ġbright ening
Ġde fl
Ġar ch
Ġar rr
Ġar ctic
co hol
We Ã¢
Ġchild Ã¢
Ġhigh ly
Ġwarm s
Ġye ah
aught y
Ġsqu inting
Ġam bit
Ġnight Ã¢
Ġbutter y
Ġopen er
Ġz eros
Ġfire ball
Ġflo pping
Ġkid n
Ġkid ding
Ġdr ooped
Ġper k
Ġper plex
Ġcr u
Ġcr ates
Ġcr anny
Ġcr unches
Ġcr itters
Ġcr annies
Ġcr adled
Ġmess iest
Ġrest s
Ġba les
Ġba bbling
Ġba ffled
Ġsoft ens
uff ing
ign ific
Ġste als
Ġtop ic
Ġtop ics
Don Ã¢
Ġlight house
Ġlight ening
Ġdri bbling
Ġcool ers
ĠBenny Ã¢
iver sity
Tom orrow
Ġspot light
Ġcold est
Ġdream er
Ġslow est
Ġsho ppers
Ġbuy ers
ens er
Ġice berg
Ġchildren Ã¢
Ġrel ig
Ġrel ic
Ġrel uct
Ġarm ful
Ġdelicious ness
ĠBilly Ã¢
Ġhot dog
Ġcount ers
sp ell
sp read
Ġvis ible
Ġbaby Ã¢
Ġgu ides
Ġgu inea
Ġdinner time
Ġfur s
Ġwet ting
Ġmet ho
red ict
rot s
Ġpol iteness
zz led
zz zz
Ġspark ler
Ġspark lers
ĠFl uff
Ġpet rified
ugg a
Ġpat ched
Ġpat io
Ġem ploy
Ġem otions
Ġland mark
Ġliving room
cle ar
cle an
sw er
Ġworried ly
Ġshap ing
Ġbar rier
Ġbar racks
Ġcho ke
Ġcho ppy
Ġrace car
Ġdragon flies
Ġpro dded
Ġpro gr
Ġpro fess
Ġpro fusely
Ġmonkey Ã¢
Ġheal s
Ġheart y
br ary
br idge
ĠMary Ã¢
Ġcoll e
ĠGrandma Ã¢
Ġcour tyard
Ġteacher Ã¢
ĠTw elve
Ġgentle men
Ġdry ness
Ġshop keepers
Ġmin ty
ĠOn ions
Ġlate Ã¢
Ġph arma
Ġdist ress
Ġdist ances
oun cing
Ġmat ure
Ġpig let
Ġkey board
ĠO zzy
Ġbus ily
ĠAl as
ĠAl so
ĠAl army
Ġmad der
Ġcow ered
Ġround est
Ġ3 5
to ot
Ġpurp les
Ġpower less
Ġmist reat
Ġspoon ed
Ġmilk man
Ġinc ense
Ġgrab ed
Ġkick ball
Ġsharp ened
Ġperson al
Ġperson alities
Ġhoney bee
Ġhoney moon
Ġcollect s
Ġcollect or
Ġtrouble maker
Ġent ers
ĠCh icky
ĠCh ippy
ĠCh ildren
Ġsaf est
Ġpath way
ub s
Ġclever ly
Ġshr ubs
ĠRe ally
Ġfeather y
up on
Ġwild er
Ġwild ness
Ġdi aper
Ġdi apers
Ġfoot ing
Ġprotect ors
Ġprotect ively
ĠSt re
ĠSt ick
ĠSt ars
Ġlad le
nic ian
Ġseat ing
Ġsal ute
la zy
Ġpush y
Ġign orance
Jo in
Ġrec ited
Ġring master
ĠBe ars
ĠBe autiful
Ġscar iest
Ġant enn
Ġant hill
oph ones
Ġspe cks
Ġrob es
Ġrob ins
Ġhum id
Ġhum or
Ġemp owered
Ġcann ons
ĠSome body
ĠSome how
St ar
St ret
St ealing
ĠTV s
Ġhar bour
Ġmoon walk
Ġstra nd
Ġpin ned
Joh ny
ĠBr ing
Ġknowing ly
Ġwhis king
ĠZ oo
ĠZ izz
Ġfear less
Ġpillow case
Ġgener ally
Ġhosp itals
Ġmedic al
Ġner ve
Ġreg ained
Ġreg reted
Ġsheep dog
Sam antha
Ġspoil t
Ġscarf s
Ġbored om
Ġfinger prints
Ġdrum mer
Ġexam ines
Ġsuccess es
Ġdetermined ly
ĠSusie Ã¢
Ġplayground s
Ġlead ers
Ġchest s
Ġweak ly
Ġclown Ã¢
Ġcap turing
Ġrid ers
Ġmir aculous
Ġwolf Ã¢
Ġtag ging
Ġcheck up
Ġboss es
ĠNo on
Ġfre es
Ġcrawl er
Ġhunt ed
Ġdepend ing
Ġext ended
Ġapolog ise
Ġapolog izes
Ġfavour ites
Ġaw ed
Ġsuggest ions
ĠMar cus
Ġfoolish ness
Ġpump s
Ġpump ed
Ġjam s
Ġter rain
Ġsword fish
Ġterri fying
Ġfier cest
Ġfright en
Ġtoast y
Ġfrag r
Ġcrack led
Ġstri ve
Ġvalu ing
Ġresc uer
Ġchar ges
Ġhose pipe
Ġmem or
ĠCl ap
Ġtooth brushes
Ġserious ness
com p
Ġlaw men
Ġlaw yers
Ġflex ing
Ġmis ery
Ġmis placed
Ġtravel ers
Ġdough nuts
Ġuncle an
Ġhumble st
ĠSandy Ã¢
Ġaunt Ã¢
Ġcur b
Ġcur d
Ġcur vy
Ġwing ed
Ġpatch work
Ġsurf s
Ġsurf aces
ĠPat sy
Ġmath s
Ġshine y
Ġsplit s
Ġsuper vision
Ġafternoon s
Ġtrop ical
Ġshut ting
Ġtire lessly
Ġsym pathet
Ġcamp ers
Ġfu zz
Ġmill stone
az ors
Ġhelpless ly
Ġfootball s
ĠUn known
Ġfearful ness
Ġmicr ophones
Ġhall s
Ġdeaf ness
Ġraven s
Ġobser vant
ĠSh ort
ĠSh adow
Ġur ges
Ġur gent
Ġrhinoceros es
Ġbet ray
reci ate
Ġappreci ating
Ġslipp ers
Ġdisturb s
Ġskill fully
Ġnail ed
Ġoil s
Ġbubble gum
Ġjudge ment
Ġmama Ã¢
Ġluck ier
Ġmen us
Ġveil s
aff od
ĠSte am
ĠSee k
Jack y
Ġbur rito
Ġchirp y
Ġsummer time
Ġsprink lers
Ġwool en
Ġgro an
Ġtherm os
Ġstraight er
Ġveterinarian s
Ġprevent ion
aud ia
Ġble at
arm face
ĠCo llect
Ġstrength s
Ġloop ing
Ġitch ier
Ġstable s
Ġgrin ning
ab out
Ġgrill ing
Ġinvestig ation
Ġregret s
web s
Ġfloat ies
Ġconf etti
ĠSad ness
Ġagree ing
Ġmention ing
Ġinstr ucted
Ġmall ard
Ġport ra
Ġstomach ache
Ġprop osed
Ġga jar
ĠV enus
Ġsty list
Ġemer ald
ĠMat ches
Ġreplace ment
Ġscur ry
Ġstrang est
Ġstrang ely
ĠCat s
ĠCat ch
Ġoper ate
Sp ike
Sp ring
Ġweight less
Ġrhy mes
ĠAm aya
Al armface
Ġwizard Ã¢
Bob o
Sh ake
Sh are
Ġsix ty
Ġpitch ing
Ġprice less
Ġgrandmother Ã¢
len ess
Or der
Ġrele ases
Ġsatis fying
ĠBig ger
Ġtremble s
Ġune ven
Ġwreck er
Ye a
Ġcrumb ly
Ġrepeated ly
Ex it
Ex cellent
Gra cie
Gra cias
ĠFu rious
Ġallow s
Ġbroom stick
ĠRabbit s
Ġforehead s
Ġburrow ed
Ġstair ways
Ġmotion less
go d
ĠChe wing
ĠChe erful
Ġpartic ip
Ġthreat s
ĠMa jest
Ġraindr op
fl av
Ġdeli ber
Ġpleasure s
Ġhi king
Ġty re
Ġty ped
Ġty rann
Ch ild
Ch oose
Ġspong es
ĠRobert a
Ġinsp ection
ĠGet ting
Ġaccomplish ments
Ġtipt oes
Ġaud ition
Ġsib ling
ĠHoot y
Ġunf roze
ĠSpl ish
Ġfeast ed
pr oof
ĠSc out
ĠSc ared
ĠPu zzled
Ġlower ing
Ġwilling ness
Ġrefle ct
Ġuns uccess
ĠSqu are
?' "
ĠBo x
Ġcommun icating
the less
Ġdet ach
Ġsadd est
Ġposs ibly
Ġexplo des
Ġoffic ially
Ġawo ken
ĠHope fully
ĠMuff ins
Fl our
cl ick
ĠBri ck
ĠUp stairs
Ġgrandparents Ã¢
Ġdot ted
Ġunw ound
Ġunw anted
ĠSw ing
Ġposit ions
Ġencouraging ly
Ġreun ite
ĠRock ets
Ġcraft ing
ĠCle ver
Ġwrigg le
Ġwrigg ly
Ġsoot hed
In credible
Ġoccasion ally
Jen na
Wh iskers
Ġger m
Ġsav anna
ÅĵWhere Ã¢
Ġwhoo shed
Ġloc ated
Ġdisc ount
Ġinter act
Ġinter vene
Ġfocus ing
ĠGrand father
Ġunlo ading
Ġcaw ing
Ġtransf ormation
An swer
ĠDe ep
Cl ap
val ue
ĠAr kie
ĠAr thur
ĠDuck ie
Ġsquir ming
Ġunwra ps
po ly
po ison
Ġill ness
Ġbas ic
Ġbloss oming
Ġsquaw ks
ĠSil vie
Ġsnug ly
Ġinvent ing
Ġconcentr ation
fly ing
ĠTre at
Ġlim ited
ative ly
Ġroast ing
Ġswallow ing
Ġtorto ises
lo ving
Ġrebu ilt
,' '
ĠNever theless
ww w
ĠTe am
Ġthie ving
Ġripp ling
Ġpriv ile
abra cadabra
ĠSy lvia
Ġscow l
ĠGirl s
Ġruff ling
Ġmonth ly
Ġvibr ate
Ġvibr ations
Ġrebuild ing
ĠMic ah
ĠThrough out
Ġwoodcutter s
Ġic icles
Ġtin iest
ĠTell ie
Ġlens es
Ġcaution ed
ĠWal king
ĠDoes n
Ġcourageous ly
Ġenerg ised
Ġinterrupt ing
Che ese
Ġflipp er
ĠRich ard
Ġconnect s
Ġhabit ats
Sleep y
ĠJere mia
ĠWait er
ĠPeanut s
dr op
Ġhuff ing
Ġhoof s
Ġmur al
ĠWitch y
Ġtrad er
Ġtwitch y
ÅĵThere Ã¢
Ġunst opp
ĠCloud s
Ġcoconut s
Ġdemonstr ating
Ad venture
Danger ous
Ġexist s
ĠCount down
Ġcartwhe el
Jess ica
OO F
ĠTad dy
Ġwhirl pool
Ġsparrow s
ĠWorm s
Ġsunb athing
ĠNe igh
Ġdesce nd
Ġhoneycom bs
ĠBlack beard
Ġhydr ated
Ġshif ting
ĠFore ver
ĠFore shadowing
Ġmold ing
Ġaccess ory
Ġmelo d
At t
Ġsim pler
Ġdandel ion
ĠAc ross
Ġjer ky
Ġoutsm arted
ĠButter fly
ĠButter flies
Ġvar ious
ĠCRA CK
Ġcraz iness
ĠStret chy
Ġmisbe having
Ġdetect ives
Dra w
Su ddenly
Su zie
Un cle
cup cake
Ġpes ter
ĠLoop s
ĠBer ty
ĠApp reciate
Ġswoop s
Ġendless ly
ĠRes ist
ĠRun ning
ĠDoll s
Ġpassage way
Ġpassage ways
Ġobl ige
Ġunlike ly
AA AA
Bu ddy
Fro g
Fro ggy
New s
Per fect
Ġreel ed
ĠAmer ican
ĠJing le
ĠJes se
ĠWhe ther
Ġskate board
ÅĵHe Ã¢
ĠPer cy
ĠPer haps
ĠPast ry
ĠWhist le
Ġcroiss ants
Chirp y
Ġinspect ing
May a
Tin o
for give
Ġsess ions
ĠTon ight
Ġcy cling
Ġcy cled
Ġrent ed
Ġtran quility
Ġtech nician
ĠDolp hins
Ġprepar ations
ĠShark s
ĠShark y
Ġwrest led
ĠExpl oring
Ġfulfill ing
Ġgalax y
Duck s
Fin n
Pat ience
grow ing
Ġtack led
ĠLaw yer
Ġstump ed
Ġtreet op
Ġcleve rer
ĠPop corn
ĠRad ish
Ġdisp enser
Ġstreak s
Ġprotest ed
Ġerra nd
Ġviol ins
Ġcorrid ors
Ġdetail ed
Ab igail
Count ing
ex it
Ġtang y
Ġdawn ed
Ġsole mn
Ġrect angle
Ġrect angles
Ġrecy cling
Ġrecy cled
Ġassist ant
arent ly
Ġscutt led
Ġscutt ling
Ġvig orous
Ġslurp ing
Ġsket ched
Ġquiver ed
Ġdisrupt ed
Ġattent ive
Ġattent ively
Ġbenef it
Ġbenef its
Ġsharpen er
Ġpleading ly
Ġpinec one
Ġpinec ones
Ġphotog raphs
Ġsubtract ing
ĠAdventure rs
Fox es
Ġferocious ly
ĠCaterpill ar
ĠCaterpill ars
Cook ie
Ele ven
Lemon ade
Sl ide
Te acher
Tre asure
iqu es
rep ared
Ġmid st
Ġpoun ces
Ġgel ato
ĠHay ley
Ġins ignific
ĠBA NG
ĠBE EP
ĠBes ide
ĠMc Alarmface
ĠMed icine
ĠJump ing
oper ty
ĠCont est
Åĵit Ã¢
Ġunp redict
Ġunroll ed
ĠStir ring
Ġillumin ated
Ġsummon ed
Ġtransport ed
Ġtechn iques
Ġmultip le
Ġnavig ate
Ign orant
Je ff
Raven s
tre ating
Ġlather ed
ĠSis i
ĠSPL ASH
Ġnick n
Ġinh aled
ĠLu isa
Ġdoc ument
ĠAustr alia
Ġiss ues
Ġanch ors
Ġnostal gic
Ġcaress ing
Ġtaco s
Ġintrud ers
Ġhandcuff s
ĠGord on
ĠNap kins
ĠRem i
Ġdrople ts
Ġcountert ops
Ġpian ist
Ġshipw reck
Ġawait s
Ġpineapp le
Ġefficient ly
Ġinnoc ently
ĠRelax ing
Aaa ah
Jere my
Mon key
Sad ie
Vict ory
past a
saur us
Ġtamb ourine
Ġsilli est
Ġbung alow
Ġharn ess
ĠTid ying
Ġloun ge
Ġloung ing
Ġdus k
Ġpell ets
Ġpigg ies
ĠSens ing
Ġhalw a
Ġinsc ri
ĠLill ian
Ġroug her
ĠIrel and
celebr ate
Ġshepher d
ĠMead ow
ĠMab ell
Ġreven ge
Ġseren e
Ġoutcom es
Ġspatul a
ĠWood y
Ġbramble s
ĠDipp er
Ġprefere nces
Ġtrund led
Ġorchest ra
ĠCob webs
Ġloudspe aker
Åĵdon Ã¢
ĠPract ice
Ġdisinte gr
Ġraincl oud
Ġperplex ed
Ġreluct ant
Ġlandmark s
Ġprofess ion
Ġpharma cy
Ġantenn as
ĠMajest y
Ġtyrann osaurus
Ġunsuccess ful
ĠJeremia h
Ġunstopp able
Ġsolemn ly
Ġvigorous ly
Ġinsignific ant
Ġunpredict able
! !
! ?
! ."
! !".
0 0
: "
A M
A S
A ng
A na
A bbie
A gain
A ccidents
A RE
A corns
B o
B ar
B ow
B ug
B est
B oth
B ike
B iting
B itter
B illie
B arry
B amboo
B ugs
B ats
B zzz
B athe
B alance
B ouncing
C u
C her
C up
C hew
C RA
C aptain
C herry
C RE
C ourage
C ricket
D r
D um
D eedee
D iamond
D rop
E D
E T
E r
E ee
E ek
E ating
E ls
F u
F ar
F el
F ur
F og
F lower
F arm
F ishy
F iona
F ighting
F inny
F eather
F resh
G u
G us
G ray
G inger
G rrr
G wen
G ills
G iraffe
H O
H R
H en
H oo
H ank
H oot
H ats
H OO
H urray
H AT
H uh
H ungry
I zzy
I ndeed
J an
J udy
J imbo
J ordan
J osie
K ick
K erry
L E
L ou
L ad
L ight
L ung
L ions
L izard
L izzie
L ost
M ir
M el
M ouse
M ila
M oney
M ister
M issed
M iles
M abel
M att
N D
N an
N ight
N eed
N ora
N athan
N aps
N aughty
O N
O T
O W
O lly
O llie
P s
P ig
P art
P ause
P ol
P ress
P ray
P aint
P ige
P illow
P apa
P otato
Q ueen
R ing
R ead
R oof
R ory
R icky
R epeat
S P
S T
S k
S n
S al
S ave
S ister
S chool
S ho
S old
S omeday
S issy
S even
S CRE
T on
T al
T ag
T ie
T ia
U N
U p
U gly
W on
W et
W al
W ant
W ater
W orm
W ork
W ah
W rite
W arning
Y up
Y AY
Z ane
Z ee
Z zz
Z oomy
Z ebra
a hed
a bor
a pler
b a
b et
b ir
b es
b out
b ack
b ark
b ite
b ath
b ones
b edient
b ooks
b idden
c et
c am
c art
c op
c ars
c ular
c laimed
c aw
c arry
c ray
c ups
c ases
c opes
c aptain
d ot
d oo
d ra
d ark
d ings
d ive
d ate
d ictionary
e lebr
e getable
f o
f is
f ro
f ighting
f olding
g as
g loo
g obble
g iraffe
h arsh
h ift
i very
i pt
j s
j ump
k art
l im
l se
l ion
l icked
l antern
l ifting
m et
m ur
m ag
m ess
m ary
m aybe
m ath
m iss
m ons
m ove
n s
n ice
n Ã¢
n ip
n ation
n eed
n eigh
o one
o nder
o ves
o bbery
p or
p ile
p itch
p oof
p athy
p inch
r ide
r illed
r iding
s un
s ome
s al
s ur
s ong
s ened
s ive
s ion
s uff
s chool
s iness
s aid
s ided
s urprise
s essed
s nip
t ra
t ill
t ick
t ist
t ap
t urn
t ies
t eb
t elp
t reat
u est
u sed
u able
v ag
v ate
v ation
v ail
w is
w oo
w ind
w arm
w eal
w riting
w ooo
w atching
y s
y ed
y outh
y ric
z ap
Â ¡
Â ł
Å ł
Ġ &
Ġ ou
Ġ est
Ġ ought
Ġ oun
Ġ ...
Ġ Ãĥ
he nt
Ġt ame
Ġt ens
Ġt ul
Ġt attered
Ġt ended
Ġt ending
Ġt uss
Ġa ching
Ġa hold
Ġa ahed
Ġs cept
Ġs oooo
Ġw il
nd igo
ed ge
Ġto get
Ġto nes
Ġb ind
Ġb ish
Ġb ree
Ġb ash
Ġb umbled
Ġb ib
Ġb acon
in ic
in ct
in ning
in ng
in ated
in ery
in nam
Ġh ust
Ġh mm
Ġh ustling
Ġh ula
Ġwa il
Ġwa de
Ġwa vered
Ġwa ddles
re ated
re cord
Ġf itt
Ġf ert
Ġf itter
Ġf iddle
Ġf iring
ou et
ou ching
ou fl
it or
ĠT er
ĠT en
ĠT ow
ĠT am
ĠT ent
ĠT oy
ĠT rying
ĠT asting
Ġl ure
Ġl ink
Ġl ane
Ġl illy
Ġl inked
Ġl atch
Ġl inger
Ġl yric
Ġc ack
Ġc ic
Ġc ope
Ġc ork
Ġc ured
Ġc ents
Ġc innam
Ġd at
Ġd ow
Ġd ood
Ġd ice
Ġd iet
Ġd ashes
Ġd affod
er ved
er by
er gen
Ġhe m
Ġhe irl
Ġhe ating
Ġhe dges
Ġhe aps
Ġm im
Ġm idnight
Ġm utt
Ġm entions
Ġm uttering
Ġp m
Ġp ou
Ġp oth
Ġp acing
Ġp js
Ġwas teb
om ly
ar ade
ar age
ar ison
is er
is or
ing e
il le
il ight
il ience
il izer
Ġg ang
Ġg utter
Ġg rizzly
id st
id ly
id ded
ĠS ec
ĠS way
ĠS ign
ĠS ail
ĠS imp
ĠS af
ĠS urprise
ĠS ighing
ĠS orting
ĠS HR
at y
at able
at man
at tter
at ically
en ch
en ced
en uit
en sely
Ġn on
Ġn urt
Ġn ipped
Ġn udges
Ġn ada
Ġn imble
Ġsa les
Ġsa int
Ġsa pling
Ġha unt
Ġha sty
im um
im med
im ately
im inal
im istic
or ked
or ried
or othy
or iginal
on ly
on ounce
Ġit ched
ĠH mm
ĠH orses
ĠH usband
ĠH uggy
ĠH urray
ĠH UG
ĠH ockey
Ġth us
ll ies
le ted
le gged
le af
Ġ" "
ĠShe Ã¢
ot ic
ot hes
ot iced
ir king
ir ited
ir der
ĠHe at
ĠHe al
Ġin ching
Ġin ject
ver b
ver ty
ut es
ut tle
ck ing
ĠL ess
ĠL ate
ĠL aughter
ĠL umber
ĠL otty
ĠL oyal
Ġe w
Ġe ek
ld ering
Ġy a
Ġy ank
Ġy ipped
Ġr and
Ġr age
Ġr ots
Ġr ib
am ily
am ant
am ine
am os
am med
am mered
Ġbe ck
Ġbe eline
Ġst ink
Ġst ages
Ġst ab
Ġst uttered
Ġst abbed
Ġst apler
Ġst ammered
ĠI T
ĠI ndeed
ĠI gloo
pp orting
Ġwith stand
On ion
ri ble
ri bbit
ri ek
Ġhis sy
Ġpl ast
Ġpl owed
Ġpl umbers
Ġpl iers
Ġso ars
nt own
ad s
ad er
ad ise
ĠB it
ĠB one
ĠB ugg
ĠB orrow
ĠB read
ĠB ikes
ĠB reeze
ĠB oys
ĠB amboo
ĠB zzz
ĠB abies
ĠB roken
Ġup Ã¢
Ġup right
Ġplay in
Ġplay Ã¢
Ġplay gr
st ood
st upid
st imate
Ġwe bbed
Ġwe irder
Ġmom mie
Ġfor ms
Ġfor bidden
el ong
un s
un cher
ĠM Y
ĠM em
ĠM ars
ĠM ami
ĠM ule
Ġli ber
Ġli vel
ch irp
ch ugga
Ġsh atter
Ġsh ushed
Ġsh riek
Ġdo in
Ġdo cked
Ġnot ed
all ic
se em
Ġwh om
Ġwh iff
Ġwh ooped
Ġwh ipping
Ġthere fore
al ue
al ator
al ico
ht icated
Ġre use
ĠA bo
ĠA corns
ĠA polog
ĠA ND
ĠIt aly
Ġsm ug
Ġsm other
Ġsm ock
Ġsm eared
Ġsm udges
Ġsm irking
ĠĠ ĠĠĠ
ra ble
ra pher
ra ham
Ġfriend liest
Ġlo oming
Ġlo vable
Ġlo llies
ec ing
Ġbo bber
Ġse wn
Ġse ash
Ġse ams
Ġgo ed
Ġgo ers
ĠJ uly
Ġj iggle
Ġj iggly
Ġj agged
Ġj ester
Ġj abbed
ard ous
ard less
Ġout ings
Ġout look
ind er
ind epend
Ġsp ra
Ġsp ac
Ġsp lend
Ġsp rain
Ġsp arked
fu se
ur nt
ur led
ur ance
ur key
ĠTom ato
art hed
art ments
hed ule
Ġex ited
Ġex otic
rom at
rom ises
ic ulous
ĠW on
ĠW est
ĠW arn
ĠW ool
ĠW ash
ĠW ord
ĠW indy
ĠW rite
ĠW orse
ĠW ires
ĠW ILL
ĠW OOF
ĠW ON
ĠW orried
Ġcan y
Ġkn ack
ight est
um s
um bo
Ġcl ipp
Ġcl inked
Ġcl umps
Ġcl inic
are st
are nts
Ġsay ed
Ġsay Ã¢
You Ã¢
Ġno is
op t
Ġal t
Ġal cohol
Ġsc our
Ġsc aled
Ġsc oured
Ġsc roll
Ġsc attter
Ġsc uttle
Ġsc hedule
Ġtoy box
Ġman ages
Ġman sion
Ġman telp
Ġfe e
Ġsome what
ure n
Ġbr oth
Ġbr ont
Ġme ment
Ġme wing
ong s
ss els
Ġwor sened
Ġag ents
Ġag gress
Ġtre spass
ag s
ag ing
ag ining
ag raph
Ġtogether Ã¢
ĠMom mie
Ġco bb
Ġco als
Ġco ppers
Ġco ils
Ġpark Ã¢
Ġput ted
Ġnew er
Ġpr onounce
ĠF at
ĠF au
ĠF ield
ĠF ix
ĠF reeze
ĠF ishing
ĠF eed
ĠF ixing
ĠF alling
ble s
Ġexc us
Ġexc use
Ġmu Ãĥ
Ġhome Ã¢
Ġla ir
Ġla ze
Ġla unched
Ġla uncher
ell s
ell ery
Ġwho Ã¢
est ri
est ries
est ival
est ruck
Ġdec omp
Ġfl ung
Ġfl aky
Ġfl itted
Ġfl inging
Ġfl inch
Ġch imes
Ġch ins
Ġch imed
Ġch omp
Ġch ants
as uring
qu ed
qu ake
Ġthings Ã¢
Ġsw ear
Ġsw irly
pl ain
pl ant
ĠD ust
ĠD eterm
ĠD iving
ĠD orothy
ĠSu pporting
ro ar
Ġbl and
Ġbl aring
Ġbl uer
Ġbl ushing
Ġbl uest
Ġdown s
Ġdown wards
Ġdog Ã¢
Ġdog house
Ġdog gies
ust ion
Ġv oted
ap ing
ap or
ap ey
ap ult
arn ia
Ġgra cious
Ġmy stic
ant um
ant ically
Ġlot ions
Ġtoys hop
Ġpo ll
Ġpo nder
Ġpo verty
Ġball et
Ġwill ed
Ġoutside Ã¢
ĠSo ft
Ġbu oy
Ġbu zzy
Ġta ssels
Ġpre vious
Ġho ist
Ġint ention
Ġint act
Ġint ensely
Ġpu lp
Ġpu lse
Ġspecial ist
Ġtake off
Ġsor bet
Ġpe er
Ġcat Ã¢
Ġhow ler
Ġsl ave
Ġsl umber
Ġsl oppy
Ġsl ugs
Ġsl udge
Ġsl obbery
Ġsl ightest
Ġtw ine
Ġtw ee
Ġtw ang
Ġtw ilight
ĠJo in
ĠJo king
ĠJo gging
Ġsk it
Ġsk ipp
Ġsk etch
Ġsk ittered
Ġsk idded
Ġsk immed
Ġhand writing
Ġsun sh
Ġsun ned
Ġmo an
Ġmo ss
Ġmo les
Ġmo ats
Ġwater Ã¢
Ġwater proof
Ġover board
Ġqu enched
Ġqu antum
Ġen for
Ġeat ers
Ġexpl orations
Ġpick le
Ġpret z
ak ened
Ġgre ets
Ġgre asy
Ġneed Ã¢
Ġfo e
Ġfo l
Ġfo amed
ĠMia Ã¢
Ġsn oot
uc ting
Ġlove lier
ĠC re
ĠC om
ĠC and
ĠC ool
ĠC ather
ĠC up
ĠC aw
ĠC utting
ĠC elebr
Ġim men
em s
em ergen
Ġcle ars
Ġad amant
Ġbest est
Ġgr oo
Ġgr ater
Ġgr itty
Ġbra ss
Ġbra vo
pt ion
Ġche ater
Ġcu bby
Ġgl ade
Ġgl uing
Ġgl ares
Ġhard work
ct ure
sh ot
sh ut
sh old
Ġcol umn
Ġunder grow
Ġrem oves
Åĵ J
Åĵ L
Åĵ O
Åĵ U
Åĵ These
Åĵ Ready
Åĵ Goodbye
Åĵ Sometimes
Åĵ Yeah
Åĵ Then
Åĵ Great
Åĵ the
Åĵ Our
Åĵ Johnny
Åĵ Yummy
Åĵ Sue
Åĵ Very
Åĵ Quick
Åĵ what
Åĵ Honey
Åĵ Hold
Åĵ Someone
Åĵ look
Åĵ why
Åĵ Susie
Åĵ Jump
Åĵ hi
Åĵ Toby
Åĵ Ooh
Åĵ Nothing
Åĵ this
Åĵ Eat
Åĵ Glad
Åĵ Mmmm
Åĵ Yep
Åĵ hot
Åĵ Show
Åĵ big
Åĵ Stand
Ġsafe Ã¢
ĠP ie
ĠP ull
ĠP ower
ĠP itch
ĠP ush
ĠP oof
ĠP ray
ĠP arents
be an
be es
be ans
be ats
Ġred dest
Ġsu sie
ĠLucy s
Ġdoll op
Ġshare r
Ġdra ining
Ġcon cl
Ġcon vey
Ġcon fuse
Ġground hog
Ġreal ization
Ġwind ier
Ġwind mill
ĠG ull
ĠG row
ĠG ames
ĠG ET
ĠG uns
Ġcre aky
Ġide al
Ġfr ay
Ġfr ills
Ġfr antically
Ġfar ming
Ġey ed
Ġclimb ers
Ġbed post
Ġbed spread
Ġun be
Ġun icy
Ġun af
Ġun ple
Ġun its
Ġun made
Ġun iqu
Ġwr ung
What ever
Ġadventure r
ĠN orm
ĠN ails
ĠN ectar
ac ado
ĠSp read
ĠSp ending
ĠSp elling
Ġtra cing
ĠR ings
ĠR ep
ĠR ather
ĠR hinoceros
ĠR elie
ĠR azors
Ġtow ing
Ġtow ered
Ġquick ened
Ġquick ness
Ġenjoy ment
Ġdis comfort
Ġdis heart
Ġapp arently
Ġfish Ã¢
Ġwork out
Ġvo id
Ġvo ila
Ġboat man
Ġhead set
Ġhead light
gan ize
Ġplace Ã¢
Ġru ling
Ġru bble
Ġde br
Ġde vel
Ġde leted
ĠSpot Ã¢
ĠSpot ty
Ġar c
Ġar ched
Ġar ts
We ar
We igh
We ee
Ġhigh light
ount ed
Ġye arned
Ġsqu ashed
Ġsqu int
Ġsqu ashing
Ġsqu iggly
Ġsqu iggles
ĠTh us
ĠTh inking
ĠTh rilled
Ġam end
Ġbel ch
Ġbutter cups
Ġfell a
ull s
Ġz apping
Ġsweet y
Ġdr unk
Ġsand al
Ġsand paper
Ġsand bag
ĠIn sp
ĠIn credible
Ġdraw bridge
Ġcra fty
Ġcr ime
Ġcr ater
Ġcr umbled
Ġcr ouch
Ġcr anes
Ġcr iminal
Ġrest ful
Ġrest room
Ġrest oration
Ġba le
Ġtri bes
Ġsoft en
ĠLila Ã¢
Ġtired ly
Ġduck ing
ign ed
Ġcatch y
Ġpond s
Ġfro sty
Ġfro licked
Ġpart ing
Ġbunny Ã¢
Ġdri er
Ġdri est
Ġdri zzle
Ġcool ing
Ġlesson Ã¢
Ġswim mies
Ġhold er
Tom ato
rel ax
rel iable
Ġsleep ier
Ġread ers
Ġdream Ã¢
Ġdark en
Ġdark ened
Ġmouse Ã¢
Ġstre ss
Ġstre amed
Ġbow ling
Ġwood land
Ġwood pile
Ġslow ing
ĠEm barra
Ġsho pped
Ġwrong ed
Ġair y
Ġair ship
ul ted
ul fed
Ġcontin ues
Ġhun ched
Ġrel ied
Ġrel ented
Ġbuild s
Ġarm ies
Ġmight ier
ĠTo ss
ĠTo ast
Ġdelicious ly
Ġtight ening
Ġcount less
ĠThere Ã¢
ĠGra b
Ġgent leness
sp ecial
sp ital
sp oil
sp irited
ĠJim Ã¢
Ġwall ets
Ġwall paper
Ġpink er
Ġcomp ress
Ġcomp arison
Ġcomp artments
Ġmus cular
ash ion
app er
app iness
ced ure
Ġpi ecing
Ġpi qued
Ġmet allic
ere stimate
Ġperfect ion
Ġmakes hift
ee ase
ee ze
Ġspl ish
rot ect
Ġpuppy Ã¢
der n
Ġthre shold
Ġmusic als
ĠJill Ã¢
ĠFl ame
ĠFl ower
os er
os hing
os ition
amp s
ang ers
Ġlake Ã¢
Ġpat ching
Ġpat rol
Ġem bark
Ġgrateful ness
Ġblank ie
sw ing
sw eet
ret s
Ġsnack ing
Ġbar gain
Ġacc using
Ġacc used
Ġpro sp
Ġpro fit
Ġpro gre
Ġpro claimed
Ġpro cedure
Ġsign ature
Ġsign alled
Ġquiet ness
Ġblack out
ol t
Ġtrain ers
Ġatt aches
Ġatt ended
Ġatt ending
Ġmust y
Ġtower ing
Ġpass erby
Ġspr ite
Ġspr int
Ġteac ups
Ġheart ed
br own
Ġcoll abor
Ġpers im
Ġschool bag
Ġsmo ldering
de ad
ĠWh ales
ĠWh ooo
ĠWh ilst
Ġcour ti
Ġadventures ome
ĠTw itch
Ġgentle st
Ġstar ving
Ġstar ling
Ġstar light
Ġstar flower
ountain s
Ġinst alled
Ġneigh s
Ġmin imum
Ġowl Ã¢
ĠMum Ã¢
Ġsea side
Ġwar t
Ġwar ren
Ġpig Ã¢
ĠO il
ĠO ctopus
ĠO ats
ĠO bedient
Ġmail men
ail ed
Do ctor
Ġob sessed
let e
let ter
ward robe
Ġinv inc
Ġround about
Ġwhist ler
to e
to day
Tim othy
Ġmist aken
Ġgigg ly
Ġmilk y
Ġlife less
Ġinc ome
Ġear ring
Ġret reated
Ġbread s
Ġanyone Ã¢
Ġpres er
Ġpres cri
ĠJenny Ã¢
Ġspo kes
Ġsharp er
Ġhoney Ã¢
Ġpuzz ling
Ġspin ny
Ġpresent able
Ġent ry
Ġapples auce
ĠCh ild
ĠCh ange
ĠCh lo
ont roll
Ġpar ades
Ġpar adise
Ġpar agraph
Ġsur vey
Ġhon our
Ġorgan izer
Ġorgan iser
ĠRe fusing
Ġlay ers
up er
Ġwild est
Ġwild life
Ġzoo s
Ġtrip od
Ġprot ein
Ġthin ning
Ġthin ned
ĠSt ore
ĠSt orm
ĠSt aring
ĠSt rawberry
Ġslid er
la w
Ġpan els
Ġser mon
Ġrec ounted
Ġval ve
unk y
unk nown
Ġwom en
Ġchocol aty
ĠLe a
ĠLe ft
ĠLe aves
ĠLe wis
Ġneighbor Ã¢
Ġlast ly
ĠBu ilding
Ġmach inery
Ġring ed
ĠBe ach
Ġhorse Ã¢
ĠPeter land
Ġant elope
Ġfold able
mo ving
Ġstep mother
Ġpaw ing
Ġspe wing
Ġcreative ly
Ġcoo ped
St an
St ep
St umbo
My a
Ġmeant ime
Ġgun shot
Ġstra ps
Ġstra nded
Ġcross ly
Ġcross walk
Ġcross bones
Ġseed ling
Ġav acado
Ġsour ly
Ġbat ted
Ġstring ing
ĠBr ightly
Ġfrustr ating
Ġburn er
Ġpir ouet
Ġcirc ular
Ġbreath less
Ġgar land
ĠZ eal
ĠZ zzzz
Ġgener ation
Ġgener ator
Ġfil med
Ġgas oline
Ġjew ellery
Ġner ves
Ġreg ardless
Ġnervous ness
Sam i
Ġshore s
Ġpay ed
Ġpri or
Ġdrum ming
Ġdrum stick
Ġfill ings
Ġexam ination
Ġgenerous ly
There sa
Ġesc alator
Ġwheel chair
Ġweak ness
Ġthankful ness
illi ant
Ġjelly beans
Ġeld est
Ġlock er
Ġlock ing
Ġtent h
Ġtent acle
Ġrid iculous
ete er
Ġbathroom s
Ġmatch stick
Ġmir acles
ĠElla Ã¢
Ġsoap ed
Ġeager ness
ĠBlue berries
Ġweek ly
Ġcher ishing
Ġfather s
Ġfather Ã¢
Ġcam oufl
Ġcost ly
Ġrare st
Ġdepend s
Ġdepend ent
Ġdepend ab
port s
Ġmeasure r
Ġmeasure ment
Ġbreakfast s
Ġapolog ies
Ġbitter ness
Ġaw ards
Ġaw estruck
Ġaw akened
ĠMar ry
ĠMar riage
Ġmarket place
Ġaccept ance
Ġjam med
Ġextra vag
Ġarg uments
Ġter ms
Be ans
fic ing
Ġfour Ã¢
Ġbarn s
Ġcompet ed
Ġdifficult ies
Ġref ill
Ġcompetit ors
Ġstubborn ly
Ġtoast ed
Ġcro c
ĠAlex Ã¢
Ġmole hill
Ġfat test
ĠMike Ã¢
Ġfresh ness
Ġchar red
Ġpow ered
Ġbump er
Ġtrump eter
Ġbounce y
ĠCl ay
ĠCl apping
ĠCl imber
ĠCl audia
ĠCl othes
ĠCl oser
ĠFr uits
Ġdull ness
Ġtooth y
Ġtooth ache
Ġcheap est
corn Ã¢
Ġer ror
Ġthunder ous
Ġthunder cl
Ġstamp Ã¢
Ġview ed
Ġdead ly
Ġing enuit
Ġsne ered
Ġdeliver s
Ġdeliver ies
Ġspeed ed
Ġpopular ity
ud ing
ud ging
Ġtap estries
Ġenv ied
Ġrubb ers
Ġdisg u
Ġgum mies
Ġghost ly
Ġsett les
Ġscoot ing
Ġeng ulfed
Ġpatch y
Ġneat est
Ġled ge
Ġsurf ed
ĠSnow fl
Ġresist ance
Re my
He idi
ĠPe bbles
ĠPe ppers
Ġrece iver
Ġrece ives
Ġrece ipt
Ġcrane Ã¢
Ġmagnet ic
Ġattract ing
Ġattract ion
Ġdestroy s
Ġsuper v
Ġsuper star
ĠSm art
ĠSm ile
ĠGrace l
ĠGrace ful
ĠMaria Ã¢
Ġtem por
ĠMillie Ã¢
Go al
Go lf
ĠTr ucky
Ġspring y
Ġshield ed
Ġreco ver
Ġsym pathy
Ġsend er
Ġmuff led
Ġimpro ves
Ġsymbol izes
Ġtrick ster
Ġjeep s
Ġrose mary
Ġjet ty
Ġten sed
ĠUn beknown
ĠUn iversity
Ġpilot Ã¢
Ġrecogn ised
ĠRu les
Ġsalt ier
Ġtear fully
Ġobser ver
Ġobser vation
Ġmodest ly
Ġsent ence
ĠSh oo
ĠSh ining
ĠSh aking
ĠSh uffle
ĠSh apey
Ġpun ches
Ġpun cture
Ġgolf ers
Ġpowder y
Ġstom ps
Ġsepar ates
Ġlaund romat
Ġtur bul
Ġtur rets
Ġappreci ative
Ġunh ook
Ġreef s
Ġiron ed
cast le
Ġspir als
Ġsle ek
Ġped estri
Ġdisturb ances
Ġspeak ers
ĠAb raham
Ġinf l
Ġinf ected
Ġinf lexible
play ing
Ġcrow ds
aulif riend
Ġbubble bath
Ġpress ure
Ġfactor ies
Ġbuzz ard
Ġscrew ed
Ġsneak ily
Ġmen acing
Ġrag ing
ĠBun nies
Ġshelter s
Ġbul ky
Jim mie
Ġweep ed
Ġweep er
ĠPap er
Ġgym n
ĠHenry Ã¢
Ġviolin ist
Ġreve als
ÅĵYou ng
Ġstraight ened
Ġrot ating
Ġoffer ings
Ġtwink les
Ġcell ar
Ġtax is
ĠCo vering
Ġinfant s
Ġloop y
Ġworth while
ĠMiss iles
Ġaut hent
Ġprepare s
Ġpra ising
Ġvac ations
Ġdisappear ance
Ġmattress es
ĠSteve Ã¢
Ġfreez es
Ġrequ ire
Ġfauc ets
Ġinvestig ating
Ġcob ra
And rew
Ġsque aking
Ġpur suit
ĠLuck ly
Ġsuff oc
Ġmusician Ã¢
Ġcliff s
Ġbalan cer
Ġclaw ed
Ġyogurt s
ĠKatie Ã¢
Ġflutter s
Ġlaught ed
Ġconf essed
ĠOr ganize
Ġfest ive
Ġlabel ed
Ġport ion
Ġprop elling
Ġappear ances
Ġsub sided
ĠMe at
ah h
ĠV et
ĠV ill
ĠV alley
ĠV egetable
Ġres ilience
Ġres igned
Ġres ulted
To gether
Ġhesit ating
Ġgust s
ĠAnne Ã¢
Ġshampoo s
Qu iet
Ġsew er
Ġlecture r
act ly
act us
ĠMat ch
ĠMat ching
Ġmass aged
Ġashtray s
ĠFro gs
Ġdisagre es
ĠGre ed
Ġeffort lessly
Sp ell
Sp ace
Sp aghetti
ĠAn gry
Ġpeel er
Ġwond e
Ġflav oring
Ġspaces uits
Ġrhy med
Ġfashion ed
Al ma
Al bert
Al gae
Sh ut
Sh rimp
Sh arp
Ġhurric anes
Ġrang ers
ĠFor give
ĠFor giving
Ġpupp eteer
ĠPr oudly
ĠPr operty
Or iginal
Ġbare foot
Ġkeeps ake
ĠGr own
ĠGr ateful
Ġune arthed
uxu ry
Ġcontest ants
Ġluxu ries
Ġweb cam
Ġexit s
Ex plain
Ex actly
Gra pe
Ġ1 1
Ġ1 3
thank s
Ġunexpected ly
Ġboo ked
Ġboo ster
Ġda bbing
Ġscra ping
Ġflat ten
Ġvict or
Ġseason ing
Ġdeser ts
Ġstair way
ĠMon ica
ĠAbbie Ã¢
Ġchat ty
go al
go ers
Ġtractor s
ĠEx hib
Ġspike y
Ġchuck les
ĠPl anes
Ro ver
Ro ger
Ro bert
ĠOwl s
ĠLou isa
hello Ã¢
ĠSpark s
ĠSpark ly
fl ops
Ġaff ection
ĠJu an
Gre g
Ġpiggy bank
ĠPo ppies
ĠY ear
Ch loe
ĠMil dy
Just ice
Ġrip en
ĠLizzie Ã¢
ĠBess y
Ġdeal ing
Ġtipt oe
Ġwarrior Ã¢
Ġleap s
Ġunf reeze
Ġartist ic
ĠSpl at
ĠSpl ashing
Ġfeast s
Ġdef ended
Ġburst s
Ġdirect ed
ĠEarth quake
Ġhandful s
Ġchop stick
Ġgrandp apa
Ġfears ome
Ġstarfish Ã¢
ĠThanks giving
Ġexperien cing
no Ã¢
Ġconsequ ence
ĠLi brary
Ġreass urance
Shh h
Ġattack ing
ĠStay ing
ĠKeep ing
?' ,
Ġmaster ing
ĠGina Ã¢
Ġmagician s
ĠRemember ing
Ġamount s
Ġmer cy
Ġmer rier
ĠBo ats
ĠUnder water
Ġrespond ing
Ġcommun icated
ĠRain y
Ġ2 5
Ġdet ached
ĠSun light
Ġnood le
Ġjugg ler
Ġjugg lers
Ġbeeh ives
Ġsadd ened
ĠMo ving
ĠMo vie
Ġreason able
Ġdefe ating
Ġscamp ering
ĠSquirrel s
bro ker
str uck
ĠFire man
Le opards
cl uck
Ġwrink le
Ġwrink ling
ĠUp set
Ġgrandson Ã¢
Ġshoo es
Ġanticip ate
whe els
ĠSw ift
ĠLove ly
ĠAny one
Ġslither s
Ġslither y
ĠMother Ã¢
Ġposit ivity
Ġtweet s
Ġincreasing ly
Ġtoss es
Ġev apor
Ġund id
Ġund ressed
Ġund erestimate
Ġwrigg les
Ġdrown ing
ĠPatty Ã¢
Ġmembers hip
Ġpound ed
Ġoppos ition
ĠSl iding
Ġtrans plant
Ġdesper ation
Wh ooo
Wh oosh
ĠSleep ing
Ġsav ory
Ġank les
Ġdistract ing
So fis
ori al
Ġloc ate
Ġscrub s
Ġwealth ier
Ġcocoon s
ew w
ew ing
Ġdecl ined
Ġcollap ses
Quick ly
Ġting ed
Ġgroom ed
Ġform ation
Ġcaw s
Ġtroubles ome
Any one
Any body
Ġsill ier
Ġdump s
Ġshall ower
Ġstethos copes
An imals
Ġscri bbling
Ġstrum s
ÅĵWho Ã¢
ĠPen guin
val uable
Ġbound ing
Ġshin ning
ĠAr chie
Ġaware ness
Tw in
Ġsens ors
ĠAng el
ctric ity
sol ved
Ġbattle field
His ss
Ġfaith fully
Ġswat ting
ĠCD s
Ġattempt ed
Ġwhisk ered
Ġelectric al
Ġexpert ly
Ġinvent ed
Ġinvent ive
ĠWoo o
Ġdiso beying
Ġbaa ing
ĠOff er
Ġpleas antly
Ġconcentr ating
Ġfet ching
Ġlim o
Ġlim it
Ġclut ch
ĠDra wing
aus ages
Ġunco vering
Ġcooper ating
Ġgallop ing
Ġoverwhel ming
Mar ie
ĠWas hing
Ġprank s
Ġhoot ing
Tweet ie
ĠSweet ie
Ġhaven Ã¢
Ġthump ed
Ġroo st
Ġroo ft
Ġwhimp ers
Hmm m
Never mind
Tr uth
Ġlull abies
Ġnarrow ed
Ġchains aw
Ġsincere ly
gre at
Ġpeak s
Ġench anting
Ġgrump ily
Ġgrump iest
Ġgulp s
ĠVo ice
Ġcondition er
Ho spital
gr own
Ġadop ting
Ġgrassho ppers
Ġerupt ing
ĠRaven s
che ap
che ers
Â© ,
Ġtink led
Ġtink ering
Ġreckless ly
Ġass umed
Ġbold er
Ġopt imistic
ĠCr ook
ĠCr ane
ĠCr unch
Ġforeshadow s
Ġconstr uct
Ġconstr ucting
Ġcreep ing
ĠRuss ia
Che ss
Che ap
Che erful
Ġdrill s
ĠDoctor s
ĠOver all
Ġconnect ing
Ġconnect ions
ĠWinnie Ã¢
Ġconsider ing
Ġconsider ation
Ġtantrum s
cat ching
ĠTurn ing
Ġgad get
Ġroyal ty
ÅĵS ir
ÅĵS ail
ĠBeatrice Ã¢
Ġpossib ility
Ġmur mur
Ġplum met
ĠAmaz ing
ĠElephant s
Ġfluff iest
Ġchunk y
ÅĵW ant
ÅĵW inter
Ġdisob edience
Ġfuss y
ĠCarrot s
Ġgrandparent Ã¢
Ad opt
Ġpurch ased
Ġrejo icing
ĠAf raid
ĠGen erous
Ġworkshe ets
Bl ack
Bl ub
Im agining
Ġah h
Ġgle amed
Ġneg le
ĠFly ing
Ġbud ging
Ġsunb urnt
Ġgloom iness
ĠKind ergarten
ĠBlack y
ĠBlack ie
hearted ness
Ġsomersaul t
Ann e
Ġshuff le
Ġkill ing
Ġscan ning
Ġscan ner
Ġscree chy
Ġmold y
Ġstead ied
Ġclums ier
Car ly
Car ol
Car rie
Car rots
Ġsizz led
ĠMac Ã¢
Ġjer ked
Ġsphere s
ĠButter i
ĠDel aying
Ġadv ise
ÅĵC le
ÅĵC ongratulations
ĠPass ing
ĠPass ports
Ġsund own
ĠIna Ã¢
Ġsplinter s
Ġdiv ide
ÅĵIs nÃ¢
ĠMusic ian
Ġsuspicious ly
Dra ke
Su zy
Un ite
Un ique
Un freeze
pow ered
ĠHigh ness
ĠFle as
Ġsorrow ful
ÅĵP eople
ÅĵP apa
Ġconst ant
ĠGe ese
Ġponyt ails
Ġarrange ment
ĠLyla Ã¢
Bu y
Bu zzy
Del iver
Kim my
Li am
Sw ans
Sw inging
Ġident ical
Ġtroll ey
omp lete
Ġunn oticed
Ġlif elong
Ġspect acle
Ġfaire st
ĠPer fect
ĠPast els
Ġtriumph ant
Ġtriumph antly
Ġshove led
ĠWhist ler
Ġimagin able
ĠBlow ing
Ġfestiv ities
Din osaur
Meet ing
Sc ott
Woo ow
des erved
Ġcy cle
Ġmow ing
Ġgri pped
Ġcoz ied
Ġcoz iest
Ġflaming os
ĠPig s
Ġunb elie
Ġpedd ling
ĠExpl ore
Ġdoub ted
Sweet heart
gra ndmother
Ġdun ked
Ġsauc es
Ġinqu ired
ĠLaw yers
Ġstump s
Ġko ala
Ġresol ve
Ġblind s
Ġstray ed
Ġadjust ing
Ġadvert ising
Ġglac iers
ĠGu ards
Ġdisp osition
Ġguilt ily
Ġpawn s
Ġpawn broker
Ġobvious ly
Ġmilksh ake
Ġviol ent
Ġviol ence
Ġfidget ed
Ab solutely
ES T
Sm art
Sm ile
Was n
Ġtit les
Ġtad pole
Ġtang les
Ġdut ies
ĠSe agull
ĠSe uss
ĠHome work
ĠBal ance
ĠBark y
Ġassist ance
Ġcla imed
Ġchom ping
Ġvig ilant
Ġintimid ated
Ġsket ching
Ġquiver ing
ĠPro blem
ĠGhost s
Ġunc urled
Ġunc ontroll
Ġpapercl ip
Ġawkward ly
Ġphotog rapher
Ġastound ing
Ġtender ness
Ġomelet te
Cle m
Cle aning
Cook ies
Mil k
Mil o
Ol ive
Ol iver
Tre es
pop ular
yy y
rep are
Ġdu o
Ġdu rable
Ġdim med
Ġmour ning
Ġmour ned
Ġpoun cing
Ġins ides
Ġinit i
Ġinit ially
ĠLady b
ĠBE LL
ĠBes ides
ĠMc Queen
ĠMed al
Ġrearr ange
Ġrearr anged
ĠDiamond s
Ġblister ed
ĠComet s
ĠComet y
ĠGem s
Ġunp repared
Ġapply ing
ĠThrow ing
Ġcrink ly
Ġcrink led
ĠReal izing
Ġrepres ent
Ġrepres ented
Ġradi ator
Ġradi ating
Ġeducation al
Ġresourceful ness
Ġdoubt ful
Wheee e
Ġmultip ly
Ġnavig ated
Ġreception ist
Bra ve
Bra vo
Bess ie
Cra sh
Feel ing
Kay ak
Kay la
Lo ad
Lo llipop
Mu seum
RR R
Squ are
Under ground
vine gar
Ġaward ed
Ġtoll ed
inc re
Ġmasc ot
Ġmasc ara
Ġpoo rer
Ġthri ve
Ġthri ving
Ġult imate
Ġult imately
Ġrap idly
Ġplun ge
Ġplun ger
study ing
Ġweed ed
Ġshred ded
Ġbrow se
Ġcoax ed
Ġpred ators
Ġprow led
Ġprow ling
ĠFair ies
ĠFear ing
ĠFoot ball
Ġintrig ue
Ġintrig uing
Ġdread ful
shoot ing
ĠPart y
ĠParrot s
ĠGl ue
Ġeyel ids
Ġeyel ashes
Ġunhe althy
Ġunhe lpful
Ġunbl ock
Ġunbl ocked
ĠNight mare
Ġsqua bbled
Ġmarvel ous
ĠReach ing
Ġfingern ail
Ġfingern ails
Ġfres her
Ġfres hest
Ġmisunder stand
Ġmisunder stood
Ġscrap book
Whist le
Whist ling
Ġsavour ing
ĠGrandd ad
ĠGrandd aughter
Ġunbuck le
Ġunbuck led
Ġphys ics
Bir ds
Gr anny
IN K
Lau ra
Luc as
Ma ia
Mo les
Nut ty
Pa ola
Pu ppy
Pen guin
Pri vate
Pain ting
Pipp in
Ra bbit
Rem ove
Set o
Sand ra
Spid ers
Tri angle
power ful
somet imes
van illa
Ġut most
Ġiv y
Ġaver age
Ġwed dings
Ġwagg led
resp ect
Ġling ered
ĠTherm ometer
Ġgur gling
ĠSur fing
ĠSto ve
Ġsacri ficing
Ġhaz ardous
ĠHand some
Ġinev itable
ĠLad der
Ġrins es
Ġasse mble
Ġbackst age
Ġclamp ed
Ġaler ted
Ġbray ed
Ġtread mill
ĠEle ven
Ġflu ently
Ġchurn ing
Ġprec ise
Ġholl ering
Ġhoard ing
aunt ed
Ġtrink ets
Ġstrate gy
Ġcomment ed
Ġsnarl s
Ġsnorke l
Ġuntwist ed
ĠCricket s
Ġimm ense
Ġdonut s
ÅĵMmm mm
ÅĵSp rite
Åĵokay Ã¢
ĠPret ending
Ġimpul ses
Ġsul ked
Ġconco ction
Ġunra vel
Ġambit ions
Ġkidn apped
Ġrelig ions
Ġmetho d
Ġemploy ee
Ġprogr am
Ġcolle ge
ĠStre ngth
Stret ch
Ġfragr ant
Ġmemor ize
Ġsympathet ically
ĠShort ly
Ġbetray ed
ĠCollect ing
Ġportra it
flav ored
Ġdeliber ation
Ġreflect ive
Ġinteract ing
Ġprivile ge
Ġmelod ious
Att ach
Ġpester ed
Ġnickn amed
Ġinscri ption
Ġdisintegr ate
Ġprofession al
Ang ie
Bo bbie
Bar ber
Cher ries
Cup cakes
Diamond s
Er nie
Far mer
Fel ix
Fur ball
Gu ys
Hats ch
Lad ies
Mir ror
Ps st
Pray ing
Pige on
Pillow s
ST OP
SCRE AM
Ton ight
Wah oo
Zzz zzz
cray on
dra gon
fo llow
fro g
jump ing
lim its
mag ic
need ed
sur render
suff er
weal thy
Ġou chie
Ġoun ces
Ġtens ion
Ġtuss led
Ġscept ical
Ġsoooo oo
Ġwil ting
Ġbish op
Ġhust led
Ġfitt est
Ġfert ilizer
ĠTer rified
ĠTam mi
ĠTent atively
Ġlyric s
Ġcack led
Ġcic ada
Ġcinnam on
Ġdow ntown
Ġdaffod il
Ġheirl oom
Ġmim ic
Ġwasteb in
ĠSec ond
ĠSway ing
ĠSail ors
ĠSHR INK
ĠHeal er
Ġinject ion
Ġrand omly
Ġplast ered
ĠBugg ly
ĠBorrow ing
Ġplaygr oup
ĠMem ory
ĠAbo ve
Ġseash ore
independ ent
Ġspac ious
Ġsplend id
Ġclipp ers
Ġscattter ing
Ġmantelp iece
Ġbront osaurus
Ġmement o
Ġaggress ive
Ġcobb ler
ĠFau cet
ĠField s
ĠFeed ing
Ġexcus es
ĠDeterm ined
Ġmystic al
Ġponder ing
Ġsketch book
Ġsnoot y
ĠCather ine
ĠCup board
ĠCelebr ating
Ġimmen sely
emergen cy
Ġcolumn s
Ġundergrow th
Åĵwhat Ã¢
Ġconvey or
ĠGull iver
Ġunicy cle
Ġunaf raid
Ġunple as
ĠNorm al
ĠRelie ved
Ġdisheart ened
Ġheadlight s
Ġdebr is
Ġdevel oped
Ġsandbag s
ĠInsp ired
ĠEmbarra ssed
Ġprofit s
Ġprogre ssed
Ġcollabor ation
Ġcourti ers
wardrobe Ã¢
Ġinvinc ible
Ġprescri bed
ĠChlo Ãĥ
Ġsurvey ed
ĠZeal and
Ġdependab ility
Ġthundercl ap
Ġingenuit y
ĠSnowfl ake
Ġtempor ary
ĠUnbeknown st
Ġturbul ent
Ġauthent ic
ĠVegetable s
ĠExhib it
Sofis hticated
Ġuncontroll ably
