{"<s>":0,"<pad>":1,"</s>":2,"<unk>":3,"<mask>":4,"!":5,"\"":6,"#":7,"$":8,"%":9,"&":10,"'":11,"(":12,")":13,"*":14,"+":15,",":16,"-":17,".":18,"/":19,"0":20,"1":21,"2":22,"3":23,"4":24,"5":25,"6":26,"7":27,"8":28,"9":29,":":30,";":31,"<":32,"=":33,">":34,"?":35,"@":36,"A":37,"B":38,"C":39,"D":40,"E":41,"F":42,"G":43,"H":44,"I":45,"J":46,"K":47,"L":48,"M":49,"N":50,"O":51,"P":52,"Q":53,"R":54,"S":55,"T":56,"U":57,"V":58,"W":59,"X":60,"Y":61,"Z":62,"[":63,"\\":64,"]":65,"^":66,"_":67,"`":68,"a":69,"b":70,"c":71,"d":72,"e":73,"f":74,"g":75,"h":76,"i":77,"j":78,"k":79,"l":80,"m":81,"n":82,"o":83,"p":84,"q":85,"r":86,"s":87,"t":88,"u":89,"v":90,"w":91,"x":92,"y":93,"z":94,"{":95,"|":96,"}":97,"~":98,"¡":99,"¢":100,"£":101,"¤":102,"¥":103,"¦":104,"§":105,"¨":106,"©":107,"ª":108,"«":109,"¬":110,"®":111,"¯":112,"°":113,"±":114,"²":115,"³":116,"´":117,"µ":118,"¶":119,"·":120,"¸":121,"¹":122,"º":123,"»":124,"¼":125,"½":126,"¾":127,"¿":128,"À":129,"Á":130,"Â":131,"Ã":132,"Ä":133,"Å":134,"Æ":135,"Ç":136,"È":137,"É":138,"Ê":139,"Ë":140,"Ì":141,"Í":142,"Î":143,"Ï":144,"Ð":145,"Ñ":146,"Ò":147,"Ó":148,"Ô":149,"Õ":150,"Ö":151,"×":152,"Ø":153,"Ù":154,"Ú":155,"Û":156,"Ü":157,"Ý":158,"Þ":159,"ß":160,"à":161,"á":162,"â":163,"ã":164,"ä":165,"å":166,"æ":167,"ç":168,"è":169,"é":170,"ê":171,"ë":172,"ì":173,"í":174,"î":175,"ï":176,"ð":177,"ñ":178,"ò":179,"ó":180,"ô":181,"õ":182,"ö":183,"÷":184,"ø":185,"ù":186,"ú":187,"û":188,"ü":189,"ý":190,"þ":191,"ÿ":192,"Ā":193,"ā":194,"Ă":195,"ă":196,"Ą":197,"ą":198,"Ć":199,"ć":200,"Ĉ":201,"ĉ":202,"Ċ":203,"ċ":204,"Č":205,"č":206,"Ď":207,"ď":208,"Đ":209,"đ":210,"Ē":211,"ē":212,"Ĕ":213,"ĕ":214,"Ė":215,"ė":216,"Ę":217,"ę":218,"Ě":219,"ě":220,"Ĝ":221,"ĝ":222,"Ğ":223,"ğ":224,"Ġ":225,"ġ":226,"Ģ":227,"ģ":228,"Ĥ":229,"ĥ":230,"Ħ":231,"ħ":232,"Ĩ":233,"ĩ":234,"Ī":235,"ī":236,"Ĭ":237,"ĭ":238,"Į":239,"į":240,"İ":241,"ı":242,"Ĳ":243,"ĳ":244,"Ĵ":245,"ĵ":246,"Ķ":247,"ķ":248,"ĸ":249,"Ĺ":250,"ĺ":251,"Ļ":252,"ļ":253,"Ľ":254,"ľ":255,"Ŀ":256,"ŀ":257,"Ł":258,"ł":259,"Ń":260,"he":261,"Ġt":262,"Ġa":263,"Ġs":264,"Ġw":265,"nd":266,"Ġthe":267,"ed":268,"Ġand":269,"Ġto":270,"Ġb":271,"in":272,"Ġh":273,"Ġwa":274,"re":275,"Ġf":276,"ou":277,"it":278,"ĠT":279,"Ġl":280,"Ġc":281,"Ġd":282,"er":283,"Ġhe":284,"Ġm":285,"Ġp":286,"Ġwas":287,"om":288,"Ġo":289,"ay":290,"ĠThe":291,"ar":292,"is":293,"ing":294,"il":295,"Ġg":296,"id":297,"ĠS":298,"at":299,"en":300,"Ġn":301,"Ġsa":302,"Ġha":303,"an":304,"im":305,"or":306,"on":307,"Ġit":308,"ĠH":309,"Ġth":310,"ll":311,"le":312,"Ġ\"":313,"Ġher":314,"ĠShe":315,"ot":316,"et":317,"ir":318,"ĠHe":319,"ĠThey":320,"es":321,"Ġin":322,"ver":323,"ut":324,"ow":325,"ck":326,"ĠL":327,"Ġe":328,"Ġu":329,"ld":330,"ily":331,"Ġy":332,"oo":333,"Ġsaid":334,"ig":335,"Ġr":336,"am":337,"Ġbe":338,"Ġst":339,"ĠI":340,"ce":341,"Ġshe":342,"ke":343,"pp":344,"ith":345,"ve":346,"Ġwith":347,"On":348,"ĠLily":349,"Ġon":350,"Ġof":351,"ri":352,"ked":353,"Ġhis":354,"Ġyou":355,"Ġpl":356,"Ġso":357,"nt":358,"very":359,"ad":360,"Ġday":361,"ĠB":362,"Ġthat":363,"Ġup":364,"Ġplay":365,"Ġhad":366,"Ġthey":367,"st":368,"Ġwe":369,"Ġmom":370,"Ġfor":371,"el":372,"my":373,"ould":374,"un":375,"ĠM":376,"'s":377,"Ġli":378,"Ġhapp":379,"ch":380,"ent":381,"itt":382,"Ġwant":383,"her":384,"Ġsh":385,"out":386,"Ġdo":387,"Ġnot":388,"Ġvery":389,"ome":390,"ly":391,"all":392,"ound":393,"end":394,"ittle":395,"ime":396,"se":397,"Ġwh":398,"Ġk":399,"Ġlittle":400,"Ġtime":401,"Ġthere":402,"al":403,"Ġne":404,"ht":405,"Ġhappy":406,"Ġbig":407,"Ġre":408,"ĠA":409,"ĠIt":410,"Ġis":411,"Ġsm":412,"Ġbut":413,"ĠĠ":414,"ra":415,"Ġsaw":416,"riend":417,"Ġfriend":418,"Ġan":419,"ry":420,"Ġas":421,"ack":422,".\"":423,"One":424,"ide":425,"ĠTim":426,"ake":427,"'t":428,"ved":429,"ter":430,"ug":431,"Once":432,"Ġlo":433,"Ġloo":434,"Ġwere":435,"ĠOne":436,"ore":437,"!\"":438,"ec":439,"Ġhim":440,"Ġbo":441,"Ġtoo":442,"Ġse":443,"Ġgo":444,"ĠJ":445,"irl":446,"Ġupon":447,"Ġwanted":448,"Ġj":449,"ard":450,"Ġgirl":451,"ill":452,"Ġare":453,"Ġthem":454,"Ġout":455,"Ġat":456,"Ġtheir":457,"ind":458,"Ġsp":459,"way":460,"fu":461,"Ġdid":462,"ur":463,"Ġcould":464,"hen":465,"ĠBen":466,"Ġsmil":467,"ain":468,"ĠTom":469,"Ġhave":470,"art":471,"Ġwent":472,"hed":473,"Ġex":474,"rom":475,"ic":476,"round":477,"lp":478,"ĠW":479,"Ġnam":480,"Ġcan":481,"ful":482,"Ġfriends":483,"hing":484,"Ġhelp":485,"ĠBut":486,"Ġkn":487,"Ġall":488,"ood":489,"ight":490,"?\"":491,"um":492,"ĠTimmy":493,"ark":494,"one":495,"Ġback":496,"Ġfun":497,"Ġcl":498,"are":499,"Ġsay":500,"Ġle":501,"You":502,"Ġnamed":503,"Ġno":504,"Ġloved":505,"op":506,"elt":507,"oug":508,"Ġal":509,"Ġsc":510,"side":511,"Ġfelt":512,"Ġtoy":513,"ick":514,"Ġsmiled":515,"Ġman":516,"Ġfe":517,"Ġasked":518,"Ġsee":519,"ame":520,"Ġlooked":521,"Ġlike":522,"Ġaround":523,"Ġsome":524,"omet":525,"ure":526,"Ġro":527,"Ġboy":528,"Ġbr":529,"get":530,"Ġwould":531,"Ġme":532,"Ġbir":533,"ong":534,"ice":535,"Ġstart":536,"ss":537,"Ġsomet":538,"Ġbird":539,"ings":540,"Ġfa":541,"Ġwor":542,"Ġag":543,"ade":544,"Ġmake":545,"Ġwhat":546,"Ġtre":547,"dd":548,"king":549,"gether":550,"own":551,"Ġaway":552,"Ġran":553,"ag":554,"Ġstarted":555,",\"":556,"ĠYou":557,"oud":558,"Ġmade":559,"ared":560,"ie":561,"Ġtogether":562,"Ã¢":563,"âĤ":564,"âĤ¬":565,"ĠMom":566,"Ġco":567,"Ġsays":568,"Ġpark":569,"Ġsomething":570,"if":571,"Ġcar":572,"ther":573,"ited":574,"Ġsad":575,"Ġput":576,"Ġnew":577,"Ġother":578,"Ġpr":579,"ĠE":580,"ĠF":581,"ble":582,"Ġagain":583,"Ġfrom":584,"Ġexc":585,"Ġhug":586,"Ġmu":587,"Ġhome":588,"Ġla":589,"ell":590,"Ġwhen":591,"Ġwho":592,"ook":593,"Ġgood":594,"est":595,"ried":596,"Ġfound":597,"Ġthen":598,"ach":599,"ep":600,"Ġdec":601,"Ġfl":602,"pped":603,"Ġch":604,"as":605,"Ġplaying":606,"ought":607,"Ġwal":608,"Ġget":609,"qu":610,"ally":611,"hat":612,"Ġthings":613,"Ġsw":614,"uck":615,"Ġgot":616,"pl":617,"ous":618,"Ġliked":619,"nn":620,"Ġevery":621,"Ġdecid":622,"Ġexcited":623,"ave":624,"ĠD":625,"ĠSu":626,"Ġdecided":627,"ro":628,"Ġcame":629,"ax":630,"Ġbl":631,"Ġbec":632,"Ġdown":633,"Ġyour":634,"ĠSam":635,"Ġfind":636,"Ġcare":637,"Ġdog":638,"ust":639,"Ġscared":640,"Ġone":641,"Ġfeel":642,"Ġv":643,"Ġthan":644,"ist":645,"ouse":646,"ny":647,"Ġdad":648,"ap":649,"Ġab":650,"arn":651,"ara":652,"ways":653,"Ġdidn":654,"nna":655,"Ġgra":656,"Ġmy":657,"ĠMax":658,"Ġalways":659,"ant":660,"Ġtook":661,"ers":662,"Ġke":663,"Ġmommy":664,"ess":665,"fe":666,"Ġabout":667,"our":668,"Ġlot":669,"Ġtoys":670,"Ġtree":671,"Ġpo":672,"Ġkne":673,"Ġball":674,"Ġlook":675,"Ġwill":676,"nder":677,"Ġoutside":678,"ite":679,"ĠSo":680,"Ġthought":681,"eci":682,"Ġbu":683,"ened":684,"Ġta":685,"Ġlearn":686,"bb":687,"ise":688,"ched":689,"ĠWhen":690,"Ġmore":691,"Ġpre":692,"Ġknow":693,"Ġho":694,"Ġint":695,"Ġpu":696,"ged":697,"ĠAnna":698,"ecial":699,"Ġspecial":700,"Ġold":701,"Ġtake":702,"Ġsor":703,"ĠHer":704,"ĠSara":705,"Ġlaug":706,"Ġpe":707,"Ġknew":708,"au":709,"ive":710,"Ġcat":711,"ma":712,"fter":713,"Ġhow":714,"Ġany":715,"dden":716,"Ġshow":717,"Ġtr":718,"Ġmuch":719,"ia":720,"ddenly":721,"ĠEvery":722,"Ġsorry":723,"and":724,"Ġsl":725,"ink":726,"ish":727,"Ġrun":728,"Ġhouse":729,"Ġtw":730,"ven":731,"ĠJo":732,"Ġtold":733,"Ġor":734,"Ġsk":735,"Ġop":736,"Ġhand":737,"ĠJack":738,"Ġsun":739,"Ġinside":740,"Ġgave":741,"Ġtried":742,"Ġmo":743,"Ġclo":744,"Ġinto":745,"here":746,"Ġwater":747,"Ġproud":748,"ank":749,"Ġcouldn":750,"Ġover":751,"Ġqu":752,"ause":753,"ate":754,"Ġnever":755,"ump":756,"ty":757,"other":758,"Ġen":759,"Ġeat":760,"Ġif":761,"ace":762,"Ġroom":763,"Ġplayed":764,"etter":765,"Ġheard":766,"ge":767,"Ġexpl":768,"ĠFrom":769,"Ġeach":770,"Ġpick":771,"Ġpret":772,"ion":773,"Ġthis":774,"by":775,"ĠWe":776,"dy":777,"ak":778,"Ġbecause":779,"ĠSuddenly":780,"Ġhugged":781,"Ġstr":782,"Ġcom":783,"Ġwat":784,"Ġgre":785,"Ġbox":786,"ĠThen":787,"Ġjust":788,"Ġnice":789,"ile":790,"oth":791,"ue":792,"Ġneed":793,"ĠHis":794,"iz":795,"Ġjo":796,"Ġoff":797,"Ġmany":798,"Ġlong":799,"ĠAnd":800,"Ġbear":801,"Ġsmall":802,"Ġfo":803,"sed":804,"ĠMia":805,"ving":806,"Ġsn":807,"ough":808,"Ġlearned":809,"'m":810,"ort":811,"ine":812,"Ġunt":813,"uc":814,"imal":815,"Ġanimal":816,"gry":817,"Ġtry":818,"Ġbetter":819,"ild":820,"sel":821,"Ġuntil":822,"Ġlove":823,"urt":824,"ft":825,"ĠC":826,"Ġim":827,"em":828,"Ġdre":829,"Ġend":830,"Ġkind":831,"Ġcall":832,"Ġcle":833,"ber":834,"Ġflow":835,"Ġad":836,"Ġbest":837,"urn":838,"vent":839,"aut":840,"ars":841,"Ġfi":842,"ady":843,"Ġcareful":844,"Ġsky":845,"Ġfast":846,"Ġgr":847,"ves":848,"Ġthanked":849,"Ġeven":850,"Ġbeaut":851,"Yes":852,"Ġbra":853,"urp":854,"arden":855,"Ġgarden":856,"Ġdon":857,"pt":858,"lly":859,"Ġche":860,"Ġcu":861,"Ġte":862,"Ġby":863,"self":864,"Ġlots":865,"ies":866,"iny":867,"Ġgl":868,"Ġloud":869,"Ġlaughed":870,"Ġfam":871,"Ġjump":872,"ase":873,"ĠÃ¢":874,"Ġbeauti":875,"lew":876,"Ġlist":877,"Ġstill":878,"wn":879,"Ġbeautiful":880,"Th":881,"rm":882,"Ġhard":883,"Ġway":884,"Ġcome":885,"Ġhurt":886,"Ġwo":887,"Ġanimals":888,"ct":889,"Ġra":890,"sh":891,"ast":892,"hes":893,"Ġcol":894,"Ġunder":895,"Ġrem":896,"Åĵ":897,"ning":898,"Ġsafe":899,"Ġstay":900,"ect":901,"ĠAs":902,"ĠP":903,"be":904,"Ġlet":905,"Ġlived":906,"Ġboth":907,"ool":908,"ĠAfter":909,"ople":910,"Ġimp":911,"Ġbrave":912,"Ġfamily":913,"Ġits":914,"kay":915,"Ġbad":916,"ob":917,"Ġdan":918,"Ġred":919,"Ġstor":920,"ished":921,"Ġbook":922,"ane":923,"Ġtwo":924,"Ġfin":925,"ree":926,"Ġpeople":927,"Ġsu":928,"ucy":929,"Ġshould":930,"urpr":931,"ock":932,"Ġcalled":933,"Ġflew":934,"Ġfly":935,"It":936,"Ġpic":937,"ĠLucy":938,"igh":939,"Ġwalked":940,"Ġsurpr":941,"Ġangry":942,"Ġsoon":943,"Ġfore":944,"Ġdoll":945,"xt":946,"led":947,"Ġkept":948,"Ġclean":949,"Ġshare":950,"fore":951,"ised":952,"Ġrock":953,"Ġpretty":954,"No":955,"ĠJoh":956,"Ġdra":957,"Ġgoing":958,"ip":959,"Ġdoor":960,"Let":961,"Ġcon":962,"Ġkeep":963,"Ġground":964,"Ġshiny":965,"Ġopened":966,"dded":967,"Ġadvent":968,"ummy":969,"Ġreal":970,"Ġnow":971,"Ġwind":972,"ĠG":973,"Ġcry":974,"illy":975,"Ġexplore":976,"age":977,"Ġcre":978,"Ġsto":979,"Ġide":980,"Ġbefore":981,"Ġnoise":982,"Ġfr":983,"Ġcolor":984,"Ġturn":985,"ary":986,"les":987,"so":988,"Ġfar":989,"ture":990,"âĤ¬â":991,"Ġalso":992,"Ġpicked":993,"Ġfeeling":994,"ied":995,"Ġwhile":996,"Ġey":997,"Ġidea":998,"imb":999,"ĠDad":1000,"Ġclimb":1001,"Ġnext":1002,"ff":1003,"thing":1004,"Ġbed":1005,"Ġun":1006,"Ġwr":1007,"oy":1008,"ĠBob":1009,"eet":1010,"Ġthr":1011,"Ġhas":1012,"What":1013,"Ġwalking":1014,"Ġsmile":1015,"Ġpicture":1016,"ger":1017,"iced":1018,"Ġtruck":1019,"Ġnodded":1020,"Ġadventure":1021,"th":1022,"ĠMommy":1023,"Ġma":1024,"aybe":1025,"ĠJohn":1026,"Ħ¢":1027,"âĤ¬âĦ¢":1028,"kes":1029,"Ġbeing":1030,"ember":1031,"ted":1032,"ĠN":1033,"Thank":1034,"ious":1035,"joy":1036,"ac":1037,"Ġclos":1038,"ting":1039,"Ġgive":1040,"ĠSp":1041,"Ġfood":1042,"Ġtra":1043,"Ġlooking":1044,"Ġwait":1045,"Ġlisten":1046,"Ġstopped":1047,"That":1048,"Ġblue":1049,"ized":1050,"ĠR":1051,"ught":1052,"Ġtow":1053,"Ġremember":1054,"Ġbre":1055,"Ġdif":1056,"Ġafter":1057,"Ġbro":1058,"Ġhands":1059,"Ġnoticed":1060,"Ġthink":1061,"maz":1062,"Ġeyes":1063,"Ġamaz":1064,"Ġdel":1065,"Ġwalk":1066,"able":1067,"Ġquick":1068,"Ġown":1069,"Ġenjoy":1070,"Ġforest":1071,"Ġdis":1072,"Ġslide":1073,"Ġgreat":1074,"Ġever":1075,"Ġshowed":1076,"Ġrepl":1077,"Ġwatch":1078,"irst":1079,"Ġstrong":1080,"Ġflowers":1081,"Ġapp":1082,"bbit":1083,"Ġeveryone":1084,"Ġimport":1085,"Ġwonder":1086,"Ġrain":1087,"Ġfish":1088,"Ġwork":1089,"llow":1090,"Lily":1091,"Ġvo":1092,"Ġac":1093,"Ġtal":1094,"Ġboat":1095,"Ġnear":1096,"Ġstick":1097,"Ġask":1098,"Ġokay":1099,"Ġhead":1100,"Ġimportant":1101,"Ġwhere":1102,"Ġshout":1103,"Ġmean":1104,"oon":1105,"ĠSue":1106,"Ġrabbit":1107,"gan":1108,"Ġright":1109,"Ġplace":1110,"Ġus":1111,"bye":1112,"Ġsound":1113,"bbed":1114,"Ġru":1115,"Ġquickly":1116,"Ġyell":1117,"Ġfollow":1118,"Ġreplied":1119,"Ġuse":1120,"Ġbright":1121,"lease":1122,"Ġwatched":1123,"Ġdress":1124,"Ġde":1125,"ĠSpot":1126,"fere":1127,"ange":1128,"Ġbecame":1129,"Ġtou":1130,"day":1131,"Ġdiffere":1132,"ath":1133,"Ġmor":1134,"ered":1135,"Ġar":1136,"co":1137,"Ġsure":1138,"ndma":1139,"Ġcake":1140,"We":1141,"Ġchild":1142,"Ġhigh":1143,"Ġcuri":1144,"Ġbeen":1145,"Ġmag":1146,"ount":1147,"Ġstore":1148,"Ġour":1149,"Ġwarm":1150,"Ġye":1151,"aught":1152,"Ġsqu":1153,"Ġhop":1154,"Ġface":1155,"Ġgoodbye":1156,"Ġforg":1157,"more":1158,"Ġdifferent":1159,"Ġanymore":1160,"ĠJane":1161,"Ġcloser":1162,"Ġdoes":1163,"ĠTh":1164,"Look":1165,"leep":1166,"ng":1167,"Ġcurious":1168,"Ġcook":1169,"Ġtell":1170,"Ġam":1171,"Ġvoice":1172,"Ġnight":1173,"itc":1174,"ila":1175,"imes":1176,"ĠSarah":1177,"Ġpain":1178,"Ġbel":1179,"ired":1180,"Ġbutter":1181,"Ġopen":1182,"ached":1183,"Ġfav":1184,"ey":1185,"ass":1186,"Ġhelped":1187,"Ġfirst":1188,"Ġfell":1189,"ull":1190,"ĠEveryone":1191,"Ġcont":1192,"Ġhappened":1193,"Ġz":1194,"Ġlea":1195,"Ġthree":1196,"Ġsees":1197,"iss":1198,"Can":1199,"Ġkitc":1200,"Ġkitchen":1201,"Ġpull":1202,"Ġfire":1203,"Ġflo":1204,"Ġbirds":1205,"Ġblock":1206,"Ġgrabbed":1207,"Ġsweet":1208,"Ġstory":1209,"Ġhere":1210,"Ġonly":1211,"Ġkid":1212,"Ġbrother":1213,"Ġdr":1214,"Ġsand":1215,"unny":1216,"Ġglad":1217,"Ġbit":1218,"Ġgrass":1219,"Ġrealized":1220,"ppy":1221,"ater":1222,"Ġjumped":1223,"ĠIn":1224,"orn":1225,"Ġbeh":1226,"Ġmon":1227,"Ġper":1228,"Mom":1229,"Ġdraw":1230,"Ġstop":1231,"Ġreached":1232,"ĠDo":1233,"Ġcra":1234,"Ġsing":1235,"ins":1236,"ĠThat":1237,"Ġhaving":1238,"Ġcr":1239,"Ġmess":1240,"zy":1241,"nts":1242,"Ġrest":1243,"Ġba":1244,"Ġthrough":1245,"Ġtri":1246,"Ġprin":1247,"air":1248,"Ġate":1249,"Ġsoft":1250,"Ġless":1251,"Ġpap":1252,"isy":1253,"Ġready":1254,"Ġyummy":1255,"where":1256,"Ġworld":1257,"'re":1258,"Ġhat":1259,"ĠLila":1260,"akes":1261,"Ġgame":1262,"Ġfix":1263,"ĠLet":1264,"Ġreally":1265,"Ġlady":1266,"Ġshouted":1267,"Ġpare":1268,"Ġfavor":1269,"Ġbegan":1270,"Ġfavorite":1271,"Ġhimself":1272,"Ġunderst":1273,"Ġcut":1274,"Ġtired":1275,"Ġmagic":1276,"Ġduck":1277,"fully":1278,"Ġpretend":1279,"ken":1280,"Ġused":1281,"Ġmum":1282,"Ġtast":1283,"ather":1284,"Ġbutterf":1285,"uff":1286,"Ġthing":1287,"Ġdone":1288,"Ġworry":1289,"Ġcoming":1290,"ign":1291,"Ġmaking":1292,"illed":1293,"Ġcatch":1294,"ĠCan":1295,"Ġkids":1296,"Ġfunny":1297,"Ġname":1298,"eddy":1299,"Wow":1300,"Ġseen":1301,"ĠFin":1302,"ster":1303,"Ġpond":1304,"Ġlooks":1305,"Ġcars":1306,"Ġcried":1307,"ĠJoe":1308,"Ġfro":1309,"Ġste":1310,"Ġanother":1311,"ient":1312,"ĠSally":1313,"Ġtop":1314,"Ġwhy":1315,"Ġprom":1316,"olly":1317,"Ġwaved":1318,"Ġflower":1319,"Ġbag":1320,"Ġpart":1321,"Ġbunny":1322,"Ġhair":1323,"Ġparents":1324,"Ġtouch":1325,"bo":1326,"ards":1327,"Ġpaper":1328,"Ġgi":1329,"Ġdin":1330,"Don":1331,"Ġlight":1332,"Ġgreen":1333,"Ġdri":1334,"Ġcool":1335,"Ġdelic":1336,"Ġdro":1337,"Ġlesson":1338,"ĠBenny":1339,"Ġhole":1340,"Ġswim":1341,"Ġtrees":1342,"iver":1343,"Ġsurprise":1344,"Ġyellow":1345,"Ġremembered":1346,"Ġbehind":1347,"Ġfloor":1348,"oney":1349,"Ġhold":1350,"ely":1351,"hy":1352,"ued":1353,"Ġworked":1354,"mer":1355,"Tom":1356,"Ġfull":1357,"Ġthank":1358,"Ġrunning":1359,"rel":1360,"Ġhopped":1361,"ation":1362,"Ġsleep":1363,"andy":1364,"Ġwished":1365,"Ġspot":1366,"Ġsmell":1367,"Ġset":1368,"ike":1369,"Ġblocks":1370,"Ġcold":1371,"us":1372,"Ġlost":1373,"Ġsat":1374,"Ġhappily":1375,"Ġread":1376,"Ġwear":1377,"Ġdoing":1378,"Ġneeded":1379,"Ġdream":1380,"Ġdark":1381,"Ġmouse":1382,"Ġstre":1383,"Ġbow":1384,"aisy":1385,"Ġwood":1386,"Ġslow":1387,"Ġlaugh":1388,"ren":1389,"ĠEm":1390,"Ġbutterfly":1391,"Ġsho":1392,"Ġcarefully":1393,"ĠAt":1394,"Ġtall":1395,"Ġyears":1396,"Ġleft":1397,"Ġ-":1398,"Ġlikes":1399,"Ġsurprised":1400,"Ġhill":1401,"Ġwindow":1402,"Ġfrog":1403,"Ġswing":1404,"ĠTommy":1405,"Ġenjoyed":1406,"Ġheld":1407,"Ġfinished":1408,"Ġsnow":1409,"Ġhear":1410,"Ġmove":1411,"Ġbuy":1412,"ens":1413,"\".":1414,"Ġwrong":1415,"Ġice":1416,"Ġperf":1417,"ined":1418,"Ġfollowed":1419,"Ġair":1420,"ĠFinally":1421,"Ġarri":1422,"Ġlion":1423,"ul":1424,"ĠK":1425,"Ġfair":1426,"Ġherself":1427,"ĠNow":1428,"Ġhid":1429,"Ġanything":1430,"Ġcontin":1431,"Hell":1432,"Hello":1433,"Ġhun":1434,"Ġclose":1435,"Ġdir":1436,"Ġchildren":1437,"Ġbug":1438,"Ġfriendly":1439,"cess":1440,"Ġcast":1441,"Ġrel":1442,"Ġtable":1443,"asure":1444,"sy":1445,"Ġbuild":1446,"Ġarm":1447,"Ġwonderful":1448,"Ġforgot":1449,"ĠDaisy":1450,"Ġmight":1451,"Ġarrived":1452,"ĠTo":1453,"ds":1454,"ield":1455,"Ġunderstand":1456,"Ġdelicious":1457,"Ġagre":1458,"ĠBilly":1459,"Ġel":1460,"Ġtight":1461,"Ġhot":1462,"ross":1463,"Ġplease":1464,"Ġcolors":1465,"Ġgrandma":1466,"Ġsomeone":1467,"ner":1468,"Ġsong":1469,"Ġcount":1470,"Ġbooks":1471,"ĠThere":1472,"ĠJen":1473,"Ġfilled":1474,"Ġgone":1475,"ĠGra":1476,"Ġcontinued":1477,"Ġbroken":1478,"Ġable":1479,"Ġleaves":1480,"Ġscre":1481,"Ġgent":1482,"av":1483,"Ġelse":1484,"sp":1485,"ĠJim":1486,"Ġwants":1487,"Ġcreat":1488,"ask":1489,"ĠThis":1490,"Ġvis":1491,"Ġwall":1492,"lf":1493,"shed":1494,"Ġyes":1495,"Ġbaby":1496,"uffy":1497,"Ġpink":1498,"atter":1499,"Ġbreak":1500,"room":1501,"man":1502,"ich":1503,"Ġpoin":1504,"gon":1505,"Ġamazing":1506,"Ġgu":1507,"'ll":1508,"ries":1509,"Ġmar":1510,"ĠMaybe":1511,"Ġgetting":1512,"icy":1513,"Ġenough":1514,"Ġpictures":1515,"Ġfight":1516,"OK":1517,"Ġwhite":1518,"oup":1519,"Ġcomp":1520,"ĠMolly":1521,"Ġcastle":1522,"Ġdinner":1523,"Ġagreed":1524,"row":1525,"irrel":1526,"Ġmus":1527,"Ġmoment":1528,"Ġmother":1529,"Ġstayed":1530,"Ġfall":1531,"ash":1532,"Ġmorning":1533,"Ġcookies":1534,"app":1535,"ced":1536,"Ġscary":1537,"Ġtrying":1538,"ĠAmy":1539,"Ġfinally":1540,"Ġclimbed":1541,"Ġfur":1542,"Ġsometimes":1543,"Ġsail":1544,"Ġothers":1545,"Ġwet":1546,"Ġpi":1547,"Ġju":1548,"Ġsmiles":1549,"Ġhungry":1550,"ctor":1551,"Ġsquirrel":1552,"Ġtalk":1553,"ence":1554,"ons":1555,"Ġclot":1556,"Ġmet":1557,"Ġclothes":1558,"Ġbrought":1559,"ama":1560,"apped":1561,"ister":1562,"red":1563,"oom":1564,"ere":1565,"Ġturned":1566,"Ġroll":1567,"Ġperfect":1568,"Ġdaddy":1569,"lc":1570,"Ġmakes":1571,"Ġcream":1572,"Ġfew":1573,"Ġlistened":1574,"oring":1575,"ee":1576,"Ġtail":1577,"Ġeverything":1578,"ance":1579,"Ġwasn":1580,"Ġspl":1581,"Ġstrange":1582,"rot":1583,"Ġsear":1584,"Ġballoon":1585,"Ġbeach":1586,"Ġpol":1587,"Ġpuppy":1588,"Ġjoy":1589,"Ġsit":1590,"ated":1591,"ĠWhat":1592,"ower":1593,"Ġride":1594,"der":1595,"zz":1596,"Ġwaited":1597,"Ġspark":1598,"Ġthre":1599,"Ġmusic":1600,"wl":1601,"Ġamazed":1602,"ever":1603,"ĠJill":1604,"ĠFl":1605,"The":1606,"Ġalone":1607,"os":1608,"amp":1609,"Ġvisit":1610,"Ġsilly":1611,"Ġdanger":1612,"ucky":1613,"Ġteddy":1614,"key":1615,"ĠSoon":1616,"ott":1617,"Ġasks":1618,"Ġpet":1619,"Ġwoods":1620,"ope":1621,"Ġdeep":1622,"ĠAll":1623,"ang":1624,"Ġhide":1625,"eter":1626,"Ġgrow":1627,"Oh":1628,"Ġleave":1629,"Ġsister":1630,"Ġside":1631,"Ġpie":1632,"ugg":1633,"Ġcloud":1634,"amed":1635,"ssed":1636,"Ġflying":1637,"med":1638,"Ġlake":1639,"This":1640,"Ġpulled":1641,"Ġfox":1642,"Ġpromised":1643,"Ġpat":1644,"gg":1645,"ix":1646,"Ġdance":1647,"Ġtowards":1648,"eces":1649,"Ġtreasure":1650,"me":1651,"Ġsec":1652,"Ġfield":1653,"ames":1654,"ph":1655,"Ġpieces":1656,"ises":1657,"Ġplan":1658,"Ġruns":1659,"Ġshared":1660,"Maybe":1661,"Ġbigger":1662,"cket":1663,"ained":1664,"Ġve":1665,"Ġwon":1666,"Ġthinks":1667,"Ġem":1668,"Ġland":1669,"Ġmoral":1670,"thy":1671,"But":1672,"Ġtreat":1673,"Okay":1674,"Ġowner":1675,"Ġliving":1676,"Ġpen":1677,"Ġele":1678,"Ġbran":1679,"Ġgrate":1680,"Ġbott":1681,"Ġdolls":1682,"Ġshar":1683,"Ġcandy":1684,"igg":1685,"avy":1686,"Ġparty":1687,"Ġeverywhere":1688,"Ġgrateful":1689,"cle":1690,"set":1691,"Ġcup":1692,"Ġblank":1693,"Ġbike":1694,"Ġslowly":1695,"outh":1696,"Ġpaint":1697,"Ġjob":1698,"Ġsuch":1699,"sw":1700,"Ġbelie":1701,"Ġworried":1702,"Ġmouth":1703,"Ġwelc":1704,"Ġjoin":1705,"Ġblanket":1706,"Ġfaster":1707,"Ġplant":1708,"fort":1709,"ret":1710,"ĠMr":1711,"ually":1712,"Ġansw":1713,"Ġbroke":1714,"Ġmoney":1715,"unch":1716,"ling":1717,"iet":1718,"Ġshap":1719,"Ġgif":1720,"Ġreach":1721,"Mommy":1722,"Ġmagical":1723,"Ġsnack":1724,"Ġbar":1725,"Ġcolorful":1726,"ire":1727,"ident":1728,"uit":1729,"Ġhelping":1730,"ased":1731,"Ġprincess":1732,"Ġdoctor":1733,"Ġcho":1734,"Ġrace":1735,"Ġdragon":1736,"Ġacc":1737,"Ġriver":1738,"Ġnap":1739,"Ġpro":1740,"Ġsign":1741,"less":1742,"Ġquiet":1743,"Ġcrying":1744,"orm":1745,"ipped":1746,"Ġblack":1747,"ze":1748,"Ġmost":1749,"ol":1750,"Ġdangerous":1751,"Sure":1752,"Ġstepped":1753,"Ġtrain":1754,"Ġsmart":1755,"Ġatt":1756,"Ġbowl":1757,"Ġfarmer":1758,"Ġmix":1759,"Ġpa":1760,"Ġheavy":1761,"Ġpot":1762,"Ġmonster":1763,"ored":1764,"Ġstu":1765,"Ġje":1766,"ming":1767,"bble":1768,"Ġtwins":1769,"Ġwords":1770,"ĠMama":1771,"ĠDaddy":1772,"ear":1773,"Ġacross":1774,"Ġdirty":1775,"Ġdisapp":1776,"Ġeating":1777,"Ġsame":1778,"Ġstuck":1779,"Ġclosed":1780,"ĠJust":1781,"Ġfruit":1782,"Ġthrew":1783,"Ġmust":1784,"Ġtower":1785,"ĠEmma":1786,"Ġpass":1787,"Ġwouldn":1788,"Ġbuck":1789,"cked":1790,"ĠFluffy":1791,"Ġspr":1792,"Ġhig":1793,"Ġwin":1794,"Ġaccident":1795,"Ġcray":1796,"Ġmonkey":1797,"Ġcarrot":1798,"Why":1799,"ord":1800,"Ġbath":1801,"Ġheal":1802,"Ġfeels":1803,"Ġteac":1804,"iting":1805,"Ġbite":1806,"eared":1807,"Hi":1808,"asket":1809,"umb":1810,"Ġpushed":1811,"Ġbutt":1812,"Ġtown":1813,"chool":1814,"Ġpast":1815,"Ġbasket":1816,"Ġheart":1817,"ipp":1818,"Ġhoped":1819,"br":1820,"Ġwithout":1821,"Ġhit":1822,"ĠMary":1823,"Ġcoll":1824,"Ġclapped":1825,"Ġpack":1826,"Ġbelieve":1827,"Ġstand":1828,"Ġpers":1829,"Ġforget":1830,"Ġschool":1831,"Ġfairy":1832,"ĠGrandma":1833,"Ġcheered":1834,"phant":1835,"Ġbee":1836,"Ġsmo":1837,"Ġfence":1838,"Ġlon":1839,"ĠJimmy":1840,"de":1841,"ĠWh":1842,"orrow":1843,"Ġcour":1844,"Ġyard":1845,"Ġbrown":1846,"Ġchair":1847,"Ġdrove":1848,"ract":1849,"Ġadventures":1850,"Ġnoises":1851,"ier":1852,"ventually":1853,"Ġhigher":1854,"Ġlonely":1855,"Ġelephant":1856,"Ġteacher":1857,"Ġtoday":1858,"ĠTw":1859,"ney":1860,"Ġpocket":1861,"Ġupset":1862,"ors":1863,"cy":1864,"vel":1865,"Ġturns":1866,"Ġswings":1867,"Ġgentle":1868,"Ġlonger":1869,"Ben":1870,"Ġwings":1871,"Ġwelcome":1872,"Ġgames":1873,"ts":1874,"Ġcourse":1875,"Ġben":1876,"Ġexplained":1877,"Ġfree":1878,"Ġneck":1879,"Ġsuddenly":1880,"Ġleg":1881,"ĠInside":1882,"Ġjour":1883,"ead":1884,"Ġsecret":1885,"Ġstar":1886,"issed":1887,"ountain":1888,"Ġwhe":1889,"Ġdry":1890,"Ġcorn":1891,"Ġsoup":1892,"Ġbring":1893,"Ġshop":1894,"Ġinst":1895,"Ġhappen":1896,"Ġneigh":1897,"Ġdropped":1898,"Ġplac":1899,"Ġhugs":1900,"yard":1901,"Ġtrou":1902,"Ġpiece":1903,"Ġmin":1904,"Ġthrow":1905,"Ġneighb":1906,"ĠOn":1907,"Anna":1908,"Ġswam":1909,"ible":1910,"Ġstories":1911,"Ġsang":1912,"Ġbackyard":1913,"itting":1914,"ĠLater":1915,"ĠTheir":1916,"ment":1917,"Ġwish":1918,"Ġrocks":1919,"Ġbucket":1920,"Ġwell":1921,"Ġlate":1922,"ek":1923,"Ġnaught":1924,"Ġapple":1925,"Ġbelong":1926,"Ġowl":1927,"ĠMum":1928,"Ġph":1929,"ches":1930,"Ġnaughty":1931,"ces":1932,"Ġtaking":1933,"Ġorange":1934,"Ġalong":1935,"Ġlunch":1936,"ocked":1937,"Ġdrink":1938,"fused":1939,"ung":1940,"Ġjar":1941,"Ġexploring":1942,"Ġexp":1943,"Ġcou":1944,"Ġsea":1945,"Ġes":1946,"Ġyoung":1947,"bow":1948,"Ġdist":1949,"Ġseemed":1950,"Ġsinging":1951,"oun":1952,"Ġshook":1953,"Ġmat":1954,"Ġca":1955,"Ġcaught":1956,"Ġmoved":1957,"Ġwar":1958,"Ġnearby":1959,"Ġpig":1960,"Ġwise":1961,"Ġkey":1962,"ĠTweet":1963,"Ġshoes":1964,"Ġstars":1965,"Ġtiny":1966,"Ġthough":1967,"Ġwoke":1968,"ĠThank":1969,"Ġtom":1970,"Ġdes":1971,"Ġmiss":1972,"Ġaf":1973,"llo":1974,"ĠO":1975,"Ġmail":1976,"ail":1977,"Ġbus":1978,"ions":1979,"vered":1980,"cer":1981,"Ġsick":1982,"col":1983,"Ġbench":1984,"Ġcarry":1985,"ape":1986,"Ġrelie":1987,"Ġresp":1988,"Ġnest":1989,"ĠAl":1990,"Ġshapes":1991,"ĠSammy":1992,"Do":1993,"cing":1994,"ittens":1995,"Ġrainbow":1996,"Ġarms":1997,"idge":1998,"Ġbranch":1999,"Ġkite":2000,"Ġmine":2001,"Ġdriver":2002,"Ġjuice":2003,"Ġbusy":2004,"Ġtakes":2005,"Ġob":2006,"aughter":2007,"raid":2008,"Ġafraid":2009,"let":2010,"Ġwondered":2011,"itch":2012,"Ġmad":2013,"ward":2014,"Ġcir":2015,"Ġsitting":2016,"ining":2017,"Ġcow":2018,"Ġmark":2019,"ese":2020,"Ġmil":2021,"cks":2022,"Ġstreet":2023,"Ġcomes":2024,"Ġinv":2025,"Ġaccidentally":2026,"Ġround":2027,"ho":2028,"Ġnose":2029,"Ġdisco":2030,"Ġking":2031,"Ġ3":2032,"Ġforever":2033,"Ġyear":2034,"Ġfarm":2035,"Ġwhist":2036,"Ġband":2037,"Ġpeace":2038,"Ġdaughter":2039,"Ġlift":2040,"Ġsounds":2041,"sting":2042,"Ġgift":2043,"to":2044,"Ġegg":2045,"Ġcute":2046,"bby":2047,"thday":2048,"Tim":2049,"ball":2050,"Ġexciting":2051,"adow":2052,"Ġcozy":2053,"Ġfit":2054,"ity":2055,"Ġletter":2056,"Ġpurp":2057,"Ġcoat":2058,"Ġwra":2059,"Ġboun":2060,"Ġpower":2061,"ours":2062,"Ġrelieved":2063,"Ġhello":2064,"Ġnothing":2065,"Ġpatient":2066,"Ġintere":2067,"Ġholding":2068,"Ġlaughing":2069,"Ġhuge":2070,"Ġjourney":2071,"pping":2072,"Ġmist":2073,"shine":2074,"Ġimag":2075,"Sara":2076,"Ġspoon":2077,"Ġswimming":2078,"Ġgigg":2079,"itten":2080,"Ġmilk":2081,"Ġdays":2082,"Ġsunshine":2083,"Ġlife":2084,"Ġcomfort":2085,"Ġfing":2086,"Ġpurple":2087,"gged":2088,"Ġlater":2089,"ĠCome":2090,"Ġtouched":2091,"Ġinstead":2092,"Ġact":2093,"Ġbirthday":2094,"Of":2095,"irt":2096,"eth":2097,"Ġroad":2098,"Ġcheese":2099,"Ġinc":2100,"ĠWith":2101,"fish":2102,"Ġear":2103,"Ġsunny":2104,"ped":2105,"unt":2106,"alm":2107,"Ġret":2108,"Ġgives":2109,"Ġsearched":2110,"ness":2111,"Ġbought":2112,"Ġfan":2113,"Ġbread":2114,"Ġpointed":2115,"Ġanyone":2116,"Ġonto":2117,"Ġbottle":2118,"board":2119,"ose":2120,"Ġpres":2121,"Ġducks":2122,"ize":2123,"Ġstorm":2124,"sc":2125,"Ġhope":2126,"Ġreturn":2127,"Ġlucky":2128,"Ġplane":2129,"Ġtasty":2130,"Ġcave":2131,"ĠJenny":2132,"Ġcreature":2133,"Ġwatching":2134,"blem":2135,"Ġgrab":2136,"Hey":2137,"ĠMittens":2138,"Ġpudd":2139,"Ġproblem":2140,"Ġce":2141,"Ġsmiling":2142,"ĠEll":2143,"ndp":2144,"Ġrope":2145,"ĠSomet":2146,"Ġkick":2147,"Ġspo":2148,"Ġcrayons":2149,"Ġshell":2150,"Ġeas":2151,"Ġsharp":2152,"aur":2153,"Ġspid":2154,"els":2155,"Ġmeet":2156,"Ġpromise":2157,"Ġsnowman":2158,"Ġperson":2159,"Ġhoney":2160,"Ġdanced":2161,"ond":2162,"Ġpuzz":2163,"epend":2164,"Ġinteresting":2165,"ten":2166,"Ġtalked":2167,"Ġsandw":2168,"Ġbutton":2169,"Ġquest":2170,"Ġcollect":2171,"Ġbush":2172,"og":2173,"ove":2174,"Ġzoom":2175,"Ġtrouble":2176,"Ġwide":2177,"Ġcard":2178,"Ġkiss":2179,"itty":2180,"Ġsmelled":2181,"Ġspin":2182,"Ġpresent":2183,"Ġent":2184,"Ġap":2185,"Ġlovely":2186,"Ġapples":2187,"Ġpract":2188,"ĠCh":2189,"Ġadm":2190,"Ġwrite":2191,"Ġgiant":2192,"Ġhealthy":2193,"ont":2194,"Ġclouds":2195,"Ġpill":2196,"Ġshining":2197,"Ġgather":2198,"izz":2199,"Ġpar":2200,"umber":2201,"Ġrolled":2202,"isa":2203,"Ġcheer":2204,"Ġplaces":2205,"Ġfront":2206,"ndpa":2207,"Good":2208,"Ġputs":2209,"owed":2210,"Ġwhich":2211,"Ġloves":2212,"Ġsaf":2213,"Ġvill":2214,"ĠEmily":2215,"Ġsur":2216,"Ġpath":2217,"ĠHow":2218,"Ġspotted":2219,"ub":2220,"Ġtun":2221,"Ġhon":2222,"Ġworm":2223,"Ġimpre":2224,"Ġclever":2225,"Ġshr":2226,"Ġorgan":2227,"ĠRe":2228,"Ġmyster":2229,"bar":2230,"Ġlay":2231,"Ġmatter":2232,"Ġfeather":2233,"up":2234,"Ġtasted":2235,"ĠTogether":2236,"Ġwild":2237,"Ġeag":2238,"Ġzoo":2239,"Ġmed":2240,"Ġtrip":2241,"Ġprot":2242,"Ġrespect":2243,"een":2244,"Ġbark":2245,"Ġdi":2246,"Ġhor":2247,"Ġcouch":2248,"Ġsuc":2249,"Ġthin":2250,"Ġpop":2251,"Ġwhole":2252,"ching":2253,"Ġfoot":2254,"Ġprotect":2255,"erly":2256,"ĠSt":2257,"Ġasleep":2258,"Ġpile":2259,"Ġspent":2260,"ular":2261,"Ġbuilding":2262,"Ġdirt":2263,"cean":2264,"Ġocean":2265,"Ġlad":2266,"Ġknee":2267,"Ġgoes":2268,"Ġcoin":2269,"Ġspider":2270,"Ġwearing":2271,"barra":2272,"Ġmountain":2273,"Ġpretended":2274,"Ġembarra":2275,"nic":2276,"ĠAnn":2277,"Ġslid":2278,"Ġpicnic":2279,"Ġscreamed":2280,"Ġfaces":2281,"Ġteach":2282,"Ġphone":2283,"ĠSometimes":2284,"Ġsack":2285,"Ġsnake":2286,"Ġanswer":2287,"Ġseat":2288,"Ġconfused":2289,"Ġappeared":2290,"Come":2291,"oose":2292,"Ġtalking":2293,"Ġgently":2294,"ife":2295,"Ġsal":2296,"Ġfurry":2297,"eb":2298,"Ġhelpful":2299,"Ġmud":2300,"Ġdrive":2301,"la":2302,"Ġmind":2303,"lex":2304,"Ġpan":2305,"Ġsupp":2306,"Ġladder":2307,"ĠLisa":2308,"Ġpush":2309,"Ġoven":2310,"Ġign":2311,"Ġcart":2312,"Jo":2313,"ale":2314,"Ġser":2315,"Ġrec":2316,"Ġwhenever":2317,"arge":2318,"Ġval":2319,"Ġcorner":2320,"unk":2321,"ĠGo":2322,"Ġwom":2323,"Ġchocol":2324,"Ġcalm":2325,"ĠLe":2326,"ÅĵI":2327,"Ġsplas":2328,"Ġwoman":2329,"Ġban":2330,"Ġneighbor":2331,"Ġlast":2332,"ĠBu":2333,"Ġtool":2334,"Ġmach":2335,"Ġblew":2336,"Ġfixed":2337,"read":2338,"Ġring":2339,"Ġfighting":2340,"ĠJake":2341,"Ġfinish":2342,"Ġwaiting":2343,"Ġwave":2344,"Ġspicy":2345,"Ġforgive":2346,"Ġtid":2347,"ert":2348,"bbles":2349,"Ġfeet":2350,"Ġminut":2351,"Ġspread":2352,"Ġdelight":2353,"Ġash":2354,"Ġtaste":2355,"Ġeventually":2356,"ĠBe":2357,"Ġteeth":2358,"Ġlive":2359,"Ġembarrassed":2360,"Ġpour":2361,"Ġhorse":2362,"Ġtomorrow":2363,"Ġremind":2364,"ĠPeter":2365,"Ġbell":2366,"Ġscar":2367,"Ġcookie":2368,"Ġsmooth":2369,"Ġrocket":2370,"ones":2371,"per":2372,"Ġant":2373,"Ġshy":2374,"Ġcloth":2375,"Ġfold":2376,"Ġchocolate":2377,"mo":2378,"Ġtries":2379,"ĠWhile":2380,"Ġcolour":2381,"old":2382,"Ġstep":2383,"oph":2384,"Ġlarge":2385,"Ġtea":2386,"Ġsongs":2387,"Ġneckl":2388,"Ġhiding":2389,"Ġbanan":2390,"Ġkitten":2391,"Ġpaw":2392,"Ġspray":2393,"Ġspe":2394,"urse":2395,"Ġrob":2396,"Ġhum":2397,"ĠTeddy":2398,"Ġpool":2399,"Ġshirt":2400,"ery":2401,"Ġple":2402,"Ġemp":2403,"Ġwash":2404,"Ġcann":2405,"Ġpizz":2406,"Ġempty":2407,"ungle":2408,"ĠSome":2409,"Ġvillage":2410,"Ġcreative":2411,"lebr":2412,"Ġjungle":2413,"Ġgrew":2414,"Ġbugs":2415,"Ġtightly":2416,"Ġtidy":2417,"als":2418,"getable":2419,"Ġcannot":2420,"dge":2421,"Ġcoo":2422,"Ġknocked":2423,"Ġvegetable":2424,"Ġwhistle":2425,"Ġsol":2426,"Ġrep":2427,"Ġcelebr":2428,"umpy":2429,"St":2430,"airs":2431,"ato":2432,"ĠTV":2433,"nny":2434,"den":2435,"Ġchick":2436,"Ġrude":2437,"Ġwore":2438,"Ġtrust":2439,"Ġhar":2440,"Ġbarked":2441,"Ġrobot":2442,"Ġwip":2443,"ĠEverywhere":2444,"Ġpeaceful":2445,"My":2446,"Ġsparkly":2447,"Ġpuddle":2448,"ush":2449,"Ġnecklace":2450,"ground":2451,"Ġ'":2452,"Ġhears":2453,"Ġchased":2454,"ighed":2455,"Ġpizza":2456,"ĠPlease":2457,"Ġstret":2458,"Ġsel":2459,"Ġstir":2460,"Ġmeant":2461,"ned":2462,"Ġbal":2463,"Ġmoon":2464,"Ġmaybe":2465,"Ġgun":2466,"Ġstra":2467,"Ġpuzzle":2468,"Ġhidden":2469,"Ġpin":2470,"Ġnet":2471,"Ġsave":2472,"ian":2473,"Ġtreats":2474,"Ġgen":2475,"Ġmeadow":2476,"Ġcross":2477,"Ġcarrots":2478,"inted":2479,"lower":2480,"box":2481,"Ġmot":2482,"pper":2483,"ĠMummy":2484,"era":2485,"Ġsticks":2486,"Ġsnacks":2487,"dle":2488,"Ġcarried":2489,"Ġmissed":2490,"gly":2491,"ustr":2492,"Ġforward":2493,"ult":2494,"Joh":2495,"Ġseed":2496,"Ġflut":2497,"Ġtells":2498,"Ġsplash":2499,"Ġav":2500,"Ġgroup":2501,"Ġsour":2502,"Ġbat":2503,"Ġcrab":2504,"Ġprince":2505,"Ġmachine":2506,"Ġshelf":2507,"ĠJohnny":2508,"Ġber":2509,"Ġclear":2510,"Ġugly":2511,"Ġstring":2512,"Ġselfish":2513,"Ġjumping":2514,"Ġdisappo":2515,"ird":2516,"ĠEven":2517,"ĠBr":2518,"aul":2519,"Ġgold":2520,"iger":2521,"Ġlem":2522,"elly":2523,"kin":2524,"Ġfrustr":2525,"Ġleaf":2526,"ĠAlice":2527,"Ġburn":2528,"Ġknowing":2529,"Ġgray":2530,"Ġstood":2531,"ĠSus":2532,"ĠKitty":2533,"ying":2534,"Ġroar":2535,"Ġyelled":2536,"Ġpolice":2537,"Ġlanded":2538,"Ġlegs":2539,"Please":2540,"Ġsharing":2541,"most":2542,"Ġhonest":2543,"Ġpir":2544,"Ġcirc":2545,"ator":2546,"Ġstone":2547,"eterm":2548,"hin":2549,"Ġwhis":2550,"Ġblow":2551,"ĠLeo":2552,"Ġdeterm":2553,"ĠWhy":2554,"Ġstanding":2555,"Ġplate":2556,"Ġdrew":2557,"Ġbreath":2558,"Ġalmost":2559,"Ġgar":2560,"Ġnods":2561,"vous":2562,"ĠZ":2563,"Ġfancy":2564,"Ġfrustrated":2565,"Ġnumber":2566,"Ġseek":2567,"Stop":2568,"Ġdisappointed":2569,"Ġtest":2570,"Ġsleepy":2571,"orry":2572,"iff":2573,"Ġthese":2574,"ital":2575,"aking":2576,"uce":2577,"itter":2578,"Ġfear":2579,"Ġscream":2580,"Ġpowerful":2581,"ĠRex":2582,"Ġmysterious":2583,"Ġfeed":2584,"Ġpillow":2585,"Ġhours":2586,"Ġgener":2587,"Ġpolite":2588,"Ġhosp":2589,"Ġfil":2590,"pack":2591,"John":2592,"Ġhospital":2593,"ser":2594,"Ġline":2595,"Ġgas":2596,"Ġjew":2597,"Ġmedic":2598,"Ġashamed":2599,"ffe":2600,"Ġplants":2601,"Ġcries":2602,"Ġdecor":2603,"ecially":2604,"Ġner":2605,"ote":2606,"ets":2607,"Ġreg":2608,"Ġreturned":2609,"issors":2610,"ual":2611,"izzy":2612,"Ġunderstood":2613,"ĠDon":2614,"Ġsheep":2615,"Ġscissors":2616,"Ġmedicine":2617,"Ġnervous":2618,"Sam":2619,"Ġtwirl":2620,"ensive":2621,"Ġexpensive":2622,"Ġspoil":2623,"pecially":2624,"ony":2625,"Ġshore":2626,"Ġpacked":2627,"Ġespecially":2628,"sist":2629,"Ġscarf":2630,"osaur":2631,"Ġbored":2632,"Ġpay":2633,"Ġdancing":2634,"Ġpassed":2635,"ĠMark":2636,"Ġsandwich":2637,"Ġvegetables":2638,"Ġnut":2639,"Ġtaught":2640,"Ġvan":2641,"Ġgarage":2642,"Ġsaved":2643,"Ġpoor":2644,"Ġgrumpy":2645,"Ġcloset":2646,"light":2647,"ina":2648,"Ġpri":2649,"Ġbecome":2650,"Ġhel":2651,"Ġmummy":2652,"Ġruined":2653,"Ġscr":2654,"Ġtaken":2655,"Ġfinger":2656,"Ġgate":2657,"'d":2658,"Ġdrum":2659,"Ġcomfortable":2660,"Ġfill":2661,"Ġmessy":2662,"iddle":2663,"Ġcand":2664,"Ġdinosaur":2665,"ĠLittle":2666,"Ġsold":2667,"Ġbedroom":2668,"Ġeasy":2669,"Ġones":2670,"ĠBl":2671,"Ġexam":2672,"Ġgenerous":2673,"Ġpleased":2674,"Ġasking":2675,"ano":2676,"Ġclass":2677,"Ġsuccess":2678,"ym":2679,"Ġwis":2680,"Ġyourself":2681,"Ġworking":2682,"Ġdetermined":2683,"oop":2684,"Ġship":2685,"Ġpray":2686,"Ġglue":2687,"ĠSusie":2688,"Ġfig":2689,"Ġhopping":2690,"Ġgiggled":2691,"Ġsailed":2692,"Ġboring":2693,"imp":2694,"Ġstuff":2695,"Ġballs":2696,"Ġmotor":2697,"Ġcri":2698,"Ġwagged":2699,"Ġvase":2700,"Ġglass":2701,"There":2702,"Ġkissed":2703,"Ġhur":2704,"Ġmov":2705,"Ġmistake":2706,"Ġoften":2707,"ĠOK":2708,"Ġsighed":2709,"ates":2710,"Where":2711,"Ġdest":2712,"Ġplayground":2713,"Ġexcite":2714,"Ġesc":2715,"Ġminutes":2716,"Ġtrue":2717,"Ġwheel":2718,"Ġlead":2719,"Ġbrush":2720,"Ġchest":2721,"Ġchew":2722,"Ġanswered":2723,"Ġwaves":2724,"erp":2725,"Ġweak":2726,"Ġclown":2727,"Ġboys":2728,"Ġgathered":2729,"iness":2730,"Ġfake":2731,"Ġspend":2732,"Ġdrop":2733,"Ġthankful":2734,"illi":2735,"Ġtears":2736,"ĠBrown":2737,"Ġrad":2738,"mb":2739,"Ġtick":2740,"Ġmiddle":2741,"selves":2742,"Ġcontent":2743,"Ġhang":2744,"Ġjelly":2745,"Ġpus":2746,"Ġteam":2747,"ots":2748,"Ġeld":2749,"Ġgets":2750,"Ġexcitement":2751,"Ġcap":2752,"Ġquestions":2753,"Ġlemon":2754,"Ġeggs":2755,"Ġlock":2756,"Who":2757,"Ġtent":2758,"arl":2759,"Ġflag":2760,"Ġskipped":2761,"Ġfridge":2762,"Ġchange":2763,"Ġsmelly":2764,"Ġwrote":2765,"ĠToday":2766,"Ġrid":2767,"Ġdrawing":2768,"Ġlit":2769,"Ġrelax":2770,"Ġadd":2771,"Ġfruits":2772,"Ġdiscovered":2773,"oof":2774,"aged":2775,"Sorry":2776,"Ġknight":2777,"Ġbridge":2778,"Ġsight":2779,"ete":2780,"Ġbathroom":2781,"Ġboard":2782,"Ġmatch":2783,"Ġmir":2784,"Ġdogs":2785,"Are":2786,"Ġknife":2787,"Ġshows":2788,"Ġclap":2789,"Ġlazy":2790,"Ġfluffy":2791,"Ġqueen":2792,"Ġwolf":2793,"Ġtag":2794,"Ġsil":2795,"Ġcovered":2796,"que":2797,"Ġcheck":2798,"Ġsweetie":2799,"ĠElla":2800,"Ġfamous":2801,"Ġmighty":2802,"ork":2803,"cept":2804,"Ġbake":2805,"Ġord":2806,"Ġpicks":2807,"Ġdrank":2808,"Ġdistance":2809,"Ġmic":2810,"Ġang":2811,"Ġnod":2812,"ella":2813,"Ġdisappeared":2814,"Ġlying":2815,"Ġdeer":2816,"ror":2817,"Ġwander":2818,"Ġboss":2819,"ĠEventually":2820,"Ġcaterp":2821,"Ġtowel":2822,"Ġcrown":2823,"Ġcaterpill":2824,"ĠNo":2825,"Ġunus":2826,"Ġwalks":2827,"Ġunusual":2828,"Ġfre":2829,"Ġmap":2830,"Ġsoap":2831,"Ġcalling":2832,"Ġeager":2833,"ti":2834,"Ġbone":2835,"Ġind":2836,"Ġfis":2837,"Ġmoving":2838,"Ġshoot":2839,"Ġed":2840,"ĠIf":2841,"Ġsell":2842,"Ġdecide":2843,"Ġelderly":2844,"obby":2845,"Ġlose":2846,"ĠMrs":2847,"Ġstones":2848,"ination":2849,"ĠFred":2850,"ĠBlue":2851,"Ġborrow":2852,"Ġcover":2853,"Now":2854,"Ġdig":2855,"Ġdish":2856,"Ġcleaned":2857,"body":2858,"elp":2859,"Ġsplashed":2860,"ating":2861,"Ġweek":2862,"ĠEnd":2863,"Ġglow":2864,"Ġcrawl":2865,"Ġcage":2866,"arth":2867,"Ġcher":2868,"imed":2869,"work":2870,"umbled":2871,"Ġincred":2872,"Ġhunt":2873,"Ġfeathers":2874,"Ġoffered":2875,"Ġbanana":2876,"asing":2877,"Ġcaterpillar":2878,"Ġyours":2879,"Ġkindness":2880,"Ġfather":2881,"alous":2882,"Ġcoins":2883,"Ġeye":2884,"Ġjuicy":2885,"ĠU":2886,"Ġbrilli":2887,"Ġjealous":2888,"Ġbranches":2889,"ĠTweety":2890,"Ġtape":2891,"Ġcam":2892,"Ġcost":2893,"Ġbottom":2894,"Ġorganized":2895,"Ġmirror":2896,"Ġlamp":2897,"Ġbody":2898,"Ġbrilliant":2899,"Ġtoug":2900,"Ġrare":2901,"fast":2902,"Ġtie":2903,"Ġcraw":2904,"Ġhorn":2905,"Ġthick":2906,"Ġcrawled":2907,"Ġdepend":2908,"ĠSn":2909,"Ġhurts":2910,"Ġtunn":2911,"port":2912,"Ġmeasure":2913,"Ġcolourful":2914,"Ġbalance":2915,"Ġbubbles":2916,"ĠPete":2917,"Ġbreakfast":2918,"Ġimpressed":2919,"Help":2920,"Ġlicked":2921,"Ġext":2922,"Ġhero":2923,"ugar":2924,"Ġtwist":2925,"olog":2926,"Ġincredible":2927,"Ġtiger":2928,"Ġfool":2929,"Ġrough":2930,"Ġjoke":2931,"Ġonce":2932,"Ġtrucks":2933,"Ġwagon":2934,"Ġfine":2935,"Ġlibr":2936,"Ġboxes":2937,"Ġtough":2938,"appy":2939,"Ġadventur":2940,"Ġsmoke":2941,"Ġhappening":2942,"Ġapolog":2943,"bin":2944,"Ġmanaged":2945,"Ġcabin":2946,"Ġsugar":2947,"ilt":2948,"amond":2949,"?\".":2950,"Ġflash":2951,"Ġrealised":2952,"Ġfavour":2953,"Ġbitter":2954,"Ġtrunk":2955,"Ġadventurous":2956,"ĠDave":2957,"Ġwrapped":2958,"hip":2959,"rag":2960,"Ġnoisy":2961,"Ġchase":2962,"Ġjog":2963,"Ġfalls":2964,"Ġflute":2965,"Me":2966,"Ġaw":2967,"Ġadded":2968,"Ġsugg":2969,"Ġfavourite":2970,"Ġsuggest":2971,"Ġdizzy":2972,"ĠMar":2973,"Ġmelt":2974,"Ġok":2975,"Ġdiamond":2976,"Ġrecord":2977,"Ġharm":2978,"Ġmixed":2979,"Ġcircles":2980,"Ġfoolish":2981,"Ġsunf":2982,"Ġmarket":2983,"Ġpump":2984,"ddy":2985,"Ġaccept":2986,"lies":2987,"Ġwand":2988,"ĠBella":2989,"Ġlog":2990,"Ġjam":2991,"ured":2992,"Ġguess":2993,"Ġsafely":2994,"land":2995,"yal":2996,"keep":2997,"Ġlouder":2998,"Ġextra":2999,"ory":3000,"Ġword":3001,"Ġneeds":3002,"ĠBobo":3003,"Ġarg":3004,"Ġlifted":3005,"edient":3006,"ately":3007,"Ġcheerful":3008,"Ġturt":3009,"Ġshark":3010,"Ġjack":3011,"Ġmagn":3012,"Ġdependable":3013,"Ġter":3014,"Ġpil":3015,"Ġears":3016,"Ġpointing":3017,"apping":3018,"uggled":3019,"Be":3020,"Ġdreamed":3021,"Ġwrap":3022,"Ġberries":3023,"Ġmoms":3024,"Ġagainst":3025,"Ġgrandpa":3026,"Ġgrown":3027,"Ġjewel":3028,"ira":3029,"Ġpee":3030,"Ġgiving":3031,"Ġfigure":3032,"Ġham":3033,"Ġgrace":3034,"Ġweal":3035,"Ġfrown":3036,"Well":3037,"Ġswan":3038,"ĠWhenever":3039,"Ġbags":3040,"Ġmovie":3041,"Ġtwig":3042,"Ġdreams":3043,"Ġballoons":3044,"Ġbelonged":3045,"ique":3046,"head":3047,"omed":3048,"Ġlearning":3049,"Ġstronger":3050,"laimed":3051,"Ġdolp":3052,"Ġedge":3053,"Ġexclaimed":3054,"Ġyarn":3055,"Ġsword":3056,"Ġslipped":3057,"Ġunique":3058,"Ġsearch":3059,"Ġloyal":3060,"Ġchoose":3061,"emo":3062,"Ġhats":3063,"Ġshake":3064,"rage":3065,"Ġloudly":3066,"ĠNemo":3067,"Ġenjoying":3068,"fic":3069,"oppy":3070,"Ġhappiness":3071,"Ġspun":3072,"iable":3073,"Ġobedient":3074,"anut":3075,"anged":3076,"ĠMy":3077,"Ġmarble":3078,"Ġtools":3079,"ready":3080,"Ġsquee":3081,"Ġlaughs":3082,"Lila":3083,"Ġrich":3084,"Ġwalls":3085,"Ġlean":3086,"Ġtele":3087,"Ġreliable":3088,"Ġcamera":3089,"Ġfour":3090,"ext":3091,"iv":3092,"ature":3093,"Ġalready":3094,"Ġmod":3095,"Ġcleaning":3096,"Ġunl":3097,"aw":3098,"Ġdiffic":3099,"Ġangel":3100,"Ġterri":3101,"oot":3102,"Ġclay":3103,"Ġbull":3104,"Ġmeans":3105,"Ġuseful":3106,"Ġcrayon":3107,"Ġgoat":3108,"ipe":3109,"Ġpainting":3110,"Ġbuttons":3111,"Here":3112,"gy":3113,"ention":3114,"Ġbarn":3115,"ages":3116,"shion":3117,"Ġusing":3118,"Ġcompet":3119,"Ġstraw":3120,"umbers":3121,"Ġbloom":3122,"Ġstubb":3123,"Ġindepend":3124,"Ġtunnel":3125,"Ġturtle":3126,"Ġtank":3127,"Ġhelps":3128,"Ġscare":3129,"Ġcircle":3130,"Ġdifficult":3131,"cil":3132,"Ġnorm":3133,"Ġthu":3134,"Ġthoughtful":3135,"Ġpencil":3136,"keeper":3137,"Ġfier":3138,"Ġfright":3139,"Ġbushes":3140,"Ġpeanut":3141,"Ġpainted":3142,"Ġnosy":3143,"Ġsounded":3144,"zed":3145,"Ġtimes":3146,"Ġstream":3147,"Ġguit":3148,"Ġgem":3149,"Ġwhale":3150,"ĠDucky":3151,"Ġoffice":3152,"Ġcounted":3153,"ĠMandy":3154,"Ġdove":3155,"Ġref":3156,"Ġskin":3157,"Ġbald":3158,"Ġparrot":3159,"Ġliz":3160,"Ġcompetit":3161,"Ġstubborn":3162,"Ġbirdie":3163,"Ġfierce":3164,"wards":3165,"Ġtoast":3166,"ado":3167,"Ġknows":3168,"ye":3169,"Ġrug":3170,"Ġisland":3171,"Ġinvited":3172,"Ġwealthy":3173,"Ġnormal":3174,"Ġcop":3175,"ĠBobby":3176,"Ġsaying":3177,"Ġswe":3178,"Ġexplored":3179,"Ġjoined":3180,"cient":3181,"ject":3182,"Ġfrag":3183,"Ġcro":3184,"Ġicy":3185,"orge":3186,"Ġsoar":3187,"Ġweird":3188,"Ġnotice":3189,"ĠRose":3190,"Ġcrack":3191,"Ġindependent":3192,"Ġnumbers":3193,"ĠAlex":3194,"Ġsunflower":3195,"Ġpost":3196,"Ġmole":3197,"Ġbrothers":3198,"Ġdesign":3199,"Ġpirate":3200,"inary":3201,"erry":3202,"Ġgrap":3203,"Ġbossy":3204,"Ġfat":3205,"Ġsmaller":3206,"Ġharder":3207,"ouses":3208,"Ġbuilt":3209,"Ġspoiled":3210,"ines":3211,"Ġstairs":3212,"Ġancient":3213,"Ġseem":3214,"Ġprep":3215,"Ġguitar":3216,"Ġstumbled":3217,"ĠMike":3218,"Ġlights":3219,"Ġmarch":3220,"Ġchicken":3221,"Ġfountain":3222,"Ġsauce":3223,"Ġstri":3224,"Ġrode":3225,"Ġenorm":3226,"Ġpicking":3227,"Ġfresh":3228,"Ġbeet":3229,"Ġcact":3230,"Ġvalu":3231,"Ġescape":3232,"Ġfragile":3233,"Ġenormous":3234,"Ġhouses":3235,"Ġresc":3236,"Ġpoured":3237,"Ġseeds":3238,"Ġwhisp":3239,"Ġchar":3240,"Ġsuit":3241,"Ġhose":3242,"Ġenvel":3243,"ÅĵLet":3244,"Ġreminded":3245,"ither":3246,"Ġpow":3247,"Ġmem":3248,"Ġbump":3249,"irp":3250,"Ġfork":3251,"Ġtrump":3252,"Ġproudly":3253,"Ġkinds":3254,"Ġcudd":3255,"ĠGrandpa":3256,"Ġbounce":3257,"Ġpractice":3258,"Ġways":3259,"Ġpenny":3260,"ĠOnce":3261,"Ġcity":3262,"Ġpepper":3263,"ĠCl":3264,"Ġsalad":3265,"Ġcostum":3266,"Ġfrightened":3267,"aid":3268,"pid":3269,"ache":3270,"Ġsearching":3271,"Ġchose":3272,"Ġfingers":3273,"Ġshells":3274,"Ġadmired":3275,"Ġsolve":3276,"Ġcactus":3277,"Ġtummy":3278,"Ġwake":3279,"Ġhalf":3280,"Ġthirst":3281,"Ġroof":3282,"ĠFr":3283,"Ġshowing":3284,"ola":3285,"Ġdelighted":3286,"Ġcone":3287,"Ġdull":3288,"ĠSoph":3289,"anger":3290,"dom":3291,"Ġnurse":3292,"alk":3293,"arsh":3294,"Ġboats":3295,"Ġbarber":3296,"eorge":3297,"na":3298,"Ġbeak":3299,"Ġstage":3300,"Ġexcitedly":3301,"Ġabove":3302,"berry":3303,"Ġstudy":3304,"Ġstupid":3305,"Ġbatter":3306,"Ġspace":3307,"Ġsuggested":3308,"Ġlizard":3309,"Ġshone":3310,"Ġcompass":3311,"Ġregular":3312,"Ġflashlight":3313,"vice":3314,"Ġcere":3315,"Ġlocked":3316,"Ġspilled":3317,"Ġshape":3318,"Ġattic":3319,"Ġterrible":3320,"Ġtooth":3321,"Ġhoop":3322,"Ġvaluable":3323,"Ġtrumpet":3324,"time":3325,"Ġarrow":3326,"ress":3327,"Ġpant":3328,"Ġearth":3329,"Ġyet":3330,"illie":3331,"ĠDan":3332,"Ġcheap":3333,"Ġdesk":3334,"ĠEllie":3335,"Ġkicked":3336,"Ġserious":3337,"Ġsuccessful":3338,"Ġthirsty":3339,"Ġlow":3340,"arry":3341,"het":3342,"inal":3343,"Ġclum":3344,"Ġlab":3345,"Ġscrat":3346,"How":3347,"Ġorig":3348,"com":3349,"Ġow":3350,"Ġrat":3351,"Ġstove":3352,"corn":3353,"Ġavo":3354,"Ġenvelope":3355,"Ġwitch":3356,"Ġthemselves":3357,"Ġimpress":3358,"Ġer":3359,"Ġson":3360,"aghet":3361,"Ġcomb":3362,"Ġbrightly":3363,"Ġstops":3364,"Ġthunder":3365,"aghetti":3366,"Ġhay":3367,"Ġbees":3368,"Ġstamp":3369,"iew":3370,"Ġlaw":3371,"Ġraced":3372,"Ġdreaming":3373,"Ġscreen":3374,"Ġcareless":3375,"Ġsniff":3376,"Ġoriginal":3377,"Ġwashed":3378,"Ġspaghetti":3379,"ĠYour":3380,"Ġchanged":3381,"Ġview":3382,"ĠNext":3383,"ĠKim":3384,"Ġwiped":3385,"uth":3386,"Ġending":3387,"Ġstickers":3388,"Ġhelm":3389,"Ġrushed":3390,"Ġdelicate":3391,"Ġwarned":3392,"Ġbeetle":3393,"Ġflex":3394,"Ġmis":3395,"gest":3396,"ience":3397,"isk":3398,"Ġthose":3399,"Ġyog":3400,"Ġcarp":3401,"berries":3402,"ĠPolly":3403,"Ġleaving":3404,"Ġsteal":3405,"Ġpersist":3406,"Ġcompassion":3407,"Ġclumsy":3408,"Ġtor":3409,"Ġbiggest":3410,"!\".":3411,"Ġtravel":3412,"Ġdead":3413,"oomy":3414,"Ġpopcorn":3415,"Ġdough":3416,"Ġbean":3417,"Ġfinding":3418,"Ġenc":3419,"Ġpumpkin":3420,"Ġing":3421,"ision":3422,"ĠLola":3423,"Ġsne":3424,"ĠRed":3425,"Ġtomato":3426,"Ġdiscover":3427,"Ġwire":3428,"ĠPaul":3429,"Ġlibrary":3430,"uring":3431,"robe":3432,"Ġgrand":3433,"Ġsnee":3434,"Ġdeliver":3435,"Ġcomplet":3436,"redient":3437,"Ġgraceful":3438,"Ġingredient":3439,"Ġmeal":3440,"Ġsorts":3441,"Ġunk":3442,"Ġtelling":3443,"Ġcereal":3444,"Ġknock":3445,"Ġuncle":3446,"Ġimagined":3447,"Ġearly":3448,"Ġpeeked":3449,"Ġtask":3450,"rell":3451,"âĤ¬âĢ":3452,"Ġtrap":3453,"Ġhairy":3454,"Ġmissing":3455,"Ġcounting":3456,"Ġingredients":3457,"Ġpup":3458,"Ġadvice":3459,"Ġjacket":3460,"Ġmel":3461,"Ġshiver":3462,"Ġzip":3463,"Ġhumble":3464,"cu":3465,"Ġforth":3466,"Ġstranger":3467,"Ġsquare":3468,"Ġdoesn":3469,"Ġguard":3470,"Ġpale":3471,"Ġdestro":3472,"ĠSandy":3473,"Ġflexible":3474,"Ġhipp":3475,"ilty":3476,"Ġplayful":3477,"Ġsudden":3478,"Ġdriving":3479,"Ġguilty":3480,"Ġpige":3481,"Ġaunt":3482,"ĠTweetie":3483,"Ġquestion":3484,"Ġthinking":3485,"Ġwhispered":3486,"Ġimpressive":3487,"Ġcards":3488,"Ġnicely":3489,"Ġjolly":3490,"Ġcreate":3491,"Ġopens":3492,"Ġcollar":3493,"Ġcarrying":3494,"Ġslides":3495,"Ġspeed":3496,"nown":3497,"Ġcur":3498,"Ġallowed":3499,"cod":3500,"Ġtwirled":3501,"Ġhandle":3502,"ĠGeorge":3503,"Ġprint":3504,"Ġsparkled":3505,"Ġhunter":3506,"illa":3507,"Ġbrace":3508,"Ġsticker":3509,"Ġpopular":3510,"Ġumb":3511,"ement":3512,"Ġrub":3513,"host":3514,"Ġumbrell":3515,"fa":3516,"ud":3517,"Ġtap":3518,"Ġtied":3519,"Ġsink":3520,"Ġanx":3521,"Ġenv":3522,"Ġrubb":3523,"ations":3524,"Ġbase":3525,"ĠAndy":3526,"Ġdisg":3527,"Ġrubbed":3528,"ĠToby":3529,"comfort":3530,"bled":3531,"Ġfriendship":3532,"Ġcarpet":3533,"tter":3534,"Ġuncomfort":3535,"Ġcooking":3536,"Ġcharming":3537,"Ġpersistent":3538,"Ġdisgust":3539,"Ġuncomfortable":3540,"Ġgum":3541,"Ġgira":3542,"Ġshocked":3543,"Ġholds":3544,"awn":3545,"Ġwing":3546,"ream":3547,"Ġghost":3548,"Ġrefused":3549,"ellig":3550,"Ġperm":3551,"Ġmetal":3552,"Ġanxious":3553,"Ġintellig":3554,"Ġbutterflies":3555,"Ġdolphin":3556,"Ġdust":3557,"Ġscatter":3558,"ĠJoey":3559,"Ġsett":3560,"Ġgasped":3561,"Ġcrocod":3562,"Ġunknown":3563,"Ġpatter":3564,"arian":3565,"Ġscoot":3566,"Ġeng":3567,"Ġcomput":3568,"Ġpatch":3569,"Ġpants":3570,"loo":3571,"aroo":3572,"Ġneat":3573,"ugged":3574,"ĠRo":3575,"angaroo":3576,"Ġspinning":3577,"Ġnature":3578,"Ġshel":3579,"Ġkangaroo":3580,"Ġchasing":3581,"They":3582,"Ġcelebrate":3583,"Ġpattern":3584,"Ġled":3585,"Ġmoder":3586,"Ġpasta":3587,"Ġwheels":3588,"Ġnames":3589,"Ġtruth":3590,"Ġordinary":3591,"Ġhammer":3592,"ÅĵLetÃ¢":3593,"Ġhippo":3594,"Ġmask":3595,"Ġsurf":3596,"ĠSnow":3597,"Ġtorn":3598,"Ġencou":3599,"Ġresist":3600,"Ġcoco":3601,"Ġimpat":3602,"Ġcocoa":3603,"Re":3604,"Ġgoose":3605,"Ġstat":3606,"ÅĵIt":3607,"Ġphot":3608,"Ow":3609,"Ġacorn":3610,"He":3611,"Ġperform":3612,"eer":3613,"Ġbent":3614,"Ġpand":3615,"Ġotter":3616,"ĠPe":3617,"ĠPat":3618,"Ġzipp":3619,"Ġgrowing":3620,"Ġimpatient":3621,"Ġmath":3622,"iches":3623,"Ġskip":3624,"Ġsnuggled":3625,"Ġcrazy":3626,"Ġsleeping":3627,"ffee":3628,"Ġprize":3629,"Ġharmless":3630,"Ġmodern":3631,"ray":3632,"Ġoat":3633,"orant":3634,"Ġshine":3635,"Ġrece":3636,"Ġscale":3637,"ÅĵWhat":3638,"Ġfireman":3639,"Ġcrane":3640,"Ġrestaur":3641,"Ġmagnet":3642,"Ġrestaurant":3643,"Ġbeauty":3644,"Ġtrash":3645,"Ġwindows":3646,"Ġsplit":3647,"Ġattract":3648,"Ġpotato":3649,"Ġdestroy":3650,"ĠHere":3651,"Ġreind":3652,"Ġhanded":3653,"Ġunpack":3654,"Ġshoe":3655,"Ġplaced":3656,"Ġintelligent":3657,"ĠLook":3658,"Ġsuper":3659,"Ġspoke":3660,"Ġcricket":3661,"ĠSm":3662,"llip":3663,"ĠGrace":3664,"Ġcompassionate":3665,"Ġdisgusting":3666,"llipop":3667,"See":3668,"cut":3669,"Ġsofa":3670,"ĠMaria":3671,"Ġumbrella":3672,"Ġtem":3673,"Ġahead":3674,"Ġload":3675,"Ġlollipop":3676,"Ġstarts":3677,"noon":3678,"ĠMillie":3679,"Ġafternoon":3680,"Ġdrawer":3681,"Ġwheat":3682,"Ġdistant":3683,"Ġsandwiches":3684,"Ġcandle":3685,"ĠBrownie":3686,"Go":3687,"Ġwaff":3688,"ĠTr":3689,"Ġyawn":3690,"Ġignorant":3691,"ince":3692,"Ġchance":3693,"ips":3694,"aches":3695,"Ġtriang":3696,"Ġbracelet":3697,"Ġreindeer":3698,"ikes":3699,"oe":3700,"Ġdug":3701,"Ġhedge":3702,"Ġrules":3703,"Ġcountry":3704,"Ġspring":3705,"ophone":3706,"Ġpigeon":3707,"aby":3708,"Ġhook":3709,"Ġshield":3710,"Ġreco":3711,"Ġflour":3712,"Ġtrop":3713,"Ġclock":3714,"Ġbin":3715,"Ġpurse":3716,"Ġshut":3717,"Ġcoffee":3718,"ĠcouldnÃ¢":3719,"Ġsupport":3720,"Ġrestless":3721,"Ġhung":3722,"Ġcupboard":3723,"Ġtire":3724,"Ġharsh":3725,"Ġcord":3726,"Ġol":3727,"Ġjug":3728,"Ġorder":3729,"Ġgifted":3730,"Ġmailbox":3731,"Ġtrophy":3732,"Ġsym":3733,"Ġmay":3734,"ict":3735,"Ġjumps":3736,"Timmy":3737,"erable":3738,"Ġnote":3739,"Ġsadly":3740,"Ġcats":3741,"lcano":3742,"Ġshrimp":3743,"Ġsilver":3744,"Ġmiserable":3745,"af":3746,"Ġsend":3747,"Ġshadow":3748,"ices":3749,"Ġmush":3750,"Ġpretending":3751,"cycle":3752,"Ġfilm":3753,"Ġcrocodile":3754,"gu":3755,"Ġax":3756,"Ġitself":3757,"Ġleop":3758,"aser":3759,"gging":3760,"Ġengine":3761,"Yay":3762,"ibb":3763,"Ġcamp":3764,"bol":3765,"Ġfurther":3766,"Ġcourage":3767,"Ġpracticed":3768,"Ġhurry":3769,"Ġmelon":3770,"Ġmuff":3771,"Ġanywhere":3772,"Ġimpro":3773,"Ġobject":3774,"Ġcomputer":3775,"Ġsymbol":3776,"gn":3777,"Ġbri":3778,"Ġfu":3779,"Ġmill":3780,"Ġvine":3781,"uct":3782,"Ġtrick":3783,"Ġcreatures":3784,"ĠSophie":3785,"Ġgoal":3786,"Ġcompl":3787,"ÅĵYes":3788,"Ġtowers":3789,"Ġjeep":3790,"Ġenth":3791,"aled":3792,"Ġrose":3793,"Ġpainter":3794,"Ġrepe":3795,"Ġrice":3796,"Ġstack":3797,"Ġcooler":3798,"Ġreading":3799,"ĠBefore":3800,"Ġenvious":3801,"Ġpony":3802,"Ġstation":3803,"Ġparade":3804,"Ġwishes":3805,"az":3806,"und":3807,"Ġneedle":3808,"Ġcryst":3809,"Ġforgave":3810,"Ġcartoon":3811,"ĠBuddy":3812,"iron":3813,"stri":3814,"Ġkay":3815,"ĠAre":3816,"ĠWill":3817,"ÅĵThat":3818,"Ġtreasures":3819,"Ġstretched":3820,"Ġaxe":3821,"Ġenthus":3822,"ĠBunny":3823,"Ġreward":3824,"Ġnowhere":3825,"Ġhelmet":3826,"Ġattractive":3827,"ric":3828,"Ġjet":3829,"Ġhelpless":3830,"Ġlaser":3831,"Ġolder":3832,"ĠGive":3833,"Ġbrighter":3834,"Ġsecond":3835,"Ġtroubled":3836,"Ġletters":3837,"Ġsweater":3838,"Ġoy":3839,"ĠWhere":3840,"Ġscold":3841,"Ġmessage":3842,"Ġpastry":3843,"Ġfootball":3844,"cream":3845,"Ġten":3846,"Ġcushion":3847,"Ġbadly":3848,"Ġtrack":3849,"Ġpackage":3850,"Ġvalue":3851,"Ġcompetitive":3852,"Ġscooter":3853,"Ġpanda":3854,"ĠUn":3855,"Ġpilot":3856,"Ġrecogn":3857,"Ġmushroom":3858,"Ġtheater":3859,"Ġpor":3860,"Ġsock":3861,"Ġalert":3862,"Ġpressed":3863,"Ġgloomy":3864,"ĠRu":3865,"Ġtricks":3866,"Ġvisited":3867,"Ġgiggle":3868,"Ġsalt":3869,"ebra":3870,"Ġfearful":3871,"Ġmicr":3872,"Ġhall":3873,"htub":3874,"Ġspell":3875,"Ġanyway":3876,"Ġbandage":3877,"Ġhuman":3878,"Max":3879,"orable":3880,"Ġbeep":3881,"Ġswitch":3882,"Ġtear":3883,"Ġshouts":3884,"Ġdeaf":3885,"Ġadmire":3886,"Ġbathtub":3887,"Ġeraser":3888,"kelet":3889,"Ġvolcano":3890,"Ġzebra":3891,"Ġpengu":3892,"Ġbarrel":3893,"Ġcows":3894,"Ġmicrophone":3895,"ef":3896,"orilla":3897,"Ġener":3898,"Ġthread":3899,"ĠRos":3900,"Ġswinging":3901,"Ġroared":3902,"Ġraven":3903,"Ġbounced":3904,"hino":3905,"Ġsoldier":3906,"Ġavoc":3907,"Ġleopard":3908,"stairs":3909,"Ġstarting":3910,"Ġtray":3911,"Ġstatue":3912,"ĠSmith":3913,"Ġsize":3914,"Ġhive":3915,"opus":3916,"Ġholes":3917,"Ġstrugg":3918,"ctopus":3919,"Tommy":3920,"Ġobser":3921,"Ġnuts":3922,"Ġmodest":3923,"iskers":3924,"ci":3925,"year":3926,"Ġsent":3927,"Ġpeach":3928,"ĠEverything":3929,"Ġadorable":3930,"Ġsquash":3931,"ebook":3932,"Ġsteps":3933,"Ġriding":3934,"keleton":3935,"Ġoctopus":3936,"ckey":3937,"Ġnotebook":3938,"Ġhockey":3939,"Ġrespectful":3940,"ĠAnnie":3941,"ses":3942,"Ġcurt":3943,"Ġlip":3944,"Ġshaking":3945,"Ġbackpack":3946,"Ġchain":3947,"ĠWhiskers":3948,"Ġcurtain":3949,"Ġants":3950,"Ġfive":3951,"Ġmop":3952,"Ġgorilla":3953,"ĠSh":3954,"Ġquar":3955,"Ġbehave":3956,"Ġhaircut":3957,"Ġwallet":3958,"Ġshopkeeper":3959,"ceros":3960,"Ġfilthy":3961,"strich":3962,"hinoceros":3963,"Ġeither":3964,"Ġur":3965,"ceed":3966,"Ġboots":3967,"Ġpulls":3968,"Ġtripped":3969,"Ġpapers":3970,"Ġstirred":3971,"Give":3972,"Ġpad":3973,"ĠBill":3974,"Ġnobody":3975,"Ġsunset":3976,"Ġexplain":3977,"Ġchecked":3978,"Ġsandbox":3979,"If":3980,"ccol":3981,"arnt":3982,"ĠJerry":3983,"Ġlearnt":3984,"Ġsort":3985,"Ġavail":3986,"Ġdecorate":3987,"ccoli":3988,"erc":3989,"Ġmug":3990,"Ġpun":3991,"Ġgolf":3992,"Ġmeas":3993,"Ġmotorcycle":3994,"Ġpushing":3995,"Ġrescue":3996,"Ġcrystal":3997,"Ġrhinoceros":3998,"Ġsomewhere":3999,"Ġvest":4000,"Ġpebble":4001,"Ġart":4002,"Ġlightning":4003,"Ġsailor":4004,"Ġcooked":4005,"Ġpowder":4006,"iest":4007,"Ġstared":4008,"Ġshort":4009,"Ġclapping":4010,"ief":4011,"ĠKate":4012,"Ġrolling":4013,"Ġgiraffe":4014,"ĠSnowy":4015,"Ġporch":4016,"Ġskeleton":4017,"Ġdess":4018,"Ġvi":4019,"Ġjokes":4020,"Ġexper":4021,"Ġbet":4022,"render":4023,"Ġincl":4024,"Ġunlock":4025,"Ġavailable":4026,"reci":4027,"Ġcomet":4028,"sely":4029,"Ġtrains":4030,"Ġdishes":4031,"Ġpoint":4032,"Ġorganize":4033,"Ġsucceed":4034,"Ġkayak":4035,"par":4036,"Ġhappier":4037,"seum":4038,"Ġexerc":4039,"Ġleash":4040,"ucked":4041,"Ġquite":4042,"enry":4043,"ooped":4044,"Ġstom":4045,"Ġhadn":4046,"Ġsepar":4047,"Ġlaund":4048,"astic":4049,"Ġlistening":4050,"Ġbarking":4051,"Ġpaws":4052,"Ġfrowned":4053,"hood":4054,"ube":4055,"Ġtur":4056,"Ġtoil":4057,"elery":4058,"Ġmuseum":4059,"Ġcolours":4060,"Ġclimbing":4061,"Ġappreci":4062,"Ġcomplete":4063,"Ġtriangle":4064,"Ġcase":4065,"Ġweather":4066,"Ġseal":4067,"ummer":4068,"Ġpeek":4069,"Ġunh":4070,"Ġzipper":4071,"Ġdessert":4072,"Ġlaundry":4073,"night":4074,"enny":4075,"Ġcane":4076,"Ġbroccoli":4077,"inking":4078,"Ġreef":4079,"Ġslipp":4080,"ubby":4081,"Ġiron":4082,"Ġputting":4083,"Ġclosely":4084,"Ġmonkeys":4085,"Ġsurrender":4086,"Ġpushes":4087,"cast":4088,"Ġpipe":4089,"Ġyach":4090,"Ġspir":4091,"Ġbrus":4092,"Ġbreat":4093,"Ġlions":4094,"Ġblowing":4095,"ĠRosie":4096,"come":4097,"io":4098,"Ġsle":4099,"Ġped":4100,"urb":4101,"Ġmarched":4102,"Ġdisturb":4103,"Ġspeak":4104,"Ġturkey":4105,"Ġtoilet":4106,"Bye":4107,"aked":4108,"ges":4109,"ron":4110,"Ġbicy":4111,"Ġfinds":4112,"Ġskill":4113,"Ġdrawings":4114,"Ġbarks":4115,"Ġlively":4116,"Ġstuffed":4117,"heart":4118,"Ġnail":4119,"ĠBear":4120,"Ġrever":4121,"Ġsandcast":4122,"Ġnapkin":4123,"Ġended":4124,"Ġdancer":4125,"Ġpolish":4126,"Ġcostume":4127,"Ġyacht":4128,"Ġostrich":4129,"anic":4130,"Ġink":4131,"Ġfort":4132,"ĠJess":4133,"Ġsoftly":4134,"Ġmild":4135,"iling":4136,"Ġribb":4137,"chanic":4138,"ĠJames":4139,"ected":4140,"Ġraining":4141,"olin":4142,"gs":4143,"vator":4144,"Ġtube":4145,"Ġlid":4146,"Ġoil":4147,"ĠAb":4148,"Ġclub":4149,"Ġchubby":4150,"Ġuniver":4151,"Ġappl":4152,"Ġthanks":4153,"Ġinf":4154,"ecause":4155,"Ġmechanic":4156,"play":4157,"Ġcrow":4158,"Ġpiano":4159,"Ġelevator":4160,"Ġbasketball":4161,"aulif":4162,"Ġbubble":4163,"Ġhoping":4164,"Ġbelt":4165,"Ġmixer":4166,"Ġstrip":4167,"Ġunhappy":4168,"Ġcaulif":4169,"ison":4170,"Ġglove":4171,"Ġairport":4172,"Ġspirit":4173,"Ġwife":4174,"Ġbikes":4175,"Ġhut":4176,"ites":4177,"Ġinsist":4178,"Ġpress":4179,"Ġjudge":4180,"Ġcups":4181,"Ġwelcomed":4182,"Ġpair":4183,"Ġframe":4184,"Ġmagaz":4185,"Ġgrabs":4186,"Ġdrops":4187,"Ġleaned":4188,"edy":4189,"Ġmama":4190,"Ġthief":4191,"stic":4192,"ĠCharl":4193,"Ġgrapes":4194,"âĤ¬âĢľ":4195,"Ġquarrel":4196,"mand":4197,"Ġevening":4198,"Ġprov":4199,"Ġrepair":4200,"Ġbaseball":4201,"Ġcelery":4202,"Ġfactor":4203,"Ġbuzz":4204,"iastic":4205,"ĠInst":4206,"ĠKat":4207,"Ġscrew":4208,"Ġimagine":4209,"Ġradish":4210,"Ġapologized":4211,"Ġsneak":4212,"Ġenthusiastic":4213,"Ġoyster":4214,"Ġtub":4215,"Ġluck":4216,"Ġmen":4217,"Ġrag":4218,"ĠBun":4219,"Ġdisplay":4220,"Ġgiven":4221,"Ġcounter":4222,"Ġbreaks":4223,"Ġcherries":4224,"Ġshelter":4225,"ĠLilly":4226,"Ġmule":4227,"ĠdidnÃ¢":4228,"Ġmarry":4229,"Ġveil":4230,"Ġzoomed":4231,"Ġfactory":4232,"aff":4233,"azz":4234,"zzy":4235,"Ġfisher":4236,"Ġbicycle":4237,"Ġlend":4238,"Ġshade":4239,"Ġfeelings":4240,"Ġenergy":4241,"Ġpoem":4242,"Ġbul":4243,"Ġhopes":4244,"Ġfrogs":4245,"ĠSte":4246,"Ġcauliflower":4247,"Jim":4248,"imney":4249,"Ġrod":4250,"Ġprun":4251,"Ġchimney":4252,"Ġbears":4253,"Ġfurn":4254,"iture":4255,"ĠBaby":4256,"Ġweep":4257,"Ġpole":4258,"ĠPap":4259,"Ġstretch":4260,"Ġfurniture":4261,"Ġgym":4262,"ĠSee":4263,"Ġplayer":4264,"Ġraft":4265,"Ġmaze":4266,"Ġpaid":4267,"Ġbulb":4268,"Dad":4269,"Jack":4270,"ense":4271,"any":4272,"Ġstaff":4273,"chair":4274,"Ġshakes":4275,"icer":4276,"aused":4277,"ccer":4278,"Ġdive":4279,"Ġsoccer":4280,"Ġlives":4281,"Ġkitty":4282,"rod":4283,"Ġintrod":4284,"Ġcheek":4285,"Ġattention":4286,"Ġneighbour":4287,"Ġslippery":4288,"ĠHenry":4289,"Ġsheet":4290,"Ġnews":4291,"Ġtrail":4292,"Ġsmells":4293,"Ġfalling":4294,"Ġperfectly":4295,"Ġphoto":4296,"Ġviolin":4297,"eath":4298,"gen":4299,"Ġbur":4300,"Ġpine":4301,"Ġknot":4302,"Ġchirp":4303,"Ġquit":4304,"Ġmarried":4305,"Ġbananas":4306,"Mia":4307,"Ġsummer":4308,"Ġlang":4309,"Ġpage":4310,"Ġlie":4311,"Ġfirework":4312,"Ġsweetheart":4313,"Ġcrib":4314,"Ġlangu":4315,"Ġlime":4316,"ĠLee":4317,"Ġonion":4318,"Ġreve":4319,"Ġarmchair":4320,"Ġsprink":4321,"Ġbelongs":4322,"Ġcardboard":4323,"Ġgolden":4324,"Ġcabinet":4325,"ait":4326,"low":4327,"men":4328,"Ġsir":4329,"aring":4330,"ories":4331,"Ġshouldn":4332,"ĠCharlie":4333,"Ġwool":4334,"Ġgro":4335,"ĠWould":4336,"Ġtrave":4337,"Ġsticky":4338,"Ġpuddles":4339,"sing":4340,"Ġfields":4341,"Ġtuna":4342,"Ġchickens":4343,"ĠTrue":4344,"bul":4345,"Ġscolded":4346,"ĠInstead":4347,"ĠPapa":4348,"inarian":4349,"Ġswung":4350,"Ġvide":4351,"ÅĵYou":4352,"eterinarian":4353,"..":4354,"Ġtherm":4355,"Ġsoil":4356,"Ġstraight":4357,"Ġburned":4358,"Ġavocado":4359,"ĠHarry":4360,"Ġherb":4361,"Ġrot":4362,"hero":4363,"ometer":4364,"Ġflies":4365,"Ġveterinarian":4366,"Ġprevent":4367,"izes":4368,"reeze":4369,"Ġdisag":4370,"Ġpirates":4371,"Ġfisherman":4372,"ween":4373,"Ġnovel":4374,"aud":4375,"Ġoffer":4376,"Ġshovel":4377,"Ġcreated":4378,"Ġpetals":4379,"Ġjourn":4380,"Ġimagination":4381,"Ġsuperhero":4382,"ĠRuby":4383,"Ġbetween":4384,"Ġmeeting":4385,"Ġclassroom":4386,"Ġglowing":4387,"hic":4388,"Ġplastic":4389,"Ġtwink":4390,"Ġopera":4391,"Ġvehic":4392,"Ġkingdom":4393,"Ġmistakes":4394,"Ġmemories":4395,"Ġthermometer":4396,"Ġble":4397,"Ġcell":4398,"Ġpal":4399,"unately":4400,"Ġseeing":4401,"Ġshoulder":4402,"anges":4403,"Ġthrows":4404,"Ġfishing":4405,"lass":4406,"Ġmeat":4407,"Ġpassport":4408,"Ġceiling":4409,"Ġignored":4410,"Ġjellyfish":4411,"Ġslept":4412,"ues":4413,"Ġtax":4414,"ĠTony":4415,"Ġforgotten":4416,"Ġcelebrated":4417,"Ġradio":4418,"Ġskirt":4419,"Ġdoors":4420,"ngth":4421,"Ġteleph":4422,"Ġjournal":4423,"Ġoak":4424,"Ġmakeup":4425,"Ġheads":4426,"Ġpresents":4427,"Ġaccepted":4428,"Ġtelephone":4429,"arm":4430,"Ġstro":4431,"Ġallig":4432,"Your":4433,"agg":4434,"Ġflame":4435,"ĠCo":4436,"ĠdonÃ¢":4437,"Ġstrength":4438,"Ġvend":4439,"Ġthrowing":4440,"Ġpinch":4441,"Ġinfant":4442,"Ġfle":4443,"ĠBet":4444,"ents":4445,"Ġvet":4446,"Ġfile":4447,"chie":4448,"Ġloop":4449,"Ġswamp":4450,"Ġambul":4451,"Ġpoints":4452,"Ġapplaud":4453,"Ġgrocer":4454,"Ġtaxi":4455,"drobe":4456,"vision":4457,"urch":4458,"Ġalive":4459,"Ġwriting":4460,"Ġshouting":4461,"Ġbaking":4462,"Ġplanet":4463,"Ġwardrobe":4464,"Ġrubber":4465,"te":4466,"Ġcree":4467,"ores":4468,"Ġseas":4469,"Ġworth":4470,"Ġsung":4471,"Ġcube":4472,"Ġdiscu":4473,"Ġsteam":4474,"Ġwinter":4475,"Ġlemonade":4476,"achel":4477,"Ġmagazine":4478,"Ġpalace":4479,"Ġcreek":4480,"Because":4481,"Ġwags":4482,"Ġitch":4483,"ĠMiss":4484,"bbie":4485,"Ġshower":4486,"ĠRachel":4487,"Ġdiary":4488,"Ġsquirrels":4489,"Ġattach":4490,"ĠBuzz":4491,"Ġfolder":4492,"Ġhanging":4493,"Ġtelevision":4494,"Ġstrawberry":4495,"bor":4496,"ium":4497,"Ġaut":4498,"Ġstable":4499,"Ġboot":4500,"Ġquack":4501,"Ġgreedy":4502,"Ġfog":4503,"ggy":4504,"nam":4505,"Ġinse":4506,"ssible":4507,"Ġflapped":4508,"Ġparent":4509,"Ġprepare":4510,"Ġhelper":4511,"Ġknob":4512,"Ġchalk":4513,"Ġfollows":4514,"Ġsailing":4515,"Ġsurround":4516,"Ġmystery":4517,"Ġmedal":4518,"Ġsprayed":4519,"ito":4520,"Ġpra":4521,"ĠHelp":4522,"icop":4523,"Ġvac":4524,"Ġornam":4525,"Ġmoves":4526,"Ġdisappear":4527,"Ġserve":4528,"Ġhelicop":4529,"Ġargue":4530,"Ġalligator":4531,"Ġambulance":4532,"Ġhelicopter":4533,"sit":4534,"tress":4535,"ĠFirst":4536,"Ġgrin":4537,"Ġbelow":4538,"Ġsigns":4539,"Ġmattress":4540,"Ġharbor":4541,"ĠClara":4542,"ĠDanny":4543,"ĠSteve":4544,"ab":4545,"Ġwaving":4546,"una":4547,"rosc":4548,"Ġdressed":4549,"Ġstud":4550,"Ġfreez":4551,"ĠHowever":4552,"Ġeagerly":4553,"lasses":4554,"Ġsunglasses":4555,"Ġknown":4556,"ups":4557,"Ġminute":4558,"Ġmicrosc":4559,"ÅĵItÃ¢":4560,"Ġvendor":4561,"lier":4562,"Ġpopped":4563,"Ġfiref":4564,"ipping":4565,"Ġcherry":4566,"Ġmicroscope":4567,"Mum":4568,"case":4569,"Ġwine":4570,"ising":4571,"imi":4572,"igail":4573,"Ġweigh":4574,"Ġrequ":4575,"Ġrooms":4576,"Ġgrill":4577,"Ġletting":4578,"Ġfallen":4579,"Ġapart":4580,"Ġfauc":4581,"Ġpear":4582,"Ġberry":4583,"Ġrefre":4584,"Ġcomplain":4585,"Ġlanguage":4586,"Molly":4587,"ĠTina":4588,"elcome":4589,"Ġlawn":4590,"estig":4591,"Ġblackboard":4592,"Ġinvestig":4593,"Ġeasily":4594,"ĠGod":4595,"Ġwipe":4596,"Did":4597,"mm":4598,"Ġbreeze":4599,"ĠMimi":4600,"ĠEach":4601,"inky":4602,"Ġheaded":4603,"Ġquietly":4604,"ĠAbigail":4605,"aggie":4606,"Ġfaucet":4607,"tain":4608,"Ġsince":4609,"Ġcared":4610,"omob":4611,"iday":4612,"Ġthumb":4613,"amb":4614,"Ġcob":4615,"Ġtaller":4616,"Ġentered":4617,"Ġcrossed":4618,"Ġwhisper":4619,"And":4620,"Ġhappens":4621,"Ġleak":4622,"quito":4623,"Ġpoked":4624,"Ġsque":4625,"Ġchairs":4626,"Ġearlier":4627,"Ġkisses":4628,"Ġrelaxed":4629,"Ġreverse":4630,"Ġautomob":4631,"Ġig":4632,"Ġfought":4633,"Ġpur":4634,"ĠLuck":4635,"Ġstad":4636,"Ġsuff":4637,"Ġmusician":4638,"Ġregret":4639,"Ġcrawling":4640,"Ġimprove":4641,"Ġexercise":4642,"Ġigloo":4643,"Ġstadium":4644,"Ġwaste":4645,"ĠIÃ¢":4646,"Ġalarm":4647,"Ġcaring":4648,"Ġchurch":4649,"asis":4650,"Ġdelay":4651,"Ġdresses":4652,"Ġcrash":4653,"Ġapron":4654,"Ġsniffed":4655,"Ġwaffle":4656,"Ġvacation":4657,"Ġrequest":4658,"Mama":4659,"Ġwigg":4660,"Ġlumber":4661,"chor":4662,"Ġcliff":4663,"Ġfastest":4664,"Ġbalan":4665,"Ġolive":4666,"Ġseparate":4667,"Ġinvestigate":4668,"liday":4669,"web":4670,"yer":4671,"Ġsizes":4672,"Ġpoke":4673,"Ġholiday":4674,"Ġairpl":4675,"Ġinsect":4676,"'.":4677,"Ġoasis":4678,"Ġsaus":4679,"Ġclaw":4680,"Ġvroom":4681,"Ġsurprises":4682,"Ġappro":4683,"Ġsparkle":4684,"Ġpuzzles":4685,"Ġskills":4686,"squito":4687,"Ġcable":4688,"ero":4689,"Ġmosquito":4690,"orses":4691,"Ġshrink":4692,"Ġyogurt":4693,"Ġaer":4694,"Ġyield":4695,"Ġreaches":4696,"opl":4697,"Ġlotion":4698,"Ġamazement":4699,"Ġdear":4700,"Ġspots":4701,"fortunately":4702,"Ġbouncing":4703,"Ġdestination":4704,"Ġscattered":4705,"Ġcobweb":4706,"ĠLuckily":4707,"Ġaeropl":4708,"iately":4709,"ler":4710,"uch":4711,"Ġtucked":4712,"Ġhorses":4713,"ĠTed":4714,"ety":4715,"ĠMay":4716,"Ġisn":4717,"ĠJul":4718,"mediately":4719,"Ġincre":4720,"Ġsupply":4721,"Ġsplashing":4722,"Ġlawyer":4723,"Wait":4724,"was":4725,"Ġrake":4726,"sters":4727,"Ġoranges":4728,"Ġfloat":4729,"ĠWho":4730,"Ġmint":4731,"Ġsafety":4732,"Ġtrusted":4733,"Ġdishwas":4734,"ĠKatie":4735,"Ġdishwasher":4736,"mend":4737,"right":4738,"oral":4739,"ĠMilly":4740,"Ġunif":4741,"Ġhearts":4742,"Ġmailman":4743,"Ġcollected":4744,"Ġflutter":4745,"Ġyawned":4746,"Ġvehicle":4747,"ives":4748,"Ġpit":4749,"ommend":4750,"ĠitÃ¢":4751,"Ġanchor":4752,"aces":4753,"ĠSpike":4754,"Ġblueberries":4755,"Ġfloated":4756,"Ġshrugged":4757,"Ġshooting":4758,"Ġsqueeze":4759,"Ġbother":4760,"Ġsaving":4761,"Ġlaught":4762,"Ġrabbits":4763,"Ġcastles":4764,"Ġrecommend":4765,"Ġspending":4766,"Ġmuffin":4767,"Ġautomobile":4768,"nger":4769,"Ġtut":4770,"Ġtug":4771,"inked":4772,"ĠMaggie":4773,"icing":4774,"place":4775,"Ġpoppy":4776,"ction":4777,"Ġdemand":4778,"Ġchoice":4779,"Ġexamine":4780,"Ġachie":4781,"omes":4782,"Ġlicks":4783,"raged":4784,"Ġspade":4785,"ops":4786,"âĤ¬.":4787,"Ġquiz":4788,"Ġhurting":4789,"Ġconf":4790,"Ġsparkling":4791,"Ġworms":4792,"Ġcandles":4793,"Ġexperience":4794,"Ġribbon":4795,"ĠSad":4796,"Ġkneel":4797,"Ġstruc":4798,"Ġbookcase":4799,"Ġfollowing":4800,"Ġsqueezed":4801,"Ġuniform":4802,"Ġlaughter":4803,"Ġstructure":4804,"Ġagree":4805,"Ġburied":4806,"Ġeaten":4807,"Ġraz":4808,"Ġremove":4809,"ĠKing":4810,"Ġbumped":4811,"ĠFreddy":4812,"Ġpenguin":4813,"Ġpraised":4814,"Ġsigh":4815,"Ġmention":4816,"Ġplates":4817,"Ġbury":4818,"ĠPenny":4819,"Ġbeans":4820,"Ġinclud":4821,"Ġvideo":4822,"cakes":4823,"Ġsings":4824,"Ġtong":4825,"Ġrise":4826,"Ġplays":4827,"Ġspear":4828,"Ġsnap":4829,"Ġchess":4830,"Thanks":4831,"Ġinstr":4832,"Ġminer":4833,"Ġfuel":4834,"Ġflea":4835,"nies":4836,"Ġsimp":4837,"Ġscooped":4838,"Ġblinked":4839,"Ġhills":4840,"ĠOr":4841,"Ġtornado":4842,"Is":4843,"Yuck":4844,"Ġwashing":4845,"Ġequ":4846,"Ġsnapped":4847,"Ġunderstanding":4848,"Ġignore":4849,"Ġringing":4850,"Ġcaptain":4851,"ival":4852,"Ġbattery":4853,"Ġsettled":4854,"Ġdestroyed":4855,"Ġrazor":4856,"Ġdried":4857,"Ġmall":4858,"ionary":4859,"Ġkeeping":4860,"Ġideas":4861,"Ġgrowled":4862,"Ġblankets":4863,"Ġappreciate":4864,"Ġtoes":4865,"Ġpalm":4866,"Ġadmir":4867,"ictionary":4868,"ib":4869,"ple":4870,"Ġfest":4871,"Ġmanage":4872,"Ġwatches":4873,"Ġglo":4874,"Ġfireplace":4875,"Ġsits":4876,"Ġenter":4877,"Ġwandered":4878,"Ġsandcastle":4879,"Ġaeroplane":4880,"ived":4881,"Ġmyself":4882,"omeday":4883,"Ġlabel":4884,"Ġbleed":4885,"Ġdictionary":4886,"Ġport":4887,"amber":4888,"ĠIs":4889,"ĠĠĠ":4890,"ĠJoy":4891,"Ġbravely":4892,"Ġcoats":4893,"Ġmelted":4894,"Ġtide":4895,"Ġyucky":4896,"alley":4897,"Ġjunk":4898,"ĠEveryday":4899,"Ġsetting":4900,"Ġjewelry":4901,"Ġstrawberries":4902,"Ġyoga":4903,"Ġoats":4904,"Ġfreezer":4905,"ring":4906,"Ġtore":4907,"ĠIts":4908,"Ġscore":4909,"Ġroot":4910,"uggage":4911,"Ġsneeze":4912,"Ġstomach":4913,"Ġclaws":4914,"Ġtutor":4915,"Ġluggage":4916,"Ġpages":4917,"Ġpride":4918,"Ġtrade":4919,"Ġclimbs":4920,"Ġgifts":4921,"Mummy":4922,"loe":4923,"Ġsomeday":4924,"bey":4925,"Ġfloating":4926,"Ġmoments":4927,"Ġplanes":4928,"Ġhits":4929,"Ġvanished":4930,"Ġscratch":4931,"Ġairplane":4932,"Ġbeamed":4933,"Ġprop":4934,"Ġappear":4935,"umble":4936,"antly":4937,"Ġsub":4938,"Ġbelieved":4939,"Ġbeef":4940,"ĠChloe":4941,"Ġrepeat":4942,"Ġstruggling":4943,"rise":4944,"Ġga":4945,"Ġweap":4946,"ĠMe":4947,"Ġblueberry":4948,"Ġburning":4949,"Ġtemple":4950,"ah":4951,"ls":4952,"vet":4953,"Ġdire":4954,"Ġitem":4955,"Ġchores":4956,"Ġvalley":4957,"Ġjogging":4958,"emember":4959,"Ġdrain":4960,"Ġelephants":4961,"Ġwhistling":4962,"Ġweeks":4963,"Ġtongue":4964,"ishing":4965,"Ġgear":4966,"Ġnation":4967,"Ġshot":4968,"Ġsport":4969,"Ġimmediately":4970,"Ġcalls":4971,"Ġremain":4972,"ission":4973,"Ġcuddled":4974,"Ġpermission":4975,"ĠUnfortunately":4976,"ĠCoco":4977,"Ġfestival":4978,"ĠV":4979,"Ġlily":4980,"lend":4981,"Ġhers":4982,"Ġres":4983,"Ġranch":4984,"Ġchamber":4985,"Ġpoison":4986,"Ġsunrise":4987,"Ġraise":4988,"Ġcrunch":4989,"Ġteaching":4990,"Ġbathe":4991,"To":4992,"house":4993,"iers":4994,"Ġhomes":4995,"ĠBeth":4996,"Ġpulling":4997,"Ġsteak":4998,"Ġpatiently":4999,"Ġmarbles":5000,"Ġbreathe":5001,"Ġprovide":5002,"Ġhesit":5003,"ĠHave":5004,"uture":5005,"seek":5006,"aped":5007,"Ġcalend":5008,"ĠRemy":5009,"Ġpeanuts":5010,"Jimmy":5011,"Ġcalendar":5012,"'ve":5013,"osed":5014,"Ġfuture":5015,"Ġpaused":5016,"ĠLiz":5017,"Ġstitch":5018,"Ġjazz":5019,"Ġspit":5020,"ĠGood":5021,"Ġwarmth":5022,"Ġbuckle":5023,"Ġpastel":5024,"Ġcollecting":5025,"Ġticket":5026,"ĠPeople":5027,"allow":5028,"ipment":5029,"Ġthrilled":5030,"Ġdifferen":5031,"Ġhotel":5032,"Ġprayed":5033,"Ġapproached":5034,"Ġdaisy":5035,"Ġgust":5036,"Ġshed":5037,"fume":5038,"Ġalright":5039,"Ġtease":5040,"Ġwarning":5041,"ĠAnne":5042,"Ġencouraged":5043,"Ġchirping":5044,"Ġequipment":5045,"Ġbegged":5046,"Ġsocks":5047,"Ġshamp":5048,"Ġcoal":5049,"Ġskull":5050,"Ġskipping":5051,"Ġperfume":5052,"Ġanswers":5053,"Ġmissile":5054,"Ġpanic":5055,"Ġearthqu":5056,"Ġpunish":5057,"Ġinsisted":5058,"Ġshampoo":5059,"Ġcakes":5060,"Ġnone":5061,"Ġlick":5062,"Ġrestore":5063,"osity":5064,"Ġsoldiers":5065,"Ġtwisted":5066,"mother":5067,"Ġmeowed":5068,"Ġdoggy":5069,"Ġhardly":5070,"xture":5071,"Ġguy":5072,"Ġrespons":5073,"Ġsolved":5074,"Ġjewels":5075,"Ġreceived":5076,"Ġobserve":5077,"Qu":5078,"Welcome":5079,"shing":5080,"Ġlect":5081,"anny":5082,"Ġevent":5083,"Ġsore":5084,"Ġlic":5085,"Ġsew":5086,"Ġunite":5087,"Ġreceive":5088,"Ġbricks":5089,"Ġrevealed":5090,"Ġlecture":5091,"Jill":5092,"fy":5093,"Ġpist":5094,"anna":5095,"ĠNut":5096,"Ġbites":5097,"These":5098,"Ġdeeper":5099,"Ġordered":5100,"Ġpistol":5101,"Ouch":5102,"act":5103,"Ġbang":5104,"Ġdigg":5105,"Ġsty":5106,"Ġfasc":5107,"Ġcopper":5108,"Ġcomfy":5109,"Ġparts":5110,"Ġmatches":5111,"Ġpatterns":5112,"Ġrecognized":5113,"Ġrefreshed":5114,"rs":5115,"Ġemer":5116,"Ġremained":5117,"Ġworks":5118,"Ġinvite":5119,"Ġdigging":5120,"Ġsip":5121,"ities":5122,"Ġrow":5123,"Ġupstairs":5124,"Ġjail":5125,"Ġchir":5126,"ases":5127,"Ġblood":5128,"Ġdrinking":5129,"Ġwarn":5130,"Ġsupposed":5131,"Ġhate":5132,"Ġracing":5133,"Ġmustache":5134,"Ġdiscovery":5135,"ÅĵThatÃ¢":5136,"Ġdiscuss":5137,"Ġgrinned":5138,"Ġchirped":5139,"cc":5140,"sity":5141,"ari":5142,"ĠNot":5143,"Ġwherever":5144,"Ġrush":5145,"Ġours":5146,"Ġbookshe":5147,"Ġcircus":5148,"Ġurge":5149,"Ġmeasured":5150,"Ġsimple":5151,"Ġfascin":5152,"\",":5153,"ĠMat":5154,"Ġgirls":5155,"Ġspill":5156,"Ġdecision":5157,"Ġsunlight":5158,"Ġmass":5159,"Ġplanted":5160,"Ġgrape":5161,"Ġlicense":5162,"bers":5163,"eed":5164,"lvet":5165,"riger":5166,"Ġeff":5167,"Ġbeg":5168,"Ġjogged":5169,"Ġreplace":5170,"Ġcrashed":5171,"Ġvelvet":5172,"Ġpigs":5173,"ĠBubbles":5174,"Ġapologize":5175,"Ġrefriger":5176,"Ġbuzzing":5177,"Ġsuffer":5178,"Ġearthquake":5179,"Ġrefrigerator":5180,"Ġbak":5181,"Ġobey":5182,"allen":5183,"ĠFo":5184,"Ġglowed":5185,"Ġwrites":5186,"spap":5187,"Ġactually":5188,"ĠChirp":5189,"Ġclearing":5190,"ĠNutty":5191,"Mmm":5192,"oved":5193,"Ġheat":5194,"!\",":5195,"Ġnewspap":5196,"Ġraised":5197,"ÅĵNo":5198,"Ġbringing":5199,"ĠOl":5200,"Ġeasier":5201,"ĠChr":5202,"Ġselling":5203,"Ġuniversity":5204,"Ġweapon":5205,"Ġdifference":5206,"tory":5207,"Ġbill":5208,"Ġhistory":5209,"Ġchallen":5210,"Ġrested":5211,"Ġmarching":5212,"Ġbathrobe":5213,"Ġinvit":5214,"Ġawe":5215,"Ġsettle":5216,"Ġcartoons":5217,"Ġbookshelf":5218,"Ġtoe":5219,"oming":5220,"Ġgain":5221,"htray":5222,"Ġashtray":5223,"Ġworse":5224,"Ġlaid":5225,"ĠPoppy":5226,"Ġlets":5227,"Ġturning":5228,"Ġcontinue":5229,"Ġsparkles":5230,"Ġlands":5231,"Ġdecorations":5232,"Ġprepared":5233,"kins":5234,"Ġbes":5235,"Ġfed":5236,"enty":5237,"Ġwhip":5238,"Ġscur":5239,"Ġflood":5240,"ĠSuzy":5241,"Ġstrang":5242,"Ġremem":5243,"Ġcompany":5244,"Ġspoons":5245,"Ġfirefight":5246,"Ġdare":5247,"llie":5248,"ĠLucky":5249,"ĠFro":5250,"Ġslip":5251,"Ġwatered":5252,"ĠCat":5253,"Ġhated":5254,"Ġagreement":5255,"ĠFloppy":5256,"Ġbrick":5257,"Ġmenu":5258,"Ġremembers":5259,"ging":5260,"ĠLuna":5261,"Ġtremb":5262,"bbled":5263,"Ġproblems":5264,"ude":5265,"Ġsoared":5266,"ĠBy":5267,"Ġpossible":5268,"izard":5269,"Ġfamil":5270,"Ġchewed":5271,"Ġadmiring":5272,"Ġcrunchy":5273,"Ġmitten":5274,"Ġwanting":5275,"Ġattached":5276,"Ġexamined":5277,"Ġtomatoes":5278,"Ġdisagre":5279,"Would":5280,"fied":5281,"walk":5282,"ĠMoral":5283,"Ġweren":5284,"indy":5285,"Ġmonsters":5286,"looking":5287,"Ġsprinkles":5288,"Ġbeside":5289,"ha":5290,"Ġtip":5291,"Ġslice":5292,"Ġfixing":5293,"Ġpracticing":5294,"Ġvillag":5295,"ÅĵIÃ¢":5296,"Ġneighborhood":5297,"Ġpupil":5298,"Ġcurled":5299,"ĠChirpy":5300,"Ġstrangers":5301,"ĠHoppy":5302,"Ġrust":5303,"Ġflap":5304,"Ġoper":5305,"Ġgrey":5306,"Ġbrain":5307,"Ġcub":5308,"ĠGre":5309,"Ġtrapped":5310,"Ġtracks":5311,"Ġmouths":5312,"ĠFrank":5313,"Really":5314,"Ġgrocery":5315,"Ġsurrounded":5316,"Ġeffort":5317,"Ġnewspaper":5318,"Sp":5319,"cles":5320,"hest":5321,"Ġcal":5322,"Ġonwards":5323,"Ġweight":5324,"ĠAn":5325,"ĠJam":5326,"Ġpeel":5327,"Ġwond":5328,"Ġcontain":5329,"Ġcutting":5330,"Ġgloves":5331,"Ġwre":5332,"Ġbun":5333,"Ġhanger":5334,"ĠAd":5335,"Ġflav":5336,"ĠCar":5337,"ĠRob":5338,"Ġfreeze":5339,"ĠBetsy":5340,"nie":5341,"xy":5342,"nday":5343,"Ġwaist":5344,"ĠTilly":5345,"Ġduring":5346,"ora":5347,"Ġspaces":5348,"ĠSunday":5349,"Ġperched":5350,"Ġcomple":5351,"Ġsidewalk":5352,"Ġcollection":5353,"Ġsafari":5354,"Ġseats":5355,"Ġguns":5356,"Ġpinched":5357,"Ġescaped":5358,"Ġrides":5359,"Ġmodel":5360,"Ġsubway":5361,"Ġvillagers":5362,"Will":5363,"Ġrhy":5364,"Ġdownstairs":5365,"Ġrained":5366,"Ġtalent":5367,"Ġbowed":5368,"Ġbuildings":5369,"Ġpaints":5370,"Ġreminder":5371,"Ġwisdom":5372,"Ġargued":5373,"Ġcostumes":5374,"Ġsausage":5375,"aded":5376,"ĠAm":5377,"Ġfashion":5378,"Ġwaits":5379,"Ġdrinks":5380,"Ġwhistled":5381,"Ġintroduc":5382,"Al":5383,"uing":5384,"Ġwizard":5385,"Ġmister":5386,"ĠMad":5387,"Ġgotten":5388,"Ġzipped":5389,"Ġfiremen":5390,"Ġvisiting":5391,"Ġaccidents":5392,"Ġsliding":5393,"Ġtwigs":5394,"Ġmemory":5395,"Ġpermit":5396,"Bob":5397,"Sh":5398,"do":5399,"neath":5400,"Ġx":5401,"Ġsix":5402,"Ġwid":5403,"Ġpitch":5404,"Ġmuddy":5405,"Ġpeered":5406,"thm":5407,"Ġzero":5408,"Ġsteel":5409,"Ġpetted":5410,"Ġpancakes":5411,"Ġprice":5412,"Ġdinosaurs":5413,"Ġmineral":5414,"Ġbleeding":5415,"Ġbones":5416,"Ġweighed":5417,"Ġpears":5418,"Ġanytime":5419,"ĠJosh":5420,"ĠJenna":5421,"Ġeagle":5422,"Ġmountains":5423,"Ġmeasuring":5424,"ĠSadly":5425,"Ġbunnies":5426,"Ok":5427,"Yum":5428,"ided":5429,"atch":5430,"Ġsting":5431,"isten":5432,"Ġpearl":5433,"ÅĵThank":5434,"Ġneighbors":5435,"Ġfolded":5436,"Ġhurric":5437,"Ha":5438,"ĠTiny":5439,"Ġlamb":5440,"Ġnavy":5441,"Ġarea":5442,"Ġbrid":5443,"Ġchef":5444,"Ġvoices":5445,"Ġshopping":5446,"avi":5447,"ĠSomeone":5448,"Ġscratched":5449,"Ġgrandmother":5450,"Ġencourage":5451,"Ġpadd":5452,"Ġbrushed":5453,"Ġprune":5454,"ĠSure":5455,"Ġbrings":5456,"Ġmeow":5457,"asp":5458,"Ġdecides":5459,"Ġbeds":5460,"Ġswims":5461,"Ġpets":5462,"Ġbottles":5463,"Ġpillows":5464,"Ġguessed":5465,"Ġpedal":5466,"Ġmassage":5467,"Ġwonders":5468,"!'":5469,"Not":5470,"Ġlung":5471,"Ġripped":5472,"riage":5473,"Ġleather":5474,"Ġsnowball":5475,"Ġsecrets":5476,"ĠOut":5477,"Ġcomforted":5478,"Ġinvitation":5479,"Ġhurricane":5480,"cage":5481,"mare":5482,"son":5483,"ĠThese":5484,"ides":5485,"Ġhappiest":5486,"terday":5487,"ica":5488,"Ġbirdcage":5489,"Ġrang":5490,"Ġoverjoy":5491,"ĠLetÃ¢":5492,"Ġcatching":5493,"Ġcuddle":5494,"Ġornament":5495,"Ġfascinated":5496,"Ġdisagreed":5497,"Ġoverjoyed":5498,"She":5499,"cious":5500,"len":5501,"ĠSunny":5502,"Ġscoop":5503,"Ġstruck":5504,"Ġunderground":5505,"Ġstole":5506,"Ġmarkers":5507,"Ġzooming":5508,"ĠZoe":5509,"Ready":5510,"Ġwaffles":5511,"Ġinstruct":5512,"Ġstyle":5513,"Ġoperation":5514,"xygen":5515,"Ġrhythm":5516,"Little":5517,"igz":5518,"ĠFor":5519,"Ġpupp":5520,"Ġpretti":5521,"Ġsnail":5522,"ĠCindy":5523,"Ġkindly":5524,"Ġbrand":5525,"ĠPr":5526,"Ġnightmare":5527,"ĠOllie":5528,"Ġactiv":5529,"Ġsneezed":5530,"Ġrecognize":5531,"Ġbridges":5532,"Ġprettiest":5533,"Or":5534,"ays":5535,"Ġrele":5536,"Ġexact":5537,"Ġeveryday":5538,"Ġblouse":5539,"Ġvowed":5540,"Ġteasp":5541,"Ġrail":5542,"Ġcones":5543,"ĠRa":5544,"Ġtastes":5545,"Ġdrift":5546,"Ġsatis":5547,"Ġwooden":5548,"Ġdoctors":5549,"laire":5550,"Ġhurried":5551,"Ġsucceeded":5552,"Ġdisturbed":5553,"Ġtravell":5554,"ĠAdam":5555,"Ġteaspoon":5556,"mble":5557,"oed":5558,"Ġtugged":5559,"Ġbare":5560,"ĠJan":5561,"Ġcontro":5562,"ĠSomething":5563,"Ġpiles":5564,"ĠSharing":5565,"Ġstudied":5566,"Ġbillboard":5567,"gers":5568,"Ġoxygen":5569,"etch":5570,"Ġstruggled":5571,"Ġimage":5572,"Ġbye":5573,"aster":5574,"ÅĵLook":5575,"Ġkeeps":5576,"Ġcrept":5577,"Ġtune":5578,"Ġacorns":5579,"Ġmuffins":5580,"Ġlips":5581,"Ġitems":5582,"uke":5583,"Ġlines":5584,"Ġcaut":5585,"ĠBig":5586,"Ġtremble":5587,"anta":5588,"Ġunderneath":5589,"ÅĵDon":5590,"Ġladyb":5591,"Ġperfor":5592,"Ġplanned":5593,"Ġserved":5594,"Ġbloomed":5595,"ĠJessie":5596,"Ġincluded":5597,"Ġspaceship":5598,"imy":5599,"ĠLizzy":5600,"Ġloving":5601,"Ġofficer":5602,"Ġsuitc":5603,"avid":5604,"Ġparked":5605,"Ġscreams":5606,"Ġtickets":5607,"Ġsoaring":5608,"Ġmentioned":5609,"Ġresponsible":5610,"Ġbegin":5611,"ĠJamie":5612,"ding":5613,"Ġwagging":5614,"ĠSlow":5615,"Ġbeat":5616,"Ġbeard":5617,"ĠItÃ¢":5618,"Ġsorting":5619,"ÅĵWe":5620,"Ġkeeper":5621,"Ġcreation":5622,"ffic":5623,"Ġtraffic":5624,"Ġlandsc":5625,"ĠUncle":5626,"Ġneighbourhood":5627,"ĠJulie":5628,"Ġcompleted":5629,"Ġtonight":5630,"ĠSanta":5631,"ĠHop":5632,"Ġeight":5633,"Ġeats":5634,"Ġhonk":5635,"Ġsights":5636,"Ġshivered":5637,"Ġpotatoes":5638,"Ġolives":5639,"Ġdied":5640,"Ġgained":5641,"Ġbend":5642,"ĠDavid":5643,"Ġcuriosity":5644,"Ġemergen":5645,"Ġscurried":5646,"Ġintroduced":5647,"Ġinstructions":5648,"Remember":5649,"ĠJon":5650,"Ġvent":5651,"Ġprecious":5652,"izing":5653,"ĠClaire":5654,"Ġpaintings":5655,"Ġdecorated":5656,"Ġuniverse":5657,".'":5658,"Ġnicer":5659,"Ġago":5660,"Ġwhatever":5661,"Ġrealize":5662,"Ġsteep":5663,"Ġaccom":5664,"Ġmachines":5665,"Ġmovies":5666,"Ġcompetition":5667,"Ġshadows":5668,"Ġprunes":5669,"Ġexactly":5670,"Ġsi":5671,"Ġann":5672,"Ġrocked":5673,"ĠGr":5674,"Ġune":5675,"Ġdraws":5676,"Ġguest":5677,"Ġprotected":5678,"Ġsolut":5679,"uctantly":5680,"igzag":5681,"Ġlandscape":5682,"Billy":5683,"ux":5684,"zen":5685,"Ġsadness":5686,"Ġslapped":5687,"ĠPip":5688,"Ġowned":5689,"Ġbeha":5690,"Ġprinter":5691,"Ġfrosting":5692,"Ġbeneath":5693,"Ġpowers":5694,"Ġintroduce":5695,"Ġproperly":5696,"Ġwreck":5697,"ĠSlowly":5698,"uxu":5699,"bies":5700,"Ġbank":5701,"Ġinch":5702,"bert":5703,"Ġshoulders":5704,"Ġyelling":5705,"Ġcontest":5706,"Ġpouring":5707,"Ġlemons":5708,"Ġlibrarian":5709,"Ġstealing":5710,"âĤ¬âĢĿ":5711,"Ġrubbing":5712,"Ġpenguins":5713,"Ġreleased":5714,"Ye":5715,"ales":5716,"Ġluxu":5717,"Ġweb":5718,"ĠJe":5719,"Ġknelt":5720,"Ġruin":5721,"Ġbabies":5722,"Ġsisters":5723,"iggy":5724,"Ġmixing":5725,"Ġkeys":5726,"Ġgathering":5727,"Ġtwirling":5728,"Ġsilence":5729,"Ġurged":5730,"fit":5731,"hins":5732,"ĠBir":5733,"ashed":5734,"Ġstruggle":5735,"Ġpurred":5736,"Ġcontrol":5737,"omas":5738,"Ġtheirs":5739,"Ġsorted":5740,"ĠAfterwards":5741,"Ġforgi":5742,"ĠDolly":5743,"Ġfrozen":5744,"Ġreluctantly":5745,"Ġunlocked":5746,"Ġcrackers":5747,"Ġfireworks":5748,"Ġbarely":5749,"Ġaccompl":5750,"rr":5751,"Ġsides":5752,"Ġmice":5753,"ishes":5754,"Ġsoak":5755,"Ġshock":5756,"Ġoutdo":5757,"Ġexit":5758,"Ġbudge":5759,"Ġdragged":5760,"Ġcrumb":5761,"Ġmuscles":5762,"Ġspiders":5763,"Ġpunished":5764,"Ġstripes":5765,"Ġchallenge":5766,"iar":5767,"int":5768,"Ġdam":5769,"Ġloose":5770,"Ġoutfit":5771,"Ġglitter":5772,"ÅĵCan":5773,"ĠNick":5774,"Ġpastels":5775,"Ġbouncy":5776,"Ġdolphins":5777,"Ġrepeated":5778,"Ġachieve":5779,"Ex":5780,"Gra":5781,"zing":5782,"Ġ1":5783,"ppers":5784,"Ġranger":5785,"agull":5786,"Ġopin":5787,"thank":5788,"though":5789,"Ġwaiter":5790,"Ġbreaking":5791,"Ġprinted":5792,"Ġwinning":5793,"Ġpockets":5794,"Ġexpect":5795,"Ġexpected":5796,"Ġroads":5797,"Ġroaring":5798,"Ġfigured":5799,"Daddy":5800,"Ġemergency":5801,"rance":5802,"ĠQu":5803,"Ġthro":5804,"Ġlied":5805,"Ġchases":5806,"ĠDid":5807,"Ġbecoming":5808,"bbing":5809,"Ġbuckets":5810,"Ġmission":5811,"ĠStop":5812,"Ġpoliceman":5813,"Ġbrushes":5814,"uesday":5815,"Spot":5816,"Ġthroat":5817,"ien":5818,"edding":5819,"ĠTuesday":5820,"ĠLike":5821,"Ġseagull":5822,"Ġclick":5823,"Ġpeaches":5824,"Ġslimy":5825,"ĠletÃ¢":5826,"Ġwondering":5827,"ĠThomas":5828,"ĠEmmy":5829,"Ġplanets":5830,"Ġentire":5831,"Ġstirring":5832,"Ġscreaming":5833,"Ġclaps":5834,"Ġdiscovering":5835,"Ġcamping":5836,"Ġcrowd":5837,"Happy":5838,"Somet":5839,"Ġwest":5840,"Ġtour":5841,"Ġpies":5842,"Ġsnugg":5843,"Ġseesaw":5844,"Ġsitu":5845,"Ġstaring":5846,"Ġstretching":5847,"Ġsneaked":5848,"Ġapplauded":5849,"Ġincrease":5850,"Ġguys":5851,"ÅĵDonÃ¢":5852,"pected":5853,"xpected":5854,"ĠFu":5855,"Ġhomework":5856,"Ġhowever":5857,"ĠPipp":5858,"Ġacted":5859,"Ġspraying":5860,"Ġcountryside":5861,"Ġbalancing":5862,"Ġsiren":5863,"Ġunexpected":5864,"die":5865,"zie":5866,"Ġboo":5867,"Ġfart":5868,"itely":5869,"Ġda":5870,"ĠHanna":5871,"lee":5872,"Ġworries":5873,"Ġgoodnight":5874,"Ġtouching":5875,"Ġhighest":5876,"ĠAlways":5877,"Ġgiggling":5878,"Goodbye":5879,"Ġconfident":5880,"Ġtrembling":5881,"Ġcautious":5882,"Ġsuitcase":5883,"Ġoutdoors":5884,"bric":5885,"jam":5886,"ĠYes":5887,"ern":5888,"Ġheel":5889,"Ġmittens":5890,"ĠBoth":5891,"Ġallow":5892,"Ġfabric":5893,"Ġteasing":5894,"ĠNan":5895,"Ġbroom":5896,"Ġourselves":5897,"ults":5898,"ĠKay":5899,"Ġmarriage":5900,"Ġpassing":5901,"Ġscru":5902,"Ġleader":5903,"Ġdemanded":5904,"Ġsighs":5905,"ĠMatt":5906,"Ġladybug":5907,"jamas":5908,"hell":5909,"Ġcape":5910,"Ġplenty":5911,"Ġscra":5912,"Ġmatching":5913,"Ġrainbows":5914,"Ġentrance":5915,"Ġsupplies":5916,"Ġshivering":5917,"Ġnails":5918,"Ġdirection":5919,"Ġluxury":5920,"vers":5921,"Ġripe":5922,"Ġstare":5923,"Ġrelease":5924,"inda":5925,"Ġflat":5926,"Ġvict":5927,"Ġgrant":5928,"Ġsweets":5929,"Ġbaked":5930,"ulu":5931,"Ġreaching":5932,"Ġwinner":5933,"Ġcompletely":5934,"ĠRover":5935,"Ġsatisfied":5936,"Ġsolution":5937,"dies":5938,"Ġmater":5939,"aky":5940,"Ġgreet":5941,"Ġtexture":5942,"Ġrestored":5943,"Ġcuts":5944,"ĠJessica":5945,"...":5946,"Ġtwinkling":5947,"Ġmateri":5948,"Ah":5949,"nes":5950,"Ġti":5951,"Ġwedding":5952,"Ġheav":5953,"ĠLarry":5954,"ason":5955,"Ġpoking":5956,"aced":5957,"Ġsweeties":5958,"Ġproject":5959,"Ġcurly":5960,"Ġsurface":5961,"Ġcurtains":5962,"Ġseason":5963,"Ġbalanced":5964,"Ġresult":5965,"ĠRabbit":5966,"ody":5967,"vin":5968,"Ġbunch":5969,"Ġfara":5970,"Ġge":5971,"ĠHappy":5972,"ĠLinda":5973,"ĠLulu":5974,"Ġeast":5975,"ĠBird":5976,"ĠMick":5977,"aren":5978,"Ġsnakes":5979,"ĠCarl":5980,"ÅĵHello":5981,"ĠPinky":5982,"Ġwritten":5983,"Ġsinger":5984,"Ġrolls":5985,"Ġpajamas":5986,"Ġpastries":5987,"Ġinterest":5988,"Ġrescued":5989,"cuse":5990,"Ġloaded":5991,"lowers":5992,"Ġquacked":5993,"ĠHannah":5994,"Ġfaraway":5995,"uly":5996,"Ġwound":5997,"ednes":5998,"ĠWednes":5999,"Ġcomm":6000,"Ġforehead":6001,"Ġunited":6002,"ĠNina":6003,"acob":6004,"Ġzigzag":6005,"Ġpolishing":6006,"Ġmarker":6007,"Ġprayer":6008,"Ġhorns":6009,"Ġmelting":6010,"Ġrecorded":6011,"Ġstudying":6012,"Ġtasks":6013,"Ġpaddle":6014,"Ġinclude":6015,"Ġburrow":6016,"Ġdisagree":6017,"Ġkneeled":6018,"Today":6019,"ĠWednesday":6020,"ĠLuke":6021,"Ġboom":6022,"Ġflames":6023,"Ġstrings":6024,"ÅĵThis":6025,"ĠKe":6026,"Ġcreating":6027,"Ġmatched":6028,"Ġdeser":6029,"Ġtrips":6030,"Ġcrabs":6031,"Ġmagnets":6032,"Ġshelves":6033,"Excuse":6034,"pe":6035,"ĠTess":6036,"Ġstair":6037,"ĠMon":6038,"ĠAbbie":6039,"icorn":6040,"Ġcatches":6041,"Ġslap":6042,"Ġbravery":6043,"Ġunicorn":6044,"Ġtowels":6045,"Ġkicking":6046,"Ġcheering":6047,"Ġvanish":6048,"Ġdusty":6049,"Ġphotos":6050,"ĠAmel":6051,"When":6052,"Ëľ":6053,"Ġwink":6054,"Ġdent":6055,"ena":6056,"igi":6057,"une":6058,"Ġstartled":6059,"âĤ¬Ëľ":6060,"Ġchat":6061,"Ġblink":6062,"Ġpebbles":6063,"ledge":6064,"Ġbedtime":6065,"Ġreplaced":6066,"Ġsingle":6067,"Ġdragons":6068,"Ġmotion":6069,"Ġpencils":6070,"Ġbumps":6071,"Ġstamps":6072,"Ġweeping":6073,"Ġitchy":6074,"Ġornaments":6075,"Ġgazed":6076,"Ġventured":6077,"go":6078,"hee":6079,"Ġsway":6080,"Ġfetch":6081,"irm":6082,"ĠBye":6083,"ĠJacob":6084,"Ġhugging":6085,"Ġknowledge":6086,"Ġtruly":6087,"ĠJacky":6088,"ĠGigi":6089,"Ġworker":6090,"Ġcracked":6091,"Ġbuying":6092,"Ġhealed":6093,"Ġmisses":6094,"Ġarguing":6095,"Ġregretted":6096,"Sometimes":6097,"cers":6098,"ĠMira":6099,"Ġremoved":6100,"ÅĵMommy":6101,"Ġwrist":6102,"Ġfoods":6103,"Ġtractor":6104,"Ġrainco":6105,"Ġsticking":6106,"Ġusually":6107,"Ġprints":6108,"Ġdrives":6109,"ĠwasnÃ¢":6110,"Ġpolished":6111,"angled":6112,"Ġpatience":6113,"Ġrelief":6114,"Ġrockets":6115,"Ġtickle":6116,"Ġcovers":6117,"Ġsandcastles":6118,"ĠBetty":6119,"ĠChrist":6120,"Ġactivities":6121,"Ġfarther":6122,"Ġraincoat":6123,"boo":6124,"cope":6125,"iles":6126,"Ġrumble":6127,"Ġstern":6128,"Ġshined":6129,"Ġcans":6130,"Ġroots":6131,"ĠSuzie":6132,"ĠChe":6133,"ĠPam":6134,"Ġexplorers":6135,"Ġstolen":6136,"Ġusual":6137,"Ġopening":6138,"Ġgrowling":6139,"hog":6140,"Ġchewing":6141,"Ġflags":6142,"Ġpeeking":6143,"Ġstrike":6144,"ĠSophia":6145,"Ġobserved":6146,"ĠAmelia":6147,"lings":6148,"you":6149,"Ġcent":6150,"Ġpout":6151,"ords":6152,"ĠMany":6153,"ĠAbby":6154,"ĠEx":6155,"usted":6156,"ÅĵOh":6157,"Ġsmiley":6158,"Ġuses":6159,"Ġyells":6160,"Ġpartic":6161,"Ġthreat":6162,"Ġcoloured":6163,"Ġglasses":6164,"Ġtraveled":6165,"Yeah":6166,"ĠKayla":6167,"Ġbumpy":6168,"Ġrisk":6169,"Ġyouth":6170,"Ġspike":6171,"opes":6172,"Ġfault":6173,"Ġchips":6174,"Ġsnat":6175,"Ġrocking":6176,"Ġruler":6177,"Ġgrowl":6178,"Ġcelebration":6179,"Ġherbs":6180,"abel":6181,"Ġfirefighters":6182,"mas":6183,"rious":6184,"ĠMa":6185,"ĠAunt":6186,"ĠJay":6187,"indr":6188,"ĠElly":6189,"ĠEls":6190,"ĠFriend":6191,"Ġchuck":6192,"asm":6193,"Ġraindr":6194,"ÅĵWhy":6195,"Ġstaying":6196,"ĠPl":6197,"oys":6198,"Ġowners":6199,"Ġteaches":6200,"Ġdesert":6201,"Ġvalued":6202,"Ġtickled":6203,"Ġsilent":6204,"Ġfreed":6205,"Ġseems":6206,"Ġsquares":6207,"Ġrubs":6208,"Ġhedgehog":6209,"Ġimproved":6210,"Ġseashell":6211,"Ġsquealed":6212,"Ġcrumbs":6213,"Ġvictory":6214,"Ro":6215,"jo":6216,"Ġdipped":6217,"Ġsobbed":6218,"ĠDays":6219,"Ġlistens":6220,"Ġrule":6221,"Ġyesterday":6222,"Ġcreamy":6223,"Ġpatted":6224,"ĠOwl":6225,"Ġtemper":6226,"Ġfuzzy":6227,"Ġparticular":6228,"Ġtodd":6229,"Ġfirm":6230,"Ġcaused":6231,"Ġden":6232,"ĠLou":6233,"Ġbead":6234,"Ġexha":6235,"ĠWater":6236,"Ġlap":6237,"bbly":6238,"Ġpeppers":6239,"Ġcoloring":6240,"ĠLeave":6241,"Ġadding":6242,"Ġwandering":6243,"Ġwiggled":6244,"Ġfamilies":6245,"ĠGreen":6246,"ĠJeff":6247,"ĠChristmas":6248,"oh":6249,"hello":6250,"Ġcash":6251,"iding":6252,"ences":6253,"opsy":6254,"Ġworkers":6255,"Ġwinked":6256,"Ġsafer":6257,"Ġreveal":6258,"Ġtwinkle":6259,"Ġgaze":6260,"Ġopinion":6261,"Ġsituation":6262,"Ġraindrops":6263,"Then":6264,"pite":6265,"Ġast":6266,"Ġcous":6267,"Ġdared":6268,"Ġpause":6269,"isies":6270,"esome":6271,"Ġech":6272,"Ġnect":6273,"ĠcanÃ¢":6274,"Ġfaced":6275,"Ġchoo":6276,"Ġneedles":6277,"ĠSpark":6278,"itches":6279,"Ġresting":6280,"Ġarrive":6281,"ĠKaren":6282,"Ġagrees":6283,"Ġpacking":6284,"Ġactions":6285,"Ġunpacked":6286,"Ġdaisies":6287,"Ġexhausted":6288,"Ġnectar":6289,"Fine":6290,"Uh":6291,"band":6292,"eke":6293,"fl":6294,"Ġtim":6295,"Ġaff":6296,"Ġlined":6297,"Ġcough":6298,"Ġwasted":6299,"ley":6300,"ĠyouÃ¢":6301,"Ġgoals":6302,"urry":6303,"Ġmane":6304,"Ġswooped":6305,"ĠCra":6306,"Ġdeli":6307,"oline":6308,"Ġbowls":6309,"Ġinviting":6310,"Ġpleasure":6311,"Ġnetwork":6312,"Ġawesome":6313,"Ġjackets":6314,"Ġdelivered":6315,"ĠFollow":6316,"Ġscrubbed":6317,"Ġtemperature":6318,"njoy":6319,"Ġcause":6320,"arter":6321,"immer":6322,"oni":6323,"Ġliqu":6324,"Ġsmarter":6325,"ĠJu":6326,"ĠJune":6327,"Ġrobb":6328,"ongo":6329,"ĠCu":6330,"Ġbehavi":6331,"Ġreads":6332,"Ġdarkness":6333,"Ġfairies":6334,"Ġmarked":6335,"Ġwarri":6336,"Ġspeaking":6337,"ĠZoom":6338,"Ġblooming":6339,"Ġcopy":6340,"Ġhallway":6341,"Ġgroceries":6342,"Ġliquid":6343,"Gre":6344,"hile":6345,"Ġwow":6346,"eds":6347,"Ġhi":6348,"Ġpiggy":6349,"Ġsoaked":6350,"ĠBongo":6351,"Ġwears":6352,"ĠMel":6353,"Ġscales":6354,"Ġfever":6355,"Ġknees":6356,"ĠPo":6357,"ĠRobby":6358,"Ġimportance":6359,"uggles":6360,"Ġprincesses":6361,"ĠOw":6362,"Ġreply":6363,"Ġblows":6364,"ĠSnuggles":6365,"Ġwires":6366,"Ġachieved":6367,"Ġcalmed":6368,"Ġdrifted":6369,"Ġcautiously":6370,"Ġsnatched":6371,"ĠY":6372,"Ġty":6373,"irts":6374,"Ġstem":6375,"Ġseven":6376,"ĠJones":6377,"ĠJazz":6378,"Ġsomebody":6379,"ĠMomo":6380,"Ġyourselves":6381,"ĠFlopsy":6382,"ĠwouldnÃ¢":6383,"Ġcowb":6384,"izzie":6385,"Ġleading":6386,"Ġribbons":6387,"Ġrecommended":6388,"Ġinterested":6389,"Ġchuckled":6390,"Ġbeads":6391,"Ġdelivery":6392,"Ch":6393,"ossible":6394,"Ġsense":6395,"Ġbars":6396,"Ġglee":6397,"ĠMil":6398,"Ġspong":6399,"ĠFar":6400,"Ġswirl":6401,"Ġtwin":6402,"emma":6403,"Ġimpossible":6404,"boat":6405,"Ġpots":6406,"ĠSusan":6407,"Ġmasks":6408,"ÅĵWhatÃ¢":6409,"Ġfluttered":6410,"Ġbakery":6411,"Ġsnowballs":6412,"Ġdentist":6413,"Just":6414,"mies":6415,"Ġmes":6416,"igning":6417,"Ġrip":6418,"ĠBinky":6419,"Ġkites":6420,"Ġlosing":6421,"Ġremote":6422,"Ġbadge":6423,"Ġdreamt":6424,"Ġnaps":6425,"Ġnapkins":6426,"Ġorganizing":6427,"ĠBuzzy":6428,"Ġwipes":6429,"ĠZoomy":6430,"Ġknights":6431,"Ġhelmets":6432,"ĠRobbie":6433,"Ġtempt":6434,"Ġstroll":6435,"Ġstroked":6436,"ĠOlive":6437,"Ġpaddled":6438,"Ġforgiven":6439,"Ġmesmer":6440,"ik":6441,"Ġlimes":6442,"ĠLizzie":6443,"Ġlearns":6444,"Ġjoking":6445,"ĠJohnson":6446,"Ġcloses":6447,"ĠDoggy":6448,"Ġfroze":6449,"usband":6450,"Ġpointy":6451,"Ġsecure":6452,"ĠAlthough":6453,"ĠWithout":6454,"ĠBeing":6455,"Ġawake":6456,"ĠRobert":6457,"Ġpedals":6458,"Ġbaker":6459,"Ġannoy":6460,"ĠPippin":6461,"Ġcashier":6462,"mallow":6463,"weet":6464,"Ġopp":6465,"arling":6466,"Ġbelly":6467,"ĠBess":6468,"ĠMabel":6469,"ĠEverybody":6470,"Ġcolored":6471,"Ġhider":6472,"Ġpassen":6473,"ĠTwo":6474,"Ġprotecting":6475,"Ġsplashes":6476,"Ġdetermination":6477,"Ġseeker":6478,"Ġfilling":6479,"Ġradishes":6480,"arshmallow":6481,"Ġstomped":6482,"ĠSorry":6483,"Ġinsp":6484,"ĠLena":6485,"ades":6486,"Ġnoses":6487,"ĠPut":6488,"ĠGet":6489,"Ġdeal":6490,"Ġstorekeeper":6491,"Ġtallest":6492,"Ġmuscle":6493,"Ġtails":6494,"Ġsigned":6495,"Ġscaring":6496,"Ġscarves":6497,"Ġcandies":6498,"Ġleaning":6499,"Ġgiraff":6500,"Ġobjects":6501,"Ġsneaky":6502,"ĠNothing":6503,"Ġaccomplish":6504,"Ġtipt":6505,"Ġwarrior":6506,"Ġsponge":6507,"va":6508,"Ġtig":6509,"Ġaud":6510,"Ġsib":6511,"Ġhusband":6512,"ouch":6513,"iled":6514,"ĠHoot":6515,"ĠLau":6516,"Ġrising":6517,"endy":6518,"alph":6519,"ĠWatch":6520,"?\",":6521,"Ġbacked":6522,"Ġleap":6523,"Ġmeals":6524,"Ġeverybody":6525,"ishy":6526,"ĠGary":6527,"Ġcreations":6528,"Ġunf":6529,"Ġafterwards":6530,"Ġhealth":6531,"brush":6532,"Ġmiles":6533,"Ġzookeeper":6534,"Ġrecording":6535,"ĠMikey":6536,"Ġarrows":6537,"Ġartist":6538,"Ġcheeks":6539,"Ġsnuggle":6540,"Ġgiraffes":6541,"Ġtigers":6542,"tuce":6543,"vest":6544,"ĠSpl":6545,"ans":6546,"Ġweeke":6547,"itted":6548,"Ġaren":6549,"Ġflapping":6550,"Ġchip":6551,"ĠDuring":6552,"Ġlettuce":6553,"Ġdancers":6554,"Ġconn":6555,"Ġconcer":6556,"ths":6557,"Ġarr":6558,"Ġsteer":6559,"Ġparties":6560,"Ġhides":6561,"Ġmarks":6562,"Ġdiving":6563,"Ġsalty":6564,"Ġgracefully":6565,"Ġavoid":6566,"Rex":6567,"Ġhesitated":6568,"ĠGoodbye":6569,"ĠPrin":6570,"Ġtravelled":6571,"Ġweekend":6572,"Ġcust":6573,"Ġdots":6574,"Ġmi":6575,"ann":6576,"Ġthird":6577,"Ġyum":6578,"Ġfeast":6579,"Ġslices":6580,"ĠJojo":6581,"Ġsnuck":6582,"Ġracc":6583,"Ġhandsome":6584,"Ġdef":6585,"Ġtricked":6586,"Ġsailboat":6587,"Ġpotion":6588,"ments":6589,"Ġburst":6590,"Ġdiscussed":6591,"Ġhesitant":6592,"Ġrusty":6593,"Ġtalented":6594,"ĠGranny":6595,"Ġtoddler":6596,"Ġafford":6597,"Ġcustom":6598,"Ġraccoon":6599,"aa":6600,"ners":6601,"pr":6602,"Ġtangled":6603,"ĠSc":6604,"Ġhissed":6605,"ĠWendy":6606,"icked":6607,"Ġslam":6608,"ĠPu":6609,"Ġdrawn":6610,"Ġcorners":6611,"ĠAlong":6612,"Ġspoonful":6613,"Ġpans":6614,"ĠZara":6615,"Ġsweat":6616,"Ġrequested":6617,"Ġdirect":6618,"ĠMaddy":6619,"Ġlungs":6620,"Ġsiblings":6621,"zes":6622,"Ġcott":6623,"Ġdie":6624,"ids":6625,"Ġneither":6626,"Ġbackwards":6627,"ĠEarth":6628,"ept":6629,"Ġflight":6630,"Ġswept":6631,"Ġhandful":6632,"ĠJaney":6633,"Ġprinting":6634,"Ġpretends":6635,"Ġdarker":6636,"Ġsnowmen":6637,"Ġembarrass":6638,"Ġfolding":6639,"ĠBluey":6640,"Ġpumpkins":6641,"Ġlogs":6642,"Ġwraps":6643,"ivity":6644,"Ġsausages":6645,"Ġfluttering":6646,"ĠMilo":6647,"Ġtiptoed":6648,"ĠLaura":6649,"Ġmixture":6650,"ded":6651,"pit":6652,"Ġlower":6653,"ility":6654,"ĠEl":6655,"ĠEnjoy":6656,"Ġchop":6657,"Ġgrandp":6658,"Ġgrabbing":6659,"Ġadult":6660,"Ġdrawers":6661,"Ġgasp":6662,"Meow":6663,"Ġsuperheroes":6664,"Ġinsects":6665,"Ġwidened":6666,"Ġcousin":6667,"Ġaudience":6668,"Boo":6669,"Bun":6670,"Jane":6671,"Ġwins":6672,"ĠTara":6673,"Ġocc":6674,"Ġgross":6675,"Ġbeam":6676,"Ġfears":6677,"Ġworn":6678,"Ġcond":6679,"Ġwilling":6680,"aker":6681,"Those":6682,"shions":6683,"Ġwindy":6684,"Ġgrassy":6685,"Ġrivers":6686,"umbling":6687,"Ġstarfish":6688,"ĠThanks":6689,"Ġclowns":6690,"Ġrefle":6691,"Ġbasement":6692,"Ġexperien":6693,"ĠFox":6694,"ĠChris":6695,"Ġfamiliar":6696,"Ġflavor":6697,"Ġchefs":6698,"Ġperforman":6699,"Ġbeginning":6700,"ĠMickey":6701,"ĠExc":6702,"ĠPrincess":6703,"Ew":6704,"abby":6705,"no":6706,"ĠHolly":6707,"sequ":6708,"Ġrefu":6709,"iece":6710,"Ġdads":6711,"Ġbully":6712,"Ġconsequ":6713,"Ġuns":6714,"Ġsnowfl":6715,"Ġcreativity":6716,"Ġforgetting":6717,"Ġwrapping":6718,"Ġcelebrating":6719,"Ġpaying":6720,"Ġknocks":6721,"Ġcomplained":6722,"Ġsprinkled":6723,"ĠJulia":6724,"Ġfirefighter":6725,"Ġheavier":6726,"Ġpouted":6727,"Roar":6728,"Ġgrandpare":6729,"ĠExcited":6730,"Run":6731,"Whee":6732,"Ġmerry":6733,"ĠLi":6734,"Ġropes":6735,"ados":6736,"Ġwept":6737,"Ġreass":6738,"Ġbodies":6739,"ddled":6740,"Ġstays":6741,"obody":6742,"retty":6743,"Ġkicks":6744,"Ġshrinking":6745,"Ġrecipe":6746,"Ġsource":6747,"Ġindeed":6748,"Ġforks":6749,"Ġscratches":6750,"Ġavocados":6751,"Ġseparated":6752,"Ġprovided":6753,"Ġsurroundings":6754,"Shh":6755,"Ġpuppies":6756,"Great":6757,"ĠBessie":6758,"Next":6759,"Sally":6760,"tle":6761,"ĠSqu":6762,"ĠSque":6763,"Ġrings":6764,"ĠAsh":6765,"ĠJax":6766,"Ġspikes":6767,"aula":6768,"iley":6769,"Ġdollhouse":6770,"Ġcrew":6771,"Ġbeloved":6772,"Ġattack":6773,"ĠStay":6774,"Ġtricky":6775,"Ġseconds":6776,"Ġhumans":6777,"Ġpresses":6778,"Ġincluding":6779,"ĠFroggy":6780,"Ġgranted":6781,"ĠKeep":6782,"ĠFriends":6783,"ĠJudy":6784,"ĠFarmer":6785,"Ġconsequences":6786,"?'":6787,"Bad":6788,"cake":6789,"fall":6790,"wk":6791,"Ġhour":6792,"Ġdarling":6793,"Ġmaster":6794,"Ġnine":6795,"Ġhawk":6796,"llen":6797,"Ġstool":6798,"Ġplucked":6799,"Ġgobbled":6800,"Ġglued":6801,"ĠGina":6802,"Ġdresser":6803,"athan":6804,"Ġmagician":6805,"Ġtalks":6806,"Ġplans":6807,"Ġneighbours":6808,"Ġhoriz":6809,"ĠStitch":6810,"Ġwishing":6811,"Ġedges":6812,"Ġtunnels":6813,"Ġgems":6814,"Ġdelivering":6815,"Ġneatly":6816,"Ġinstrum":6817,"Ġbehaved":6818,"Ġdeserve":6819,"Ġtimer":6820,"eal":6821,"Ġtouc":6822,"Ġcau":6823,"Ġteased":6824,"ĠRalph":6825,"Ġruining":6826,"Ġrushing":6827,"Ġamong":6828,"Ġsailors":6829,"Ġplanning":6830,"Ġcrossing":6831,"Ġlollipops":6832,"Ġsymbols":6833,"Ġbuzzed":6834,"Ġscrews":6835,"ably":6836,"Ġwarnings":6837,"ĠFrog":6838,"Ġswimsuit":6839,"Ġmaterials":6840,"Ġaccomplishment":6841,"Ġperformance":6842,"Ġhorizon":6843,"rig":6844,"Ġhitting":6845,"Ġmarshmallow":6846,"Ġpens":6847,"ĠListen":6848,"Ġonward":6849,"ĠBee":6850,"ĠMouse":6851,"choo":6852,"Ġspices":6853,"Ġhelpers":6854,"Ġfact":6855,"Ġage":6856,"Ġflas":6857,"ÅĵDo":6858,"ĠNobody":6859,"ĠRemember":6860,"Ġremembering":6861,"Ġamount":6862,"Ġblocking":6863,"ĠOur":6864,"Ġpaths":6865,"Ġdrums":6866,"Ġdesigns":6867,"Ġmushrooms":6868,"ronaut":6869,"Ġcobwebs":6870,"Ġastronaut":6871,"Ġechoed":6872,"Ġdirections":6873,"Ġtouches":6874,"nk":6875,"Ġmer":6876,"ĠSim":6877,"atur":6878,"Ġstung":6879,"Ġonions":6880,"rie":6881,"ĠBo":6882,"Ġplayers":6883,"step":6884,"Ġleast":6885,"Ġbru":6886,"ĠDr":6887,"Ġteles":6888,"Ġraces":6889,"ĠGemma":6890,"Ġstrongest":6891,"Ġchoices":6892,"Ġbaskets":6893,"Ġforgets":6894,"Ġpeacefully":6895,"Ġmatters":6896,"Ġtested":6897,"Ġresisted":6898,"ĠAbi":6899,"ÅĵYouÃ¢":6900,"Ġwiggle":6901,"Ġdamage":6902,"Grandma":6903,"ĠQuack":6904,"Ġscraped":6905,"Ġmarshmallows":6906,"Ġtelescope":6907,"fire":6908,"tier":6909,"ĠQ":6910,"Ġcor":6911,"Ġsank":6912,"rip":6913,"Ġyounger":6914,"ntil":6915,"ĠWell":6916,"icky":6917,"Ġvines":6918,"Ġprettier":6919,"ÅĵWow":6920,"ÅĵMy":6921,"Ġconvers":6922,"Ġgrowls":6923,"Ġbaths":6924,"Ġimagining":6925,"Ġhonked":6926,"Ġgenie":6927,"ĠUnder":6928,"ĠUntil":6929,"Ġpoems":6930,"Ġminerals":6931,"Ġrustling":6932,"Ġgreeted":6933,"Ġpassengers":6934,"Ġoccas":6935,"Fo":6936,"Jenny":6937,"dges":6938,"iel":6939,"Ġtuck":6940,"ition":6941,"Ġmast":6942,"Ġmunch":6943,"aying":6944,"ĠSk":6945,"ĠSmo":6946,"Ġstitches":6947,"ĠBoun":6948,"Ġneare":6949,"Ġscient":6950,"Ġadults":6951,"Ġcushions":6952,"ĠPretty":6953,"ĠPaula":6954,"Ġache":6955,"Ġnearly":6956,"Ġcuriously":6957,"ĠTodd":6958,"Ġrespond":6959,"Ġimages":6960,"Ġfeeding":6961,"Ġvanilla":6962,"Ġpraying":6963,"Ġborrowed":6964,"artha":6965,"ĠDavey":6966,"manda":6967,"Ġcomplaining":6968,"Ġincreased":6969,"Ġbehaving":6970,"ĠFuzzy":6971,"Ġcommun":6972,"immering":6973,"ĠCurious":6974,"Ġbehavior":6975,"Ġmesmerized":6976,"Ġunsure":6977,"Ġscientist":6978,"Lucy":6979,"aired":6980,"lves":6981,"the":6982,"Ġcoral":6983,"Ġsale":6984,"Ġplaytime":6985,"ĠMartha":6986,"Ġnotes":6987,"allowed":6988,"Ġswallowed":6989,"Ġtramp":6990,"Ġtwice":6991,"ueen":6992,"Ġwobbly":6993,"Ġdances":6994,"Ġjoyful":6995,"Ġstands":6996,"Ġdrivers":6997,"Ġhopeful":6998,"Ġrepaired":6999,"Ġsunflowers":7000,"Ġzipping":7001,"Ġenthusi":7002,"Ġrewarded":7003,"Ġcenter":7004,"ĠSplash":7005,"rigued":7006,"Ġtrampoline":7007,"Have":7008,"Our":7009,"Oops":7010,"ippy":7011,"Ġcoup":7012,"Ġpours":7013,"Ġoh":7014,"Ġnibb":7015,"ĠAmanda":7016,"ĠWally":7017,"Ġnoon":7018,"Ġscen":7019,"Ġcoc":7020,"Ġflown":7021,"Ġswords":7022,"Ġtreehouse":7023,"Ġtrot":7024,"Ġbraver":7025,"Ġwobble":7026,"Ġwobbled":7027,"ÅĵHi":7028,"ÅĵWell":7029,"ĠRain":7030,"Ġdropping":7031,"Ġhearing":7032,"attered":7033,"Ġhealing":7034,"Ġaction":7035,"Ġspreading":7036,"Alice":7037,"ĠBirthday":7038,"Ġgeese":7039,"Ġarranged":7040,"Ġenthusiasm":7041,"Ġcouple":7042,"weed":7043,"yes":7044,"Ġ2":7045,"initely":7046,"itched":7047,"itude":7048,"Ġdet":7049,"ĠSun":7050,"atul":7051,"Ġnood":7052,"Ġease":7053,"river":7054,"ĠMart":7055,"idey":7056,"Ġjugg":7057,"Ġspins":7058,"Ġblast":7059,"Ġpecked":7060,"Ġslips":7061,"iona":7062,"Ġfinal":7063,"Ġfinishing":7064,"acy":7065,"ĠSpidey":7066,"ĠRavi":7067,"Ġwarmer":7068,"Ġsandpit":7069,"Ġlighter":7070,"Ġslower":7071,"Ġelf":7072,"anging":7073,"Ġprove":7074,"Ġbeeh":7075,"ĠStan":7076,"Ġwiping":7077,"Ġheroes":7078,"Ġencourag":7079,"Ġtriangles":7080,"Ġrefreshing":7081,"ĠMaya":7082,"Ġtravelling":7083,"Ġguests":7084,"Ġ10":7085,"ĠElsa":7086,"ĠSqueaky":7087,"ĠQueen":7088,"--":7089,"bell":7090,"bird":7091,"Ġaimed":7092,"ĠSince":7093,"Ġsadd":7094,"Ġthorn":7095,"veral":7096,"Ġplain":7097,"ĠMo":7098,"Ġshirts":7099,"Ġreason":7100,"Ġseveral":7101,"ĠWin":7102,"Ġflips":7103,"Ġposs":7104,"Ġexplo":7105,"Ġoffic":7106,"Ġfocu":7107,"ÅĵMom":7108,"ÅĵCome":7109,"ÅĵNow":7110,"Ġthrown":7111,"Ġdefe":7112,"ĠThose":7113,"ĠFinn":7114,"Ġsteady":7115,"Ġpennies":7116,"Ġseaweed":7117,"Ġlifting":7118,"Ġacting":7119,"ertain":7120,"Ġantic":7121,"Johnny":7122,"ĠZero":7123,"Ġexamining":7124,"Ġseller":7125,"Ġawo":7126,"Ġcampfire":7127,"Ġoysters":7128,"Ġbreathed":7129,"Ġvideos":7130,"Ġfirefly":7131,"Ġyielded":7132,"ĠMean":7133,"Ġdefinitely":7134,"Ġfocused":7135,"Every":7136,"Like":7137,"Yummy":7138,"ears":7139,"yond":7140,"Ġsy":7141,"Ġfaded":7142,"anes":7143,"Ġbeyond":7144,"Ġstain":7145,"stick":7146,"Ġscamp":7147,"ĠFiona":7148,"Ġchos":7149,"Ġpeck":7150,"Ġglitt":7151,"Ġheading":7152,"Ġsquishy":7153,"Ġbows":7154,"Ġpolitely":7155,"Ġvisitor":7156,"Ġcupcakes":7157,"Ġchopped":7158,"Ġexpress":7159,"Ġlifts":7160,"illiam":7161,"Ġthud":7162,"years":7163,"Ġcuddly":7164,"Ġproper":7165,"Ġsports":7166,"Ġfreedom":7167,"ĠSparky":7168,"Ġsnowflakes":7169,"ĠSquirrel":7170,"Ġcausing":7171,"ĠSimon":7172,"Ġnoodles":7173,"Ġbeehive":7174,"Ġchosen":7175,"Lisa":7176,"Sue":7177,"Time":7178,"bro":7179,"cher":7180,"ratul":7181,"while":7182,"Ġdaring":7183,"inger":7184,"ĠHope":7185,"Ġsofter":7186,"str":7187,"unched":7188,"ĠMuff":7189,"ently":7190,"Ġshown":7191,"Ġroars":7192,"ongratul":7193,"ĠFire":7194,"Ġwhose":7195,"Ġtwenty":7196,"ĠNora":7197,"Ġwarmly":7198,"Ġthroughout":7199,"ĠKelly":7200,"ĠwonÃ¢":7201,"ĠAlison":7202,"Ġdived":7203,"Ġnervously":7204,"Ġtwisting":7205,"Ġdiamonds":7206,"Ġtoaster":7207,"Ġsniffs":7208,"Ġsneezing":7209,"Ġsurfboard":7210,"Ġstacked":7211,"Ġinsisting":7212,"Ġpupils":7213,"Ġflavors":7214,"ĠMaddie":7215,"ĠTessa":7216,"Ġrobber":7217,"Ġcowboy":7218,"Ġslammed":7219,"Follow":7220,"Fl":7221,"Le":7222,"Woof":7223,"cl":7224,"ky":7225,"mered":7226,"uzz":7227,"Ġaim":7228,"ido":7229,"onies":7230,"Ġinj":7231,"utter":7232,"ĠBri":7233,"ĠWilliam":7234,"Ġcharge":7235,"Ġintrigued":7236,"Ġpuff":7237,"Ġovercome":7238,"Ġexplorer":7239,"Ġstopping":7240,"Ġwrink":7241,"ushed":7242,"Ġtables":7243,"otten":7244,"Ġbelongings":7245,"Ġmailed":7246,"Ġdriveway":7247,"Ġignoring":7248,"Ġdecorating":7249,"ĠUp":7250,"Ġtwisty":7251,"Ġstreamers":7252,"Ġdesigned":7253,"Ġwhispers":7254,"Ġgrandson":7255,"Ġstatues":7256,"Ġperforming":7257,"ĠKaty":7258,"Ġlending":7259,"Ġtwinkled":7260,"Ġloops":7261,"Ġwhispering":7262,"Ġsuffered":7263,"ĠSadie":7264,"Ġlicking":7265,"Ġsewed":7266,"ĠBirdy":7267,"ĠQuick":7268,"ĠCrabby":7269,"iki":7270,"Ġgrandparents":7271,"Ġawoke":7272,"aven":7273,"cter":7274,"upt":7275,"yan":7276,"Ġfant":7277,"ĠTuna":7278,"Ġdot":7279,"Ġmate":7280,"Ġponies":7281,"Ġrotten":7282,"ĠIm":7283,"Ġplayroom":7284,"Ġshoo":7285,"Ġroses":7286,"Ġcoach":7287,"Ġcosy":7288,"Ġprob":7289,"ĠFido":7290,"Ġgoodies":7291,"Ġsled":7292,"Ġbeautifully":7293,"Ġdollars":7294,"Ġunw":7295,"Ġforests":7296,"Ġbelts":7297,"Ġunderstands":7298,"meal":7299,"Ġjoining":7300,"Ġfits":7301,"Ġcalmly":7302,"ĠZip":7303,"Ġleads":7304,"Ġswans":7305,"ĠRoger":7306,"Ġoatmeal":7307,"Ġsurrendered":7308,"Ġquarreling":7309,"Ġnovels":7310,"Ġresults":7311,"Ġpunishment":7312,"Ġtrembled":7313,"Ġwider":7314,"ĠOutside":7315,"Ġreflection":7316,"Ġanticip":7317,"Ġscampered":7318,"Ġfantastic":7319,"Ġprobably":7320,"ael":7321,"cus":7322,"sm":7323,"sers":7324,"whe":7325,"Ġtiss":7326,"Ġtying":7327,"Ġgap":7328,"ĠSw":7329,"Ġnapping":7330,"iment":7331,"onse":7332,"ĠLove":7333,"rier":7334,"ĠBack":7335,"ĠMich":7336,"ĠAny":7337,"Ġmanag":7338,"dding":7339,"Ġchara":7340,"Ġslither":7341,"Ġwaterfall":7342,"ĠPandy":7343,"Ġfins":7344,"ĠRyan":7345,"ĠDog":7346,"Ġcolder":7347,"Ġfoxes":7348,"Ġshops":7349,"ounced":7350,"Ġresponse":7351,"ĠStart":7352,"Ġpicnics":7353,"Ġappreciated":7354,"Ġconfl":7355,"Ġperformed":7356,"Ġrisks":7357,"Ġforgiveness":7358,"Ġconnected":7359,"Ġmerma":7360,"ĠMeanwhile":7361,"broken":7362,"ĠMuffin":7363,"ĠMichael":7364,"Ġcharacter":7365,"Listen":7366,"bra":7367,"crow":7368,"driver":7369,"eel":7370,"mates":7371,"rup":7372,"Ġais":7373,"Ġwaddled":7374,"reen":7375,"its":7376,"Ġcertain":7377,"ilted":7378,"Ġgest":7379,"cky":7380,"ĠMother":7381,"ĠMaisy":7382,"child":7383,"Ġaside":7384,"Ġscored":7385,"Ġposter":7386,"Ġposit":7387,"Ġtweet":7388,"ĠJoanna":7389,"Ġhanding":7390,"Ġgardener":7391,"Ġconvin":7392,"Ġrainy":7393,"Ġelbow":7394,"Ġcloudy":7395,"ĠStill":7396,"Ġpostman":7397,"Ġsniffing":7398,"Ġgrandchild":7399,"Ġappreciation":7400,"Ġscrewdriver":7401,"Ġspills":7402,"Ġseashells":7403,"ĠLouise":7404,"Ġannoyed":7405,"Ġencouraging":7406,"Ġsyrup":7407,"Ġanticipation":7408,"but":7409,"found":7410,"oss":7411,"ĠX":7412,"Ġtar":7413,"Ġtipped":7414,"Ġwag":7415,"Ġlent":7416,"Ġni":7417,"onna":7418,"espite":7419,"ooking":7420,"Ġramp":7421,"Ġweeds":7422,"Ġshady":7423,"Ġkings":7424,"Ġreun":7425,"Ġjars":7426,"Ġexcept":7427,"ighting":7428,"Ġchanging":7429,"ĠDespite":7430,"Ġwatering":7431,"Ġsmallest":7432,"Ġsnort":7433,"Ġbravest":7434,"Ġcheers":7435,"ĠGinger":7436,"ĠRock":7437,"Ġsweetest":7438,"Ġcraft":7439,"Ġworrying":7440,"Ġsails":7441,"Ġbelieving":7442,"Ġheartbroken":7443,"Ġlaying":7444,"Ġpops":7445,"ĠBecky":7446,"Ġbells":7447,"Ġnecklaces":7448,"Ġsuggestion":7449,"Ġpreparing":7450,"Ġpedaled":7451,"Ġreversed":7452,"Ġstudents":7453,"Ġincreasing":7454,"ĠMeg":7455,"Ġresponsib":7456,"Ġsuffering":7457,"rrr":7458,"ĠFuzz":7459,"Ġconversation":7460,"Ġofficers":7461,"Mine":7462,"father":7463,"munk":7464,"ollen":7465,"Ġties":7466,"Ġtumbled":7467,"rey":7468,"Ġgonna":7469,"ĠSal":7470,"ambled":7471,"Ġstumble":7472,"storm":7473,"Ġreapp":7474,"ĠMomma":7475,"Ġswollen":7476,"ĠCle":7477,"ÅĵOf":7478,"Ġconqu":7479,"ĠGabby":7480,"Ġblocked":7481,"Ġbiting":7482,"Ġnests":7483,"Ġrespected":7484,"Ġangels":7485,"Ġpepperoni":7486,"Ġbatteries":7487,"ĠDaniel":7488,"Ġpermitted":7489,"Ġzebras":7490,"ĠSeeing":7491,"Ġmeowing":7492,"Ġpuppet":7493,"ĠNancy":7494,"Ġgears":7495,"Ġconcert":7496,"Ġreassured":7497,"Ġtrotted":7498,"cie":7499,"wise":7500,"Ġtoss":7501,"Ġhoo":7502,"Ġheight":7503,"order":7504,"ĠLia":7505,"Ġev":7506,"Ġearn":7507,"Ġund":7508,"Ġrather":7509,"Ġstall":7510,"ĠthatÃ¢":7511,"Ġsmashed":7512,"Ġanger":7513,"Ġspook":7514,"Ġmemb":7515,"Ġnewfound":7516,"Ġblond":7517,"Ġthoughts":7518,"Ġtapped":7519,"Ġskunk":7520,"Ġquilt":7521,"ection":7522,"Ġwrigg":7523,"ĠRiley":7524,"Ġtoward":7525,"athy":7526,"Ġfires":7527,"Ġdrown":7528,"Ġcrashing":7529,"Ġpromises":7530,"Ġcounts":7531,"Ġvegg":7532,"Ġpaintbrush":7533,"Ġplanting":7534,"ĠAli":7535,"Ġstreets":7536,"Ġpays":7537,"Ġscrambled":7538,"Ġsoapy":7539,"ĠSnap":7540,"Ġsuits":7541,"Ġdiscoveries":7542,"Ġspeeding":7543,"ĠPepper":7544,"ĠPeggy":7545,"ĠPatty":7546,"uctor":7547,"Ġpassports":7548,"amboo":7549,"Ġdelayed":7550,"Ġwiggly":7551,"Ġuniforms":7552,"Ġefforts":7553,"Ġdamaged":7554,"Ġfirmly":7555,"Fluffy":7556,"Ġmermaid":7557,"Ġspooky":7558,"Ġmembers":7559,"?!\"":7560,"Amy":7561,"George":7562,"ms":7563,"oey":7564,"sie":7565,"vas":7566,"hew":7567,"Ġwoof":7568,"Ġpound":7569,"Ġnuzz":7570,"ances":7571,"orter":7572,"amma":7573,"Ġbeating":7574,"Ġsoot":7575,"ading":7576,"ugs":7577,"Ġsped":7578,"fus":7579,"romise":7580,"usty":7581,"Ġcleared":7582,"ÅĵOkay":7583,"Ġdangers":7584,"Ġcleaner":7585,"Ġrains":7586,"Ġhops":7587,"Ġmonths":7588,"Ġtablet":7589,"ĠJennie":7590,"Ġjudges":7591,"Ġshaped":7592,"Ġmints":7593,"Ġbandages":7594,"Ġpanicked":7595,"Joe":7596,"Ġtidied":7597,"Ġclearly":7598,"ĠZoey":7599,"Sammy":7600,"Ġfills":7601,"Ġaddress":7602,"Ġfishes":7603,"Ġcovering":7604,"Ġmagnif":7605,"Ġfrowning":7606,"ivia":7607,"Ġcuddles":7608,"Ġsurfing":7609,"Ġmillion":7610,"Ġexercises":7611,"Ġbrushing":7612,"Ġbreathing":7613,"Ġstroke":7614,"Ġpurrs":7615,"Ġdiscussing":7616,"ĠOlivia":7617,"ĠFrankie":7618,"ĠJanie":7619,"ĠNana":7620,"Ġoppos":7621,"Ġinspired":7622,"Ġconductor":7623,"steps":7624,"Ġtissue":7625,"Ġtarget":7626,"Ġveggies":7627,"In":7628,"Some":7629,"Very":7630,"water":7631,"Ġdep":7632,"ĠSl":7633,"ening":7634,"Ġnur":7635,"Ġrout":7636,"Ġsoaking":7637,"ĠBaa":7638,"Ġkittens":7639,"Ġseals":7640,"Ġcanvas":7641,"Ġalien":7642,"Ġtreated":7643,"ĠFeel":7644,"ĠFighting":7645,"Ġthanking":7646,"Ġtrans":7647,"Ġuntie":7648,"asty":7649,"ÅĵHey":7650,"urprise":7651,"Ġdoorway":7652,"Ġnights":7653,"ĠThatÃ¢":7654,"Ġsmelling":7655,"Ġsparks":7656,"Ġsprout":7657,"Ġpackages":7658,"Ġdesper":7659,"ĠOther":7660,"ails":7661,"Ġpuzzled":7662,"Ġfootsteps":7663,"Ġtoolbox":7664,"Ġreminding":7665,"Ġtidying":7666,"Ġwisely":7667,"Ġsqueezing":7668,"Ġtravels":7669,"Ġgrandfather":7670,"Ġpigeons":7671,"Ġloading":7672,"Ġartwork":7673,"Ġmagazines":7674,"Ġdisplayed":7675,"Ġprevented":7676,"Ġsqueak":7677,"Ġadmiration":7678,"Ġglobe":7679,"Ġmaterial":7680,"Ġexperienced":7681,"Ġrefuse":7682,"Ġoccasion":7683,"Ġconvinced":7684,"Ġreunited":7685,"Jen":7686,"Wh":7687,"bage":7688,"cent":7689,"now":7690,"pen":7691,"Ġsou":7692,"rew":7693,"ĠTake":7694,"Ġcoug":7695,"Ġheaven":7696,"Ġmoo":7697,"arrow":7698,"Ġger":7699,"ĠSleep":7700,"Ġnasty":7701,"Ġsav":7702,"ighing":7703,"Ġrays":7704,"ĠBecause":7705,"Ġmommies":7706,"ĠMamma":7707,"Ġank":7708,"Ġspy":7709,"lph":7710,"aret":7711,"ĠEver":7712,"Ġgoodby":7713,"Ġchin":7714,"Ġchilly":7715,"ĠDoug":7716,"ĠSuper":7717,"Ġblinking":7718,"inkle":7719,"ĠJosie":7720,"Ġfond":7721,"ÅĵWhere":7722,"Ġdressing":7723,"Ġduckling":7724,"Ġswimmer":7725,"ordinary":7726,"Ġdistract":7727,"Ġdespite":7728,"Ġimaginary":7729,"Ġhonking":7730,"Ġshrunk":7731,"Ġchocolates":7732,"Ġbanged":7733,"Ġpleaded":7734,"Ġsolving":7735,"Ġtrusting":7736,"Ġgarbage":7737,"Ġcrowns":7738,"Ġcamel":7739,"Ġguessing":7740,"Ġextraordinary":7741,"Ġsending":7742,"...\"":7743,"Ġrotting":7744,"Ġvehicles":7745,"Ġsqueaked":7746,"Ġsewing":7747,"Ġaccomplished":7748,"Ġswayed":7749,"Ġsternly":7750,"Ġmunching":7751,"Ġevil":7752,"Ġopposite":7753,"Ġgoodbyes":7754,"Dear":7755,"Em":7756,"Mary":7757,"So":7758,"Take":7759,"bec":7760,"eople":7761,"fia":7762,"gain":7763,"hind":7764,"vant":7765,"vroom":7766,"Ġbamboo":7767,"isions":7768,"idence":7769,"ori":7770,"ĠHallow":7771,"Ġrin":7772,"Ġwithin":7773,"ĠBra":7774,"Ġdod":7775,"Ġdoves":7776,"Ġwhoo":7777,"Ġloc":7778,"Ġspat":7779,"Ġexch":7780,"Ġknots":7781,"Ġmanners":7782,"ddles":7783,"Ġlapt":7784,"Ġlasers":7785,"Ġflipped":7786,"ilda":7787,"ÅĵBut":7788,"Ġdisc":7789,"airy":7790,"uggy":7791,"Ġcomforting":7792,"screen":7793,"ĠStella":7794,"ĠBehind":7795,"Ġ''":7796,"ĠZee":7797,"Ġgenerosity":7798,"Ġscrub":7799,"Ġprayers":7800,"Ġwealth":7801,"Ġenviron":7802,"Ġemerged":7803,"Ġobeyed":7804,"Ġcubes":7805,"Ġchipmunk":7806,"Ġcustomers":7807,"ĠExcitedly":7808,"Ġmasterp":7809,"ĠSkip":7810,"Ġresponded":7811,"Ġnibbled":7812,"Ġcocoon":7813,"Ġgesture":7814,"ĠHalloween":7815,"Ġenvironment":7816,"Watch":7817,"ew":7818,"eedy":7819,"rink":7820,"ĠTaking":7821,"ĠTerry":7822,"Ġhen":7823,"Ġmood":7824,"Ġmaker":7825,"Ġnatur":7826,"oration":7827,"Ġinter":7828,"ĠIzzy":7829,"Ġsheets":7830,"lyn":7831,"icate":7832,"ĠWelcome":7833,"Ġbride":7834,"Ġdecl":7835,"Ġchanges":7836,"Ġsunscreen":7837,"Ġfocus":7838,"Ġbrains":7839,"Ġdonkey":7840,"Ġsurprising":7841,"acles":7842,"ĠSpeedy":7843,"Ġmovements":7844,"ĠGrand":7845,"Ġmarve":7846,"Ġvisits":7847,"Ġgrows":7848,"Ġcollap":7849,"Ġafar":7850,"Ġbusiness":7851,"ĠAlbert":7852,"Ġstorms":7853,"Ġpinching":7854,"ĠBruce":7855,"Ġdigs":7856,"Ġawful":7857,"Ġunlo":7858,"Ġshovels":7859,"Ġconfidence":7860,"Ġburying":7861,"Quick":7862,"ĠAnother":7863,"Ġpeeled":7864,"Always":7865,"Ġencouragement":7866,"Ġpaddling":7867,"ĠJonny":7868,"Ġforgiving":7869,"intment":7870,"Ġglittering":7871,"Ġtype":7872,"Ġwrinkled":7873,"ĠFeeling":7874,"Ġankle":7875,"Ġlaptop":7876,"Surprise":7877,"ae":7878,"dress":7879,"oc":7880,"ps":7881,"we":7882,"worm":7883,"Ġting":7884,"Ġwakes":7885,"rect":7886,"Ġgroom":7887,"ana":7888,"anish":7889,"immered":7890,"ĠLooking":7891,"Ġform":7892,"elie":7893,"rying":7894,"Ġnodding":7895,"Ġwhoever":7896,"Ġdecisions":7897,"Ġflick":7898,"Ġflip":7899,"ĠDory":7900,"Ġwaters":7901,"ipes":7902,"Ġforgives":7903,"issa":7904,"Ġbits":7905,"ĠFinny":7906,"Ġhairdress":7907,"boards":7908,"Ġlessons":7909,"Ġfloors":7910,"Ġtighter":7911,"Ġcompared":7912,"ĠFlora":7913,"Ġcupcake":7914,"Ġjobs":7915,"Ġcaw":7916,"Ġtroubles":7917,"Ġpresented":7918,"Ġmattered":7919,"Ġrecorder":7920,"Ġprick":7921,"Ġsweep":7922,"ĠSnowman":7923,"Ġpandas":7924,"Ġtires":7925,"Ġrepeating":7926,"Ġspells":7927,"Ġlipstick":7928,"Ġlanguages":7929,"Ġbothering":7930,"Ġsnaps":7931,"Ġleapt":7932,"Ġbruises":7933,"Ġcorrect":7934,"Ġnearest":7935,"Ġsadder":7936,"Ġthorns":7937,"ĠStartled":7938,"Ġconflict":7939,"Ġtransf":7940,"Ġgerms":7941,"Ġnatural":7942,"Ġhairdresser":7943,"Any":7944,"Boys":7945,"Henry":7946,"lt":7947,"line":7948,"pes":7949,"what":7950,"Ġsill":7951,"Ġsigning":7952,"Ġtossed":7953,"Ġbou":7954,"ouched":7955,"Ġdump":7956,"Ġpins":7957,"ider":7958,"ĠSummer":7959,"ats":7960,"lets":7961,"Ġsteth":7962,"Ġshall":7963,"Ġrely":7964,"ĠAna":7965,"Ġloses":7966,"ĠgirlÃ¢":7967,"Ġclues":7968,"Ġalthough":7969,"Ġscent":7970,"Ġscores":7971,"âĤ¬,":7972,"ĠFort":7973,"Ġpose":7974,"Ġexploration":7975,"ÅĵMaybe":7976,"ÅĵSee":7977,"Ġwinding":7978,"acle":7979,"Ġclosing":7980,"Ġleaking":7981,"Ġcracks":7982,"Ġparted":7983,"Ġdripping":7984,"Ġsnowy":7985,"Ġdesigning":7986,"Ġsurv":7987,"ĠStar":7988,"Joey":7989,"Ġself":7990,"Ġadds":7991,"ĠFreddie":7992,"Ġjogger":7993,"Ġhamster":7994,"Ġfrowns":7995,"Ġcombed":7996,"Ġtaped":7997,"Ġcomputers":7998,"Ġwindowsill":7999,"Ġunpacking":8000,"Ġhooks":8001,"Ġtearing":8002,"Ġobserving":8003,"Ġexplains":8004,"Ġapplause":8005,"Ġluckily":8006,"Ġburger":8007,"Ġfreezing":8008,"Ġpurr":8009,"ĠVroom":8010,"Ġspits":8011,"Ġoutfits":8012,"Ġseagulls":8013,"Ġtextures":8014,"ĠElsie":8015,"Ġcottage":8016,"ĠLibby":8017,"Ġinstruments":8018,"ĠQuackers":8019,"Ġexploded":8020,"Ġbouqu":8021,"Ġstethos":8022,"An":8023,"Bang":8024,"Get":8025,"Mr":8026,"Mandy":8027,"Pl":8028,"Teddy":8029,"belt":8030,"bank":8031,"baby":8032,"jack":8033,"ker":8034,"Ġcongratul":8035,"inging":8036,"Ġgall":8037,"Ġyel":8038,"Ġrowed":8039,"ĠBuggy":8040,"Ġlies":8041,"Ġshallow":8042,"Ġshorter":8043,"ĠJasm":8044,"Ġscri":8045,"Ġfailed":8046,"ĠYouÃ¢":8047,"Ġcarries":8048,"ĠDe":8049,"Ġcares":8050,"antha":8051,"ĠSofia":8052,"bbling":8053,"anda":8054,"Ġstrum":8055,"Ġsnapping":8056,"aste":8057,"ÅĵThe":8058,"ÅĵWho":8059,"ĠPen":8060,"bee":8061,"LetÃ¢":8062,"ĠRuth":8063,"ĠGracie":8064,"Ġcompete":8065,"Ġprod":8066,"ĠTwinkle":8067,"Ġgiggles":8068,"Ġsprays":8069,"Ġrobots":8070,"Ġstretches":8071,"Ġclassmates":8072,"Ġwiser":8073,"Ġapologised":8074,"Ġscarecrow":8075,"Ġbeetles":8076,"Ġmember":8077,"Ġerase":8078,"Ġstamped":8079,"Ġscooters":8080,"ĠPatches":8081,"Ġfilms":8082,"Ġbeeped":8083,"Ġtubes":8084,"Ġtraveling":8085,"Ġlumberjack":8086,"Ġbothered":8087,"Ġsimply":8088,"Ġrepeats":8089,"ĠPrince":8090,"Ġsirens":8091,"ĠKevin":8092,"ĠAuntie":8093,"ĠHootie":8094,"Ġsweaty":8095,"Ġcotton":8096,"Ġastronauts":8097,"Ġaisle":8098,"Ġmasterpiece":8099,"Ġdeclared":8100,"ĠFortunately":8101,"Ġbouquet":8102,"ĠJasmine":8103,"All":8104,"Cl":8105,"For":8106,"emy":8107,"eens":8108,"ibbit":8109,"val":8110,"well":8111,"Â¦":8112,"Ġactor":8113,"Ġsipped":8114,"Ġbound":8115,"ĠTime":8116,"ĠTry":8117,"ĠTurt":8118,"Ġdip":8119,"erk":8120,"ilities":8121,"ĠSay":8122,"Ġforts":8123,"Ġshin":8124,"ĠAr":8125,"ĠAgain":8126,"ĠJason":8127,"ument":8128,"âĤ¬Â¦":8129,"ĠDuck":8130,"anted":8131,"Ġqueens":8132,"Ġenemy":8133,"Ġjoked":8134,"Ġjoins":8135,"ortun":8136,"ÅĵGood":8137,"ĠPaw":8138,"Ġstored":8139,"ĠRay":8140,"Ġbrightest":8141,"Ġsquir":8142,"Ġsquished":8143,"Ġcrouched":8144,"Ġpapa":8145,"Ġtasting":8146,"Ġcompan":8147,"Ġcafe":8148,"Ġbuses":8149,"Ġwhistles":8150,"Ġpurpose":8151,"Ġbounces":8152,"barrow":8153,"Ġseatbelt":8154,"ĠGold":8155,"Ġpizzas":8156,"Ġwheelbarrow":8157,"Ġrelaxing":8158,"Ġhunting":8159,"Ġaware":8160,"Ġcroaked":8161,"Ġhoops":8162,"Ġgrandd":8163,"Ġdestroying":8164,"Ġbracelets":8165,"Ġcrocodiles":8166,"ĠPeep":8167,"Ġdisturbing":8168,"ĠMegan":8169,"Ġactivity":8170,"Ġexpecting":8171,"ĠBirdie":8172,"ĠPlaying":8173,"Ġtemptation":8174,"Ġopportun":8175,"Ġsteering":8176,"anne":8177,"Ġcustomer":8178,"Ġflashing":8179,"ĠBrian":8180,"Ġunwra":8181,"Ġdrowned":8182,"Ġnuzzled":8183,"Ġstethoscope":8184,"Ġcongratulated":8185,"Ġyelped":8186,"Peter":8187,"Sandy":8188,"Tw":8189,"Too":8190,"da":8191,"flowers":8192,"lers":8193,"olph":8194,"po":8195,"py":8196,"rily":8197,"ĠOkay":8198,"Ġtilted":8199,"Ġsens":8200,"Ġtheat":8201,"Ġbless":8202,"ita":8203,"Ġdarl":8204,"Ġwasting":8205,"ili":8206,"ĠSa":8207,"ĠHoney":8208,"ĠLenny":8209,"Ġbea":8210,"Ġplayd":8211,"ĠMoo":8212,"ĠMag":8213,"Ġshave":8214,"Ġshimmering":8215,"ĠAng":8216,"Ġbond":8217,"ĠJelly":8218,"icle":8219,"icia":8220,"ĠDot":8221,"Ġblown":8222,"Ġtapping":8223,"Ġuntied":8224,"Ġchecks":8225,"ctric":8226,"Ġraising":8227,"ÅĵSure":8228,"ĠPet":8229,"ĠPear":8230,"sol":8231,"ĠNice":8232,"Ġstepping":8233,"ulars":8234,"Ġvisitors":8235,"Ġpetting":8236,"ugging":8237,"Ġriverbank":8238,"Ġwinking":8239,"Ġcourt":8240,"Ġnecks":8241,"ĠOnly":8242,"Ġcheerfully":8243,"ÅĵIf":8244,"Ġbattle":8245,"Ġbreaths":8246,"Ġchecking":8247,"Ġturtles":8248,"Ġfigures":8249,"Ġterrified":8250,"Ġscares":8251,"Ġlizards":8252,"Ġrats":8253,"Ġknocking":8254,"Ġtraps":8255,"udolph":8256,"ĠPatch":8257,"Ġbinoc":8258,"Ġvests":8259,"Ġshorts":8260,"Ġfleas":8261,"Ġapplauding":8262,"Ġthumbs":8263,"ĠIsn":8264,"Ġflaps":8265,"ĠJonathan":8266,"Ġinchworm":8267,"ĠPoor":8268,"ĠPuppy":8269,"Ġembarrassing":8270,"ĠAshley":8271,"Ġnibble":8272,"Ġconquered":8273,"Ġnurses":8274,"Ġprickly":8275,"Ġcompanion":8276,"Ġtheatre":8277,"Ġdarlings":8278,"Ġbinoculars":8279,"Dave":8280,"His":8281,"ieter":8282,"jest":8283,"lied":8284,"Ġill":8285,"Ġbas":8286,"Ġhu":8287,"Ġcuc":8288,"isdom":8289,"Ġgaz":8290,"atitude":8291,"ani":8292,"ĠHar":8293,"ĠLy":8294,"Ġrumbling":8295,"ammy":8296,"ĠmomÃ¢":8297,"ĠMin":8298,"Ġwhales":8299,"Ġboards":8300,"ĠJet":8301,"aint":8302,"Ġclerk":8303,"getic":8304,"Ġfaith":8305,"Ġtreas":8306,"ĠEric":8307,"Ġchili":8308,"Ġswat":8309,"Ġbloss":8310,"ĠSamantha":8311,"Ġquieter":8312,"ĠAndrew":8313,"ĠCD":8314,"empt":8315,"Ġends":8316,"Ġgratitude":8317,"ĠRight":8318,"ĠRita":8319,"ĠRudolph":8320,"ĠRani":8321,"Ġmeaning":8322,"Ġsquaw":8323,"Ġsingers":8324,"Ġsets":8325,"Ġslowed":8326,"speople":8327,"Ġjoyfully":8328,"Ġattempt":8329,"Ġtownspeople":8330,"Ġteachers":8331,"Ġactive":8332,"Ġanswering":8333,"Ġhumming":8334,"Ġwhisk":8335,"Ġorders":8336,"Ġcrawls":8337,"Ġgoats":8338,"Ġrescuing":8339,"Ġtoothbrush":8340,"Ġmischie":8341,"Ġgrandbaby":8342,"Ġquestioned":8343,"Ġotters":8344,"ĠTrust":8345,"Ġstudent":8346,"Ġfloats":8347,"ĠVery":8348,"Ġcalmer":8349,"ĠPippa":8350,"Ġwounds":8351,"ĠMae":8352,"Ġrobbers":8353,"Ġbeaming":8354,"ĠBobbie":8355,"ĠSmokey":8356,"ĠMartin":8357,"Ġglittered":8358,"Ġmatey":8359,"ĠPearl":8360,"Ġmischievous":8361,"bu":8362,"ping":8363,"Ġtips":8364,"Ġbitten":8365,"ints":8366,"Ġwaking":8367,"ĠTin":8368,"Ġpouch":8369,"omb":8370,"Ġgrip":8371,"ĠSil":8372,"enn":8373,"Ġhab":8374,"oto":8375,"ĠLion":8376,"Ġriddle":8377,"rick":8378,"ĠBang":8379,"Ġweighing":8380,"ĠMan":8381,"endant":8382,"Ġlevers":8383,"Ġflashed":8384,"ĠDin":8385,"apot":8386,"Ġposes":8387,"Ġbubbly":8388,"Ġpeep":8389,"Ġskies":8390,"Ġoverhead":8391,"Ġsnug":8392,"ĠCro":8393,"Ġgrumbled":8394,"Ġgardens":8395,"Ġteapot":8396,"Ġdoorbell":8397,"Ġunfortunately":8398,"ĠSpanish":8399,"Ġbluebird":8400,"ĠRoo":8401,"Ġsandy":8402,"Ġmesses":8403,"Ġmessages":8404,"ĠKiki":8405,"Ġpolar":8406,"Ġelectric":8407,"Ġwelcoming":8408,"Ġexpert":8409,"Ġreturning":8410,"Ġzooms":8411,"Ġsupplied":8412,"ĠBea":8413,"Ġreminds":8414,"Ġburns":8415,"Ġdecoration":8416,"Ġapology":8417,"Ġawhile":8418,"keepers":8419,"Ġargument":8420,"Ġsqueezes":8421,"Ġsupported":8422,"undred":8423,"Ġkayaking":8424,"Ġscolds":8425,"Ġenergetic":8426,"Ġstrokes":8427,"Andy":8428,"Ġsqueaky":8429,"Ġmosquitoes":8430,"Ġfascinating":8431,"Ġspilling":8432,"etchup":8433,"ĠJean":8434,"Ġclicked":8435,"Ġswaying":8436,"Ġcowboys":8437,"Ġcommunicate":8438,"Ġexpression":8439,"Ġmanager":8440,"Ġsoothing":8441,"Ġdiscou":8442,"Ġtreasured":8443,"Jake":8444,"Nice":8445,"please":8446,"rough":8447,"vince":8448,"Ġwig":8449,"Ġhood":8450,"Ġhike":8451,"Ġwaded":8452,"ĠToto":8453,"Ġnapped":8454,"aning":8455,"orking":8456,"ormed":8457,"onnie":8458,"Ġinvent":8459,"ĠLuc":8460,"ĠLots":8461,"Ġforce":8462,"Ġformed":8463,"ĠMila":8464,"ended":8465,"Ġketchup":8466,"Ġrewards":8467,"ĠAva":8468,"Ġashes":8469,"Ġjing":8470,"ĠWoo":8471,"Ġclue":8472,"ĠwhatÃ¢":8473,"Ġbuddy":8474,"emon":8475,"Ġflowing":8476,"Ġcheated":8477,"Ġglisten":8478,"Ġgliding":8479,"ÅĵPlease":8480,"Ġfinishes":8481,"Ġconcent":8482,"Ġconvince":8483,"ĠNathan":8484,"Ġdiso":8485,"Ġamu":8486,"Ġbaa":8487,"Ġembra":8488,"Ġinstantly":8489,"ĠThankfully":8490,"ĠOink":8491,"ĠOff":8492,"balls":8493,"Ġpreschool":8494,"ĠChuck":8495,"Goodnight":8496,"Ġwildflowers":8497,"Ġminds":8498,"Ġpleas":8499,"Stay":8500,"Ġstirs":8501,"Ġtesting":8502,"Ġtickling":8503,"Ġteams":8504,"Ġcheckout":8505,"Ġcheaper":8506,"Ġlabels":8507,"Ġumbrellas":8508,"udged":8509,"Ġimproving":8510,"ĠMatty":8511,"Ġscurrying":8512,"Ġpedaling":8513,"Ġannounced":8514,"ĠMona":8515,"ĠMonkey":8516,"Ġparticularly":8517,"Ġchoosing":8518,"Ġannoying":8519,"Ġyumm":8520,"ĠImmediately":8521,"Ġresponsibility":8522,"Ġroutine":8523,"Ġgazing":8524,"Ġdiscouraged":8525,"Ġconcentr":8526,"Deal":8527,"Put":8528,"cuit":8529,"fly":8530,"five":8531,"rite":8532,"rupt":8533,"ulp":8534,"ware":8535,"xophone":8536,"Ãĥ":8537,"Ġbis":8538,"Ġfet":8539,"Ġfade":8540,"ĠTy":8541,"ĠTre":8542,"ĠTiger":8543,"Ġlim":8544,"Ġlump":8545,"Ġcages":8546,"Ġodd":8547,"ĠSand":8548,"ĠSash":8549,"ative":8550,"Ġsaxophone":8551,"ĠHold":8552,"ĠBow":8553,"elve":8554,"elope":8555,"Ġwhined":8556,"Ġwhipped":8557,"Ġkit":8558,"Ġsmelt":8559,"hings":8560,"Ġclut":8561,"arefully":8562,"Ġsculp":8563,"Ġroast":8564,"Ġsometime":8565,"Ġbirdhouse":8566,"agine":8567,"ift":8568,"Ġchill":8569,"Ġswallow":8570,"Ġswitched":8571,"ĠDra":8572,"ĠDown":8573,"oured":8574,"aus":8575,"Ġoverwhe":8576,"ĠCarefully":8577,"Ġhardest":8578,"Ġrocky":8579,"Ġcons":8580,"Ġunco":8581,"Ġwrit":8582,"Ġmajest":8583,"Ġdev":8584,"Ġdears":8585,"ĠDove":8586,"Ġcris":8587,"Ġtricycle":8588,"Ġbowing":8589,"Ġguide":8590,"Ġguards":8591,"ĠFlo":8592,"Ġdryer":8593,"Ġdrying":8594,"ĠOak":8595,"ĠOuch":8596,"izza":8597,"Ġtunes":8598,"ĠReady":8599,"Ġcooper":8600,"Ġships":8601,"Ġcherish":8602,"Ġharmony":8603,"Ġcops":8604,"ĠAlexa":8605,"ĠFran":8606,"Ġlowered":8607,"Ġscratching":8608,"Ġtorto":8609,"Ġmelody":8610,"ĠPatrick":8611,"ĠTrina":8612,"ĠSteven":8613,"Ġburnt":8614,"Ġsprinkle":8615,"Ġoffering":8616,"Ġairplanes":8617,"ibly":8618,"Ġappearance":8619,"Ġcontainer":8620,"Alright":8621,"Ġhonks":8622,"ĠMelissa":8623,"Ġgasps":8624,"Ġinstrument":8625,"ĠBounce":8626,"Ġdetails":8627,"Ġjuggling":8628,"Ġslithered":8629,"Ġcharacters":8630,"Ġblonde":8631,"elieve":8632,"Ġsurvive":8633,"Ġgallop":8634,"Ġgranddaughter":8635,"Ġbiscuit":8636,"ĠSasha":8637,"Ġsculpture":8638,"Ġoverwhel":8639,"Arrr":8640,"Got":8641,"Mar":8642,"car":8643,"lo":8644,"lor":8645,"off":8646,"Ġouch":8647,"Ġicky":8648,"rest":8649,"Ġmunched":8650,"Ġpuck":8651,"Ġpipes":8652,"ĠHelen":8653,"Ġplumber":8654,"sty":8655,"Ġrebu":8656,"ics":8657,"ĠWil":8658,"ĠWas":8659,"ĠWisdom":8660,"Ġknit":8661,"icking":8662,"Ġprank":8663,"ĠEr":8664,"elle":8665,"ooks":8666,"Ġblades":8667,"Ġblushed":8668,"aps":8669,"Ġbund":8670,"Ġhoot":8671,"Ġpeas":8672,"Ġslapping":8673,"ĠJackÃ¢":8674,"Ġglared":8675,"Ġunderwater":8676,"ĠPa":8677,"ĠPink":8678,"ĠPup":8679,"Ġcleans":8680,"Ġrealizes":8681,"Ġunable":8682,"Ġsurely":8683,"Ġsquinted":8684,"Ġdifferently":8685,"Ġfloppy":8686,"Ġsweetly":8687,"iggle":8688,"Ġpasses":8689,"Ġbuckled":8690,"Benny":8691,"Ġbenches":8692,"ĠOf":8693,"Ġinvites":8694,"Ġpatients":8695,"Ġfeathered":8696,"Ġfootpr":8697,"Ġservant":8698,"ĠLeah":8699,"ĠDonÃ¢":8700,"Ġchews":8701,"Ġmiracle":8702,"Ġsharks":8703,"Beep":8704,"Ġzips":8705,"Ġsupporting":8706,"Ġmayor":8707,"Ġcrystals":8708,"ĠRosa":8709,"Ġbackpacks":8710,"Ġhaircuts":8711,"Ġunlocking":8712,"Ġslipping":8713,"Ġpressing":8714,"Ġmeatballs":8715,"ĠCatty":8716,"ĠAmi":8717,"Ġopinions":8718,"Choo":8719,"Ġattacked":8720,"Ġpossess":8721,"Ġdefeated":8722,"Ġpositive":8723,"Ġwriggled":8724,"Ġdodged":8725,"Ġcollapsed":8726,"Ġcorrectly":8727,"Ġpeeped":8728,"Ġglistening":8729,"Ġdisobey":8730,"Ġwriter":8731,",'":8732,"Danny":8733,"Honey":8734,"Mark":8735,"Tweet":8736,"aving":8737,"ders":8738,"just":8739,"Ġ5":8740,"ĠYum":8741,"Ġtum":8742,"nded":8743,"Ġtopp":8744,"Ġbomb":8745,"Ġhundred":8746,"Ġlar":8747,"erg":8748,"Ġwashes":8749,"ĠSurpr":8750,"ĠSweet":8751,"Ġhaven":8752,"Ġthump":8753,"Ġinches":8754,"Ġroo":8755,"aming":8756,"Ġbeast":8757,"ĠBad":8758,"ĠBust":8759,"ĠMine":8760,"chy":8761,"Ġshines":8762,"Ġnoticing":8763,"Ġwhine":8764,"Ġwhimp":8765,"Ġspare":8766,"Ġbacks":8767,"Ġfunn":8768,"Ġroamed":8769,"Ġworst":8770,"ddie":8771,"Ġparks":8772,"Ġblob":8773,"Ġsleds":8774,"Ġfoam":8775,"Ġglided":8776,"Ġglimmering":8777,"Ġracer":8778,"shadow":8779,"ÅĵHow":8780,"ĠPick":8781,"Ġbadger":8782,"ĠNell":8783,"ĠNever":8784,"ĠRoy":8785,"Ġstores":8786,"Ġcrops":8787,"Ġstew":8788,"ĠKait":8789,"Ġhotter":8790,"Ġcountries":8791,"angle":8792,"idents":8793,"Ġsprang":8794,"brina":8795,"Ġsmoking":8796,"Ġpractised":8797,"Ġzookeepers":8798,"Ġprotection":8799,"Ġserving":8800,"Ġharvest":8801,"Ġmeadows":8802,"Ġpostc":8803,"ĠClaus":8804,"Ġguarding":8805,"Ġcurl":8806,"faction":8807,"Ġengines":8808,"Ġcompliment":8809,"ĠShann":8810,"Ġexercising":8811,"Ġslee":8812,"Ġpoisonous":8813,"ccidents":8814,"Ġsatisfaction":8815,"Ġrevealing":8816,"Ġbehaviour":8817,"ĠBouncy":8818,"Ġscenery":8819,"Ġinju":8820,"Ġcrafts":8821,"Ġpounds":8822,"Which":8823,"Emma":8824,"Ġlocal":8825,"ĠPenelope":8826,"Ġopportunity":8827,"ĠSabrina":8828,"Ġbeaver":8829,"Ġelectricity":8830,"Ġoverwhelmed":8831,"Ġtummies":8832,"ĠBuster":8833,"ĠKaitlyn":8834,"ĠShannon":8835,"!'.":8836,"Bella":8837,"Hold":8838,"Hmm":8839,"James":8840,"Ke":8841,"Never":8842,"Nina":8843,"Soon":8844,"Tr":8845,"gar":8846,"oard":8847,"ww":8848,"Ġ4":8849,"ĠOh":8850,"Ġicing":8851,"Ġborn":8852,"rent":8853,"Ġfaint":8854,"ĠTe":8855,"ĠThings":8856,"Ġlull":8857,"Ġdou":8858,"Ġdashed":8859,"Ġheels":8860,"aron":8861,"iliar":8862,"Ġgorge":8863,"Ġnarrow":8864,"ĠHo":8865,"Ġthie":8866,"lest":8867,"lephant":8868,"ĠHello":8869,"ĠLight":8870,"ĠLand":8871,"igger":8872,"Ġripp":8873,"amiliar":8874,"Ġstalk":8875,"ppies":8876,"ĠLilyÃ¢":8877,"stand":8878,"ĠweÃ¢":8879,"Ġshattered":8880,"Ġwhizz":8881,"Ġkilled":8882,"ĠButt":8883,"ĠEd":8884,"ĠEddie":8885,"ĠFel":8886,"Ġgoodness":8887,"ĠDay":8888,"ĠDuke":8889,"ĠDeal":8890,"Ġability":8891,"Ġaboard":8892,"Ġhollow":8893,"Ġhoses":8894,"Ġpeac":8895,"Ġtraded":8896,"Ġtrigger":8897,"Ġmoat":8898,"Ġcheat":8899,"ship":8900,"ÅĵA":8901,"ÅĵBe":8902,"ÅĵOk":8903,"ĠGoose":8904,"Ġunless":8905,"Ġthrill":8906,"ĠNate":8907,"Ġfishy":8908,"Ġsweeter":8909,"Ġsleeps":8910,"rench":8911,"Ġmovement":8912,"Ġhunger":8913,"Ġcompromise":8914,"ĠFlutter":8915,"Ġcupboards":8916,"ĠOt":8917,"ĠOstrich":8918,"ĠAlicia":8919,"Sarah":8920,"Ġpresence":8921,"Ġpills":8922,"Ġshrank":8923,"ĠBeep":8924,"Ġhummed":8925,"Ġcoolest":8926,"Ġbats":8927,"Ġhonesty":8928,"Ġpriv":8929,"Ġstuffing":8930,"Ġtickles":8931,"Ġtentacles":8932,"Ġbullies":8933,"Ġcuddling":8934,"ĠClar":8935,"Ġpantry":8936,"Ġdesks":8937,"Ġcurrent":8938,"Ġspringtime":8939,"Ġmiller":8940,"ĠRufus":8941,"Ġchains":8942,"Ġmugs":8943,"Ġproviding":8944,"abra":8945,"Ġweighs":8946,"Ġsincere":8947,"Ġweapons":8948,"ĠGreg":8949,"ĠCaroline":8950,"ĠRobin":8951,"Ġnightmares":8952,"ÅĵWeÃ¢":8953,"Grandpa":8954,"ĠYesterday":8955,"Ġheavily":8956,"Ġcommon":8957,"ĠCheese":8958,"Ġecho":8959,"Ġtypes":8960,"Ġswirls":8961,"Ġunfamiliar":8962,"ĠEliz":8963,"Ġexperiences":8964,"Ġdefeat":8965,"Ġproperty":8966,"Ġinjured":8967,"Ġsnorted":8968,"Ġmagnifying":8969,"Someone":8970,"Ġcoughed":8971,"Ġamused":8972,"Ġpleasant":8973,"Ġtortoise":8974,"Ġlarger":8975,"Ġgorgeous":8976,"Bobby":8977,"Vroom":8978,"ca":8979,"gre":8980,"lish":8981,"Ġarom":8982,"Ġlush":8983,"Ġdips":8984,"ering":8985,"Ġgates":8986,"ĠSy":8987,"Ġnic":8988,"anced":8989,"ute":8990,"cker":8991,"Ġrips":8992,"Ġstur":8993,"Ġplow":8994,"ĠMina":8995,"Ġwhir":8996,"ĠAlly":8997,"ĠAccidents":8998,"ecul":8999,"ĠWhee":9000,"Ġalley":9001,"Ġaloud":9002,"Ġscow":9003,"Ġcarriage":9004,"Ġlaunch":9005,"Ġflock":9006,"roll":9007,"Ġblur":9008,"Ġpoles":9009,"Ġpeak":9010,"Ġtwelve":9011,"ĠJoJo":9012,"ĠJoanne":9013,"Ġench":9014,"Ġuntangled":9015,"Ġgrump":9016,"Yesterday":9017,"cts":9018,"ĠGirl":9019,"ĠRicky":9020,"Ġenjoyable":9021,"Ġruff":9022,"Ġdeed":9023,"Ġmonth":9024,"Ġwoodcut":9025,"Ġwoodpe":9026,"Ġarmor":9027,"Ġgulp":9028,"Ġcreams":9029,"Ġattitude":9030,"Ġalongside":9031,"hole":9032,"oga":9033,"ĠStacy":9034,"Ġpeacefulness":9035,"Ġbathing":9036,"Ġweaker":9037,"Ġtents":9038,"Ġcaterpillars":9039,"Ġleans":9040,"Ġstriking":9041,"Ġencount":9042,"Ġleopards":9043,"ĠShare":9044,"Ġvibr":9045,"ĠVo":9046,"Ġrows":9047,"ĠOliver":9048,"Ġinvitations":9049,"ĠCarly":9050,"Ġladybird":9051,"Ġventure":9052,"Ġsituations":9053,"Ahoy":9054,"Ġsilently":9055,"Ġtempting":9056,"Ġcondition":9057,"Ġfacts":9058,"Ġreappeared":9059,"Ġearned":9060,"ĠBrave":9061,"Ġwhoosh":9062,"Ġexchange":9063,"ĠTurtle":9064,"Ġunwrapped":9065,"Ġrebuild":9066,"Ġwhimpered":9067,"Keep":9068,"ĠButtons":9069,"Ġpeacock":9070,"Ġaroma":9071,"Ġnicest":9072,"Fr":9073,"Ho":9074,"free":9075,"gr":9076,"hib":9077,"mon":9078,"pan":9079,"paste":9080,"site":9081,"uess":9082,"wing":9083,"yle":9084,"Ġtot":9085,"Ġdumb":9086,"Ġpecul":9087,"idi":9088,"ĠSatur":9089,"Ġnanny":9090,"anie":9091,"onest":9092,"ĠHank":9093,"Ġthir":9094,"iring":9095,"Ġyelp":9096,"Ġstate":9097,"cell":9098,"Ġplugged":9099,"ĠMic":9100,"ĠMoon":9101,"alled":9102,"seed":9103,"ĠJilly":9104,"Ġspies":9105,"artment":9106,"iciest":9107,"ĠWake":9108,"Ġlevel":9109,"Ġbirdseed":9110,"Ġotherwise":9111,"ĠFind":9112,"ĠDee":9113,"Ġpoppies":9114,"bba":9115,"Ġpeels":9116,"venir":9117,"Ġhandy":9118,"ĠCara":9119,"Ġkindest":9120,"Ġadop":9121,"Ġraked":9122,"Ġsooner":9123,"Ġdollar":9124,"Ġlistener":9125,"Ġarmy":9126,"ĠThrough":9127,"Ġgladly":9128,"Ġgrassho":9129,"Ġmessed":9130,"Ġdrip":9131,"Ġcooled":9132,"Ġroller":9133,"Ġpetal":9134,"Ġchopping":9135,"Ġsmartest":9136,"Does":9137,"Ġinvol":9138,"Ġwrapper":9139,"ĠChad":9140,"ĠRebec":9141,"Ġmysteries":9142,"ĠStrip":9143,"Ġsalon":9144,"Ġcarton":9145,"Ġcooed":9146,"Ġgroups":9147,"Ġcircled":9148,"ĠZack":9149,"ĠZigzag":9150,"Ġpriest":9151,"Ġhangs":9152,"Ġhangers":9153,"Ġfreely":9154,"Ġincredibly":9155,"Ġhunters":9156,"Ġthicker":9157,"Ġobediently":9158,"Ġcharged":9159,"Ġtoothpaste":9160,"Ġthunderstorm":9161,"Ġguardian":9162,"Ġrubbish":9163,"Ġscattering":9164,"Ġkangaroos":9165,"Ġexplaining":9166,"Ġexperiment":9167,"Ġcomets":9168,"Ġspeaker":9169,"Ġreversing":9170,"Ġstrips":9171,"Ġluckiest":9172,"Ġcells":9173,"Ġquacking":9174,"Ġlectures":9175,"Ġstyles":9176,"ĠMatilda":9177,"Ġcubs":9178,"ĠCarla":9179,"ĠCarrie":9180,"Ġpuppets":9181,"Years":9182,"Ġscrubbing":9183,"Ġwinks":9184,"Ġchooses":9185,"Ġflashes":9186,"Ġjuggle":9187,"belle":9188,"ĠSwim":9189,"ĠCleaning":9190,"Ġhooves":9191,"Ġdepths":9192,"Ġsouvenir":9193,"Ġdistracted":9194,"Ġmarveled":9195,"Ġtransformed":9196,"Anytime":9197,"Two":9198,"ĠAngie":9199,"Ġblossom":9200,"Ġsturdy":9201,"Ġwoodcutter":9202,"Ġwoodpecker":9203,"Ġencountered":9204,"Ġpeculiar":9205,"ĠSaturday":9206,"ĠRebecca":9207,"\"!":9208,"Hurry":9209,"Open":9210,"Polly":9211,"cad":9212,"hil":9213,"ial":9214,"iens":9215,"look":9216,"mark":9217,"sa":9218,"why":9219,"Ġic":9220,"Ġtin":9221,"Ġful":9222,"Ġfries":9223,"ĠTell":9224,"ĠTia":9225,"Ġlens":9226,"ingly":9227,"ĠSet":9228,"Ġnations":9229,"lec":9230,"utely":9231,"ige":9232,"Ġstinky":9233,"ĠBonnie":9234,"elvet":9235,"ĠMuffy":9236,"Ġshimmered":9237,"ĠAlf":9238,"Ġatop":9239,"ĠTomorrow":9240,"arted":9241,"Ġexamp":9242,"icated":9243,"Ġcanes":9244,"Ġaliens":9245,"ĠEva":9246,"ĠDora":9247,"Ġpopping":9248,"Ġintently":9249,"ĠAnnabelle":9250,"ĠColin":9251,"shop":9252,"ÅĵMummy":9253,"Ġrealise":9254,"Ġrealizing":9255,"ĠNelly":9256,"ĠSpring":9257,"ĠRory":9258,"Ġworkshop":9259,"Ġsoundly":9260,"Ġpartner":9261,"Ġdining":9262,"ĠKathy":9263,"Ġbuilder":9264,"Ġbuilders":9265,"ĠAllie":9266,"Ġlunchtime":9267,"colored":9268,"ĠAlan":9269,"Ġfarms":9270,"Ġacts":9271,"ĠElle":9272,"ĠStr":9273,"ĠStep":9274,"Ġrobin":9275,"Ġmoonlight":9276,"Ġnets":9277,"Ġdisappointment":9278,"Ġprices":9279,"Ġescap":9280,"Ġindo":9281,"Ġcosts":9282,"Ġtwists":9283,"Ġguesses":9284,"Ġcracker":9285,"Ġerupt":9286,"Ġsniffled":9287,"Ġdustpan":9288,"uction":9289,"Ġrewarding":9290,"ĠRudy":9291,"Ġpads":9292,"Ġrepairman":9293,"Ġbulbs":9294,"ĠMissy":9295,"Ġdisappearing":9296,"Ġpurring":9297,"ĠWhoever":9298,"Ġdemanding":9299,"Ġkneeling":9300,"Ġhesitation":9301,"Quack":9302,"ĠFrosty":9303,"Ġcalf":9304,"ĠCarol":9305,"Ġrails":9306,"ĠRaven":9307,"Ġcaution":9308,"Ġsuitcases":9309,"ĠGreenie":9310,"Ġtempted":9311,"Ġhealthier":9312,"ĠScott":9313,"Ġsweaters":9314,"Ġnearer":9315,"Ġcommunity":9316,"Ġglittery":9317,"Leave":9318,"ĠQuickly":9319,"Ġcertainly":9320,"reya":9321,"Ġreappear":9322,"Ġrinsed":9323,"Ġproduc":9324,"Ġshinier":9325,"Ġplaydate":9326,"solutely":9327,"ĠSandra":9328,"ĠErnie":9329,"Ġthieves":9330,"Ġenchanted":9331,"ĠVolcano":9332,"Ġthirty":9333,"cadabra":9334,"',":9335,"Sus":9336,"Zoom":9337,"che":9338,"cri":9339,"garet":9340,"mit":9341,"mie":9342,"Â©":9343,"ĠYears":9344,"Ġtink":9345,"Ġtiring":9346,"Ġfist":9347,"Ġdate":9348,"erina":9349,"arles":9350,"Ġgoo":9351,"ĠSinging":9352,"ĠHi":9353,"ĠHeidi":9354,"ckless":9355,"igaret":9356,"Ġrack":9357,"Ġrumbled":9358,"Ġhiss":9359,"Ġhisses":9360,"ĠBree":9361,"ĠBarry":9362,"ĠMs":9363,"ĠMight":9364,"Ġdozed":9365,"ending":9366,"Ġreckless":9367,"ĠAlec":9368,"Ġass":9369,"Ġlocks":9370,"Ġbold":9371,"Ġjets":9372,"urity":9373,"Ġexhib":9374,"ĠWal":9375,"Ġknives":9376,"umed":9377,"gets":9378,"ĠFurry":9379,"ĠFairy":9380,"ĠFreya":9381,"Ġchatter":9382,"Ġbecomes":9383,"Ġkeen":9384,"Ġballerina":9385,"Ġlookout":9386,"Ġopt":9387,"ĠJackie":9388,"Ġmoons":9389,"othy":9390,"izmo":9391,"Ġlongest":9392,"ĠCr":9393,"ĠCon":9394,"Ġraises":9395,"ÅĵYay":9396,"ÅĵThanks":9397,"ĠPin":9398,"ĠPizza":9399,"ĠPhil":9400,"beep":9401,"Ġforeshadow":9402,"Ġconstr":9403,"ĠGizmo":9404,"Ġcreep":9405,"ĠSprite":9406,"Ġgreatest":9407,"Ġtalents":9408,"Ġwarmed":9409,"Ġzig":9410,"issy":9411,"Ġdroop":9412,"ĠDoes":9413,"Ġhatched":9414,"Ġcutest":9415,"Ġducklings":9416,"Ġtastiest":9417,"ushes":9418,"Ġguided":9419,"ĠWhatÃ¢":9420,"Ġpatches":9421,"Ġsecurity":9422,"Ġgratefully":9423,"Ġtowns":9424,"ippo":9425,"Ġphones":9426,"Ġlunchbox":9427,"Ġyoungest":9428,"ounce":9429,"Ġcaf":9430,"Ġmisty":9431,"Ġbushy":9432,"ĠChick":9433,"ĠBubba":9434,"Ġspears":9435,"Ġtrusty":9436,"Ġtests":9437,"Ġelders":9438,"ĠUsing":9439,"Ġtrunks":9440,"Ġpiled":9441,"Ġtanks":9442,"Ġcroak":9443,"Ġfreshly":9444,"Ġenvelopes":9445,"Ġavoided":9446,"Ġdisgusted":9447,"Ġghosts":9448,"Ġcrickets":9449,"Ġsends":9450,"Ġcampsite":9451,"Ġcourageous":9452,"Ġvinegar":9453,"ĠRuss":9454,"Ġspelling":9455,"Ġbarrels":9456,"Ġenerg":9457,"ĠhadnÃ¢":9458,"Ġburgers":9459,"agging":9460,"Ġmusicians":9461,"ĠVelvet":9462,"Ġchallenged":9463,"Ġsnuggling":9464,"ĠMaia":9465,"ĠLiam":9466,"Ġdesperately":9467,"ĠOtherwise":9468,"Ġinterrupt":9469,"Ġcawed":9470,"Playing":9471,"ĠMinnie":9472,"ĠWooly":9473,"ĠTyler":9474,"Ġmajestic":9475,"Ġlullaby":9476,"ĠFelix":9477,"Ġgrasshopper":9478,"Ġexample":9479,"Ġindoors":9480,"ĠMighty":9481,"Che":9482,"HE":9483,"Moo":9484,"More":9485,"Paul":9486,"bed":9487,"flower":9488,"ga":9489,"gie":9490,"hand":9491,"ost":9492,"opped":9493,"rum":9494,"rope":9495,"riting":9496,"tock":9497,"ĠYay":9498,"Ġtill":9499,"Ġtant":9500,"Ġwetter":9501,"Ġhips":9502,"ĠTuffy":9503,"ĠToni":9504,"Ġlur":9505,"Ġcine":9506,"Ġcigaret":9507,"ĠheÃ¢":9508,"Ġpounced":9509,"Ġniece":9510,"Ġhalves":9511,"oray":9512,"ĠHurry":9513,"ĠLina":9514,"rice":9515,"Ġplopped":9516,"adually":9517,"ĠBoom":9518,"ĠBigg":9519,"stream":9520,"ĠMake":9521,"Ġdolly":9522,"Ġnecess":9523,"ĠAy":9524,"ĠApr":9525,"Ġboiled":9526,"Ġbolt":9527,"Ġgod":9528,"ĠJemma":9529,"fusing":9530,"Ġlever":9531,"Ġfail":9532,"Ġfacing":9533,"ĠEating":9534,"ĠFanny":9535,"ĠFishy":9536,"Ġlakes":9537,"elling":9538,"Ġflipp":9539,"Ġdeciding":9540,"ĠDina":9541,"Ġblade":9542,"Ġabsolutely":9543,"arable":9544,"Ġgrain":9545,"Ġpollen":9546,"Ġbubbling":9547,"Ġoldest":9548,"Ġtrim":9549,"andel":9550,"ĠJose":9551,"Ġskirts":9552,"Ġwaterm":9553,"umpkin":9554,"Ġenem":9555,"ĠCora":9556,"Ġbrakes":9557,"urped":9558,"Ġjumper":9559,"Ġracers":9560,"shaped":9561,"ĠPumpkin":9562,"ĠJohny":9563,"Ġwinds":9564,"eetle":9565,"ĠRich":9566,"ĠRusty":9567,"Ġenjoys":9568,"Ġchildhood":9569,"Ġnightstand":9570,"Ġdrill":9571,"ĠDoctor":9572,"Ġtops":9573,"Ġshoel":9574,"Ġtightrope":9575,"ĠFlash":9576,"otte":9577,"Ġproved":9578,"Ġprocess":9579,"ormation":9580,"Ġmustn":9581,"ĠOver":9582,"ĠCharles":9583,"Ġoceans":9584,"Ġpanicking":9585,"Ġservice":9586,"Ġshyly":9587,"Ġtrusts":9588,"Ġbathed":9589,"ĠZac":9590,"Ġteamwork":9591,"Ġcapes":9592,"Ġangrily":9593,"Ġborrowing":9594,"Ġglows":9595,"ĠMarie":9596,"ĠMargaret":9597,"Ġcharm":9598,"ĠClare":9599,"ĠClucky":9600,"Ġseriously":9601,"Ġunkind":9602,"ĠdoesnÃ¢":9603,"Ġsurfer":9604,"ĠPeace":9605,"Ġshrimps":9606,"striches":9607,"Ġurging":9608,"Ġclubs":9609,"ĠCharlotte":9610,"ĠInstantly":9611,"ĠBunBun":9612,"Ġapproach":9613,"ĠJuliet":9614,"Ġstomachs":9615,"Ġcompleting":9616,"ĠTuesdays":9617,"Ġcrowded":9618,"Ġdaily":9619,"Ġunicorns":9620,"Ġraincoats":9621,"Ġcentre":9622,"Ġtimid":9623,"Ġswirling":9624,"Ġstrolled":9625,"Ġmesmerised":9626,"Ġunfair":9627,"Ġconnect":9628,"Ġconcerned":9629,"Ġtucks":9630,"ĠSmoke":9631,"Ġscene":9632,"ĠWinnie":9633,"Ġpecking":9634,"ĠSalt":9635,"Ġdesperate":9636,"Ġunload":9637,"Ġsensation":9638,"Ġhabit":9639,"Ġconsider":9640,"Ġfootprints":9641,"Ġpostcard":9642,"Susie":9643,"Ġtantrum":9644,"Ġcinema":9645,"ĠApril":9646,"Ġenemies":9647,"?!":9648,"Achoo":9649,"Bird":9650,"Baa":9651,"Fire":9652,"Harry":9653,"Jump":9654,"Mrs":9655,"Sleep":9656,"Tina":9657,"bs":9658,"book":9659,"bars":9660,"cat":9661,"don":9662,"gress":9663,"hi":9664,"ior":9665,"ka":9666,"of":9667,"phew":9668,"run":9669,"Ġtugging":9670,"Ġsection":9671,"Ġfare":9672,"ĠTurn":9673,"ĠToys":9674,"ĠTears":9675,"ĠTori":9676,"ĠTammy":9677,"ĠTHE":9678,"Ġlil":9679,"Ġdates":9680,"Ġmitt":9681,"Ġpace":9682,"arla":9683,"isie":9684,"Ġgad":9685,"atrice":9686,"Ġsacks":9687,"aned":9688,"iments":9689,"orious":9690,"onished":9691,"otion":9692,"vering":9693,"ĠLori":9694,"Ġbegs":9695,"Ġstings":9696,"ĠIce":9697,"Ġplug":9698,"Ġplank":9699,"ĠBoo":9700,"ĠBillie":9701,"Ġupside":9702,"elon":9703,"ĠMus":9704,"chard":9705,"Ġdodge":9706,"Ġnephew":9707,"Ġrecess":9708,"Ġboiling":9709,"ĠJere":9710,"ico":9711,"ical":9712,"icious":9713,"ĠWorry":9714,"ĠWait":9715,"Ġroyal":9716,"Ġcarous":9717,"Ġprison":9718,"Ġlava":9719,"ashes":9720,"ousand":9721,"Ġdaddies":9722,"Ġpecks":9723,"ively":9724,"Ġtrades":9725,"Ġtrading":9726,"Ġrunner":9727,"ĠJoan":9728,"ĠJody":9729,"Ġorchard":9730,"ĠWeÃ¢":9731,"Ġuntangle":9732,"ĠCow":9733,"ĠCould":9734,"ĠCol":9735,"ĠCelery":9736,"Ġloudest":9737,"Ġwoken":9738,"Ġwobbles":9739,"astated":9740,"ÅĵS":9741,"ÅĵOK":9742,"Ġdoorstep":9743,"ĠGaby":9744,"ĠJohnÃ¢":9745,"ĠNia":9746,"ĠNurse":9747,"aco":9748,"Ġappears":9749,"Ġrightful":9750,"Ġarrest":9751,"ĠKen":9752,"Ġjuiciest":9753,"Ġclothing":9754,"Ġdeeply":9755,"Ġmustered":9756,"ĠWhich":9757,"cycles":9758,"Ġowls":9759,"Ġcaves":9760,"ĠOlly":9761,"Ġjourneys":9762,"Ġkissing":9763,"ĠChom":9764,"Ġmedals":9765,"Ġhorri":9766,"ĠStand":9767,"ĠBeatrice":9768,"Ġbellies":9769,"Ġmotors":9770,"ĠBrad":9771,"Ġfrustration":9772,"Ġsuccessfully":9773,"Ġmotorcycles":9774,"Ġcontents":9775,"Ġcontented":9776,"Ġmicrow":9777,"Ġangrier":9778,"Ġcherished":9779,"Ġfrightening":9780,"Ġcopied":9781,"Ġsweating":9782,"Ġpanting":9783,"Ġsneezes":9784,"Ġhandlebars":9785,"Ġintelligence":9786,"Ġperformers":9787,"ĠPeanut":9788,"Ġvolcanoes":9789,"Ġthreads":9790,"Ġpeeks":9791,"Ġrags":9792,"Ġseasons":9793,"Ġsurrounding":9794,"ambi":9795,"Ġaeroplanes":9796,"Ġbleeds":9797,"Ġbangs":9798,"ĠOlga":9799,"Ġwrecked":9800,"Ġmeows":9801,"Ġsolutions":9802,"Ġwebs":9803,"Ġachievement":9804,"Ġ15":9805,"Ġallowing":9806,"Ġstares":9807,"Ġdeserved":9808,"Ġchatted":9809,"Ġchatting":9810,"Ġwrists":9811,"ĠCheap":9812,"ĠMaisie":9813,"Ġpassenger":9814,"Ġoccasions":9815,"Ġ20":9816,"Ġpossib":9817,"Leo":9818,"ĠAnything":9819,"ĠAnytime":9820,"Ġmanaging":9821,"Ġrinse":9822,"Ġtingle":9823,"Ġbounded":9824,"Ġhuddled":9825,"Ġfetched":9826,"Ġdevastated":9827,"Ġgalloped":9828,"ĠStripey":9829,"Ġescaping":9830,"ĠConfused":9831,"ĠRussel":9832,"Ġnecessary":9833,"Ġfarewell":9834,"Ġcarousel":9835,"Abra":9836,"Fred":9837,"Kids":9838,"Mike":9839,"Mittens":9840,"Maggie":9841,"Pete":9842,"RA":9843,"Rain":9844,"aved":9845,"action":9846,"can":9847,"cco":9848,"dr":9849,"form":9850,"flow":9851,"how":9852,"haps":9853,"iving":9854,"mony":9855,"over":9856,"parable":9857,"Ġsuck":9858,"Ġton":9859,"inter":9860,"incts":9861,"Ġhuff":9862,"Ġhoof":9863,"Ġwax":9864,"Ġwanna":9865,"Ġfences":9866,"ĠTri":9867,"ĠTippy":9868,"Ġcities":9869,"Ġdemon":9870,"Ġmur":9871,"Ġostriches":9872,"idnight":9873,"Ġhamb":9874,"onut":9875,"Ġthousand":9876,"uto":9877,"ĠLa":9878,"ooo":9879,"Ġris":9880,"Ġstun":9881,"Ġstiff":9882,"Ġplum":9883,"Ġsoda":9884,"ĠBambi":9885,"eline":9886,"eliness":9887,"ĠMist":9888,"ĠMath":9889,"Ġshh":9890,"Ġdock":9891,"ality":9892,"ĠAmaz":9893,"Ġbooth":9894,"Ġgogg":9895,"Ġjay":9896,"Ġspice":9897,"Ġspied":9898,"icent":9899,"ĠWow":9900,"ĠWitch":9901,"Ġallerg":9902,"ĠmanÃ¢":9903,"ddle":9904,"Ġparking":9905,"iffere":9906,"ĠElephant":9907,"ĠFur":9908,"ĠFaster":9909,"Ġfluff":9910,"Ġchunk":9911,"Ġswap":9912,"istened":9913,"Ġpokes":9914,"Ġhowling":9915,"Ġtrad":9916,"Ġtwitch":9917,"Ġoverflow":9918,"Ġquizz":9919,"acey":9920,"Ġfoggy":9921,"ĠCook":9922,"Ġglistened":9923,"cted":9924,"Ġraking":9925,"ÅĵW":9926,"ÅĵJohn":9927,"ÅĵThere":9928,"ÅĵRemember":9929,"Ġsusp":9930,"ĠLucyÃ¢":9931,"Ġshares":9932,"Ġconfus":9933,"Ġconfusing":9934,"Ġunst":9935,"ĠSprink":9936,"ĠRolly":9937,"Ġdisob":9938,"Ġdisaster":9939,"Ġvol":9940,"Ġbrightened":9941,"Ġwarmest":9942,"ĠJaneÃ¢":9943,"Ġpainful":9944,"Ġperch":9945,"Ġbait":9946,"Ġsoftest":9947,"Ġlighting":9948,"Ġlightly":9949,"Ġdripped":9950,"Ġshoots":9951,"ĠKids":9952,"Ġlanding":9953,"Ġbarbec":9954,"Ġdragonfly":9955,"Ġloneliness":9956,"Ġinstincts":9957,"Ġkeyhole":9958,"ĠOpen":9959,"Ġsickness":9960,"Ġadmit":9961,"Ġparamed":9962,"Ġshrug":9963,"Ġshrugs":9964,"Ġhorror":9965,"Ġprotector":9966,"ĠStacey":9967,"Ġminded":9968,"Ġstretcher":9969,"Ġbatt":9970,"Ġgoldfish":9971,"arlie":9972,"Ġboarded":9973,"Ġmaps":9974,"ĠMarco":9975,"Ġaccepting":9976,"Ġpilots":9977,"Ġblooms":9978,"Ġindependence":9979,"Ġstreaming":9980,"Ġguitars":9981,"Ġposts":9982,"ĠCloud":9983,"aids":9984,"Ġsneaking":9985,"Ġcurls":9986,"ĠRocco":9987,"Ġresisting":9988,"Ġloads":9989,"Ġmushy":9990,"Ġfuss":9991,"Ġshortcut":9992,"Ġstomp":9993,"Ġsurrendering":9994,"Ġsleigh":9995,"Ġbicycles":9996,"Ġsneakers":9997,"Ġinseparable":9998,"Ġpraise":9999,"Ġfireflies":10000,"Ġsqueal":10001,"Ġwiggling":10002,"Ġapproval":10003,"ĠisnÃ¢":10004,"Ġfloaty":10005,"Ġrecommendation":10006,"Ġtongues":10007,"Isn":10008,"Ġpalms":10009,"Ġentering":10010,"Ġdifferences":10011,"Ġchallenges":10012,"ĠGregg":10013,"ĠCarrot":10014,"Ġfashionable":10015,"Ġpearls":10016,"Ġbends":10017,".''":10018,"Ġladybugs":10019,"Ġastonished":10020,"Ġcousins":10021,"ĠJuice":10022,"ĠCuddles":10023,"ĠOwen":10024,"ĠYoga":10025,"Charlie":10026,"Ġstroller":10027,"ĠElisa":10028,"Ġgrandparent":10029,"Ġamongst":10030,"Ġswimsuits":10031,"Ġnibbling":10032,"Ġcoconut":10033,"ĠRainbow":10034,"Ġstains":10035,"ongratulations":10036,"Ġshooed":10037,"Ġundone":10038,"Ġmagnificent":10039,"Ġdepartment":10040,"ĠSlimy":10041,"Ġfondly":10042,"ĠGrandmother":10043,"Ġsquirted":10044,"Ġcucumbers":10045,"Ġwhiskers":10046,"ennis":10047,"Ġembrace":10048,"Ġyummiest":10049,"Ġtoppings":10050,"Ġcomplimented":10051,"Ġsleeves":10052,"Ġruffled":10053,"Ġvibrant":10054,"Ġfulf":10055,"ĠWalter":10056,"Ġenergized":10057,"Ġwatermelon":10058,"Ġlilies":10059,"Ġmicrowave":10060,"Abracadabra":10061,"Ġdemonstr":10062,"Ġhambur":10063,"Ġgoggles":10064,"ifferent":10065,"Ġconfusion":10066,"'?\"":10067,"Ad":10068,"Bunny":10069,"Dan":10070,"Daisy":10071,"Danger":10072,"From":10073,"Try":10074,"aly":10075,"ridge":10076,"rimp":10077,"she":10078,"shes":10079,"that":10080,"tweet":10081,"udy":10082,"yl":10083,"ÃĤ":10084,"Ġwicked":10085,"Ġwrench":10086,"edro":10087,"rem":10088,"ĠToo":10089,"ĠTree":10090,"Ġlumpy":10091,"Ġdarted":10092,"Ġpals":10093,"Ġpurch":10094,"isible":10095,"ils":10096,"ators":10097,"atform":10098,"ĠHaw":10099,"ĠHairy":10100,"lla":10101,"Ġinno":10102,"igure":10103,"ppa":10104,"Ġplatform":10105,"ĠBiggy":10106,"Ġplayhouse":10107,"Ġforced":10108,"elina":10109,"unior":10110,"ĠMack":10111,"ĠMarshmallow":10112,"Ġrejo":10113,"Ġreaction":10114,"ĠAf":10115,"ĠAaron":10116,"ĠTimothy":10117,"Ġbobbed":10118,"Ġspee":10119,"urly":10120,"Ġexist":10121,"ically":10122,"ĠWise":10123,"Ġknitting":10124,"Ġclam":10125,"Ġbirdies":10126,"ager":10127,"Ġcode":10128,"ĠFigure":10129,"eller":10130,"Ġchamp":10131,"Ġchattered":10132,"ashing":10133,"Ġswitches":10134,"ĠDash":10135,"ĠDifferent":10136,"ĠSusy":10137,"aptain":10138,"ĠMaxi":10139,"ĠmommyÃ¢":10140,"Ġtroph":10141,"Ġpickles":10142,"ĠCount":10143,"ĠCandy":10144,"ĠCurly":10145,"Ġkinder":10146,"Ġgruff":10147,"Ġgardening":10148,"Ġglimmered":10149,"Ġwolves":10150,"shirt":10151,"ĠPan":10152,"ĠPix":10153,"Ġdrag":10154,"ĠGen":10155,"Ġmacar":10156,"ĠNear":10157,"ĠRace":10158,"ĠRibbit":10159,"Ġowns":10160,"Ġimportantly":10161,"Ġdeck":10162,"Ġreader":10163,"Ġbuys":10164,"ĠKyle":10165,"Ġjud":10166,"Ġprogress":10167,"Ġtraining":10168,"Ġattendant":10169,"Ġdisappears":10170,"Ġmustaches":10171,"Ġsmoot":10172,"Ġobst":10173,"Ġinvisible":10174,"ĠChoo":10175,"Ġorganised":10176,"Ġladders":10177,"Ġmindful":10178,"Ġpancake":10179,"Ġcartwhe":10180,"Ġsplashy":10181,"Ġdelightful":10182,"Ġsmoothly":10183,"Ġspeck":10184,"Ġsolid":10185,"iana":10186,"Ġbatch":10187,"ĠBrother":10188,"Ġprizes":10189,"Whoa":10190,"Ġrider":10191,"ĠMarley":10192,"Ġharmful":10193,"Ġislands":10194,"Ġvalues":10195,"ĠCliff":10196,"Ġceremony":10197,"Ġlaws":10198,"Ġcarpets":10199,"Ġpersistence":10200,"Ġtapes":10201,"Ġdusted":10202,"ĠPeppa":10203,"Ġimpatiently":10204,"Ġspringing":10205,"Ġfurious":10206,"ĠWherever":10207,"ĠShow":10208,"Ġsucceeding":10209,"Ġspeaks":10210,"Ġinformation":10211,"Ġstripe":10212,"Ġdisplaying":10213,"Ġsupplying":10214,"Toby":10215,"Ġbanging":10216,"Ġworkshe":10217,"Ġmassages":10218,"Ġbegun":10219,"Ġdisagreement":10220,"Ġintroducing":10221,"Ġscoops":10222,"ĠJanice":10223,"Ġscraps":10224,"Ahh":10225,"Ġtippy":10226,"Ġcommotion":10227,"Ġdeserves":10228,"ĠChew":10229,"ĠChess":10230,"ĠJaya":10231,"ĠFriendship":10232,"ĠPluto":10233,"ĠSparkle":10234,"Ġunfold":10235,"ĠPuddles":10236,"Ġbruise":10237,"lvester":10238,"ĠSunflower":10239,"ĠStanley":10240,"Everyone":10241,"Everything":10242,"uttered":10243,"Ġpopsicle":10244,"Ġhooked":10245,"Ġtargets":10246,"Ġcoughing":10247,"Ġmooed":10248,"Ġunloaded":10249,"Ġactors":10250,"ĠLynn":10251,"Ġattempts":10252,"ĠSilver":10253,"Ġinvention":10254,"Ġjingle":10255,"ĠOfficer":10256,"Ġclutched":10257,"Ġcrispy":10258,"Ġcooperate":10259,"Ġbiscuits":10260,"Ġsculptures":10261,"Ġbundle":10262,"ĠPaige":10263,"Ġrooster":10264,"Ġfunniest":10265,"ĠHopper":10266,"ĠSylvester":10267,"Ġscowled":10268,"cellent":10269,"Ġicicle":10270,"ĠStrong":10271,"ĠPinchy":10272,"Ġlurking":10273,"Ġflippers":10274,"Ġgadgets":10275,"Ġpossibilities":10276,"Ġquizzes":10277,"ĠSprinkles":10278,"Ġbattles":10279,"Ġspeech":10280,"Ġtrophies":10281,"ĠPixie":10282,"Ġmacaroni":10283,"BC":10284,"Bl":10285,"Enjoy":10286,"Friend":10287,"First":10288,"Hop":10289,"Im":10290,"Jess":10291,"Kitty":10292,"NA":10293,"OO":10294,"Pe":10295,"Push":10296,"bel":10297,"cip":10298,"have":10299,"ks":10300,"nings":10301,"oving":10302,"rings":10303,"rons":10304,"sitter":10305,"taker":10306,"uel":10307,"udge":10308,"via":10309,"war":10310,"welcome":10311,"working":10312,"Ġtumbling":10313,"Ġah":10314,"Ġsom":10315,"Ġsum":10316,"Ġsinking":10317,"Ġwilted":10318,"inting":10319,"reled":10320,"ĠTad":10321,"Ġlimp":10322,"Ġcords":10323,"Ġpendant":10324,"isher":10325,"isbee":10326,"Ġgle":10327,"ĠSitting":10328,"orse":10329,"ĠHapp":10330,"ĠShelly":10331,"utt":10332,"ĠLife":10333,"ĠLaser":10334,"Ġrum":10335,"Ġstitched":10336,"Ġonline":10337,"rizz":10338,"Ġmomma":10339,"Ġforwards":10340,"uno":10341,"ĠMore":10342,"ĠMop":10343,"ĠMidnight":10344,"chief":10345,"herry":10346,"Ġshaky":10347,"Ġwhirl":10348,"Ġneg":10349,"ĠABC":10350,"ĠĠĠĠ":10351,"Ġsealed":10352,"Ġoutrun":10353,"Ġatmo":10354,"Ġspik":10355,"Ġsparrow":10356,"ĠWings":10357,"ĠWorm":10358,"ightly":10359,"Ġclucked":10360,"Ġroam":10361,"ĠFly":10362,"ĠFae":10363,"Ġlaces":10364,"Ġchances":10365,"ĠDare":10366,"ĠDennis":10367,"Ġblamed":10368,"Ġblush":10369,"Ġcarefree":10370,"Ġcaretaker":10371,"Ġdoggie":10372,"ersaul":10373,"Ġbud":10374,"Ġtales":10375,"Ġsunb":10376,"aken":10377,"Ġsnoring":10378,"orth":10379,"Ġbrag":10380,"Ġcheating":10381,"Ġgloom":10382,"Ġglimp":10383,"Three":10384,"ĠPain":10385,"ĠPiggy":10386,"ĠPromise":10387,"ĠPedro":10388,"Ġdragging":10389,"ĠNe":10390,"ĠSpider":10391,"Ġwaitress":10392,"Ġgreater":10393,"Ġnightfall":10394,"Ġbehold":10395,"Ġprincip":10396,"Ġsoftened":10397,"Ġarrives":10398,"ĠKind":10399,"sphere":10400,"Ġbabysitter":10401,"Ġhideout":10402,"iggly":10403,"iety":10404,"Ġblacksm":10405,"Ġsmarts":10406,"asketball":10407,"ĠWhite":10408,"Ġmini":10409,"Ġdesce":10410,"Ġdescri":10411,"ĠOtter":10412,"Dog":10413,"Ġfarmers":10414,"Ġwrappers":10415,"Ġbirthdays":10416,"Ġearrings":10417,"Ġretrie":10418,"Ġfans":10419,"Ġhoneycom":10420,"ogo":10421,"Ġaprons":10422,"Ġpractising":10423,"Ġlayer":10424,"ĠAnny":10425,"Ġcarts":10426,"Ġcalms":10427,"ĠBeary":10428,"Ġantlers":10429,"Ġfolds":10430,"ĠBruno":10431,"Ġnumbered":10432,"Ġscrunched":10433,"ĠBlack":10434,"Ġwheeled":10435,"Ġelder":10436,"Ġcapture":10437,"Ġsilk":10438,"queak":10439,"Ġsells":10440,"ĠUse":10441,"Ġextrem":10442,"Ġjacks":10443,"Ġloyalty":10444,"Ġfourth":10445,"Ġmodels":10446,"Ġstreams":10447,"ĠClown":10448,"Ġhippos":10449,"Ġrecovered":10450,"Ġstacking":10451,"Ġporridge":10452,"Ġspelled":10453,"Ġquarreled":10454,"Ġsunsets":10455,"Ġironing":10456,"iolet":10457,"hearted":10458,"Ġsneaks":10459,"Ġgroaned":10460,"ĠCole":10461,"ĠCopper":10462,"Ġvendors":10463,"Ġattaching":10464,"Ġknobs":10465,"Ġstudio":10466,"isingly":10467,"Ġdelaying":10468,"Ġsubst":10469,"Ġvalleys":10470,"ĠViolet":10471,"ĠLiza":10472,"ĠSundays":10473,"ĠMadeline":10474,"Shoo":10475,"Ġwidely":10476,"Ġperformer":10477,"Ġbending":10478,".'\"":10479,"ĠPiper":10480,"Something":10481,"Ġallowance":10482,"ĠMicky":10483,"Ġrisky":10484,"ĠPlay":10485,"Ġstems":10486,"Ġembarrassment":10487,"Ġrefusing":10488,"Ġsnowflake":10489,"ĠAshlee":10490,"Ġ100":10491,"ĠWinter":10492,"Ġexplode":10493,"cloth":10494,"ĠImagine":10495,"Ġposition":10496,"Ġgrandchildren":10497,"Ġheights":10498,"ĠSleepy":10499,"Ġexchanged":10500,"pole":10501,"Ġblessing":10502,"Ġcucumber":10503,"ĠDinner":10504,"ĠDrake":10505,"Ġuncovered":10506,"Ġouchy":10507,"Ġpossessions":10508,"Ġinjuries":10509,"Ġdouble":10510,"Ġstalks":10511,"ĠEliza":10512,"Ġinvolved":10513,"Ġexhibit":10514,"Ġconstruction":10515,"ĠJeremy":10516,"ĠTrix":10517,"ĠMisty":10518,"Ġallergic":10519,"Ġoverflowing":10520,"Ġdisobedient":10521,"Ġbarbecue":10522,"Ġsomersaul":10523,"rizzly":10524,"Ġatmosphere":10525,"Ġspiky":10526,"Ġglimpse":10527,"Ġprincipal":10528,"Ġblacksmith":10529,"Ġextremely":10530,"Aw":10531,"Ann":10532,"Brrr":10533,"Fly":10534,"Freeze":10535,"Lola":10536,"Lena":10537,"Make":10538,"NG":10539,"Ooh":10540,"Pr":10541,"Rob":10542,"SH":10543,"Silly":10544,"bl":10545,"bly":10546,"believe":10547,"cr":10548,"care":10549,"dream":10550,"fess":10551,"field":10552,"fived":10553,"good":10554,"gae":10555,"mi":10556,"made":10557,"ok":10558,"ris":10559,"ruck":10560,"sorry":10561,"uart":10562,"ydr":10563,"Ġ8":10564,"Ġtend":10565,"Ġtumble":10566,"Ġaid":10567,"nds":10568,"Ġbins":10569,"inny":10570,"Ġhind":10571,"Ġhydr":10572,"Ġfif":10573,"ĠTabby":10574,"ĠTiki":10575,"Ġlen":10576,"Ġdamp":10577,"ilar":10578,"ĠSid":10579,"ancing":10580,"ĠHill":10581,"ĠHood":10582,"ĠHugs":10583,"Ġhermit":10584,"otch":10585,"Ġyuck":10586,"ooked":10587,"oosh":10588,"Ġrash":10589,"Ġstained":10590,"Ġhissing":10591,"Ġdaydream":10592,"ĠBall":10593,"ĠBoy":10594,"ĠBizzy":10595,"ĠBasketball":10596,"Ġplayfully":10597,"Ġforty":10598,"ĠMap":10599,"ĠMuch":10600,"ĠMint":10601,"ĠMiles":10602,"Ġshame":10603,"Ġshif":10604,"Ġshuff":10605,"Ġshots":10606,"Ġdodges":10607,"Ġwhining":10608,"Ġwhines":10609,"Ġkill":10610,"alia":10611,"Ġboil":10612,"Ġjaw":10613,"illow":10614,"Ġouting":10615,"icles":10616,"ĠWish":10617,"ĠWorking":10618,"Ġleaped":10619,"Ġscan":10620,"Ġscree":10621,"Ġrobe":10622,"Ġnewly":10623,"Ġprops":10624,"ĠFore":10625,"ĠFather":10626,"Ġhomeless":10627,"Ġblues":10628,"ista":10629,"Ġbubbled":10630,"Ġpref":10631,"Ġhovering":10632,"master":10633,"Ġhowled":10634,"Ġskating":10635,"Ġsunk":10636,"Ġmold":10637,"Ġcommand":10638,"Ġfoss":10639,"ildren":10640,"ĠCars":10641,"Ġgrumbling":10642,"Ġglimmer":10643,"ÅĵAre":10644,"ÅĵHere":10645,"ÅĵMama":10646,"ÅĵWait":10647,"ÅĵWelcome":10648,"ÅĵWould":10649,"ÅĵWill":10650,"ĠPanda":10651,"ĠAfterward":10652,"ĠGus":10653,"ĠGret":10654,"ĠGiggle":10655,"Ġfrisbee":10656,"Ġunz":10657,"Ġthrone":10658,"than":10659,"âĤ¬âĦ¢.":10660,"ĠSpeed":10661,"Ġaccess":10662,"Ġheadache":10663,"Ġcooks":10664,"Ġcrushed":10665,"Ġrestoring":10666,"Ġsoftness":10667,"Ġhatch":10668,"Ġstead":10669,"Ġsnowing":10670,"ulous":10671,"ĠKisa":10672,"ĠKarla":10673,"ĠJimmie":10674,"ĠFlappy":10675,"olanda":10676,"ĠJusty":10677,"Ġpacket":10678,"Ġsmoother":10679,"Ġmarking":10680,"scar":10681,"Ġpudding":10682,"ĠChina":10683,"ĠStuart":10684,"Ġdirtier":10685,"Ġlasted":10686,"Ġcloths":10687,"Ġcoop":10688,"Ġregister":10689,"Ġspoiling":10690,"Ġtickly":10691,"Ġcontentment":10692,"Ġsuggests":10693,"Ġfiercely":10694,"ĠAlexis":10695,"Ġstriped":10696,"ĠDanie":10697,"Ġclums":10698,"Ġsniffles":10699,"Ġmelo":10700,"Ġmelons":10701,"Ġhammering":10702,"rays":10703,"ĠTrista":10704,"Ġyawning":10705,"Ġhurrying":10706,"azzy":10707,"rica":10708,"Ġbeeps":10709,"Ġbeeping":10710,"ĠShrimp":10711,"Ġquarrell":10712,"Ġgolfer":10713,"Ġexercised":10714,"Ġstomping":10715,"Ġinfection":10716,"Ġrotted":10717,"Ġstroking":10718,"Ġquacks":10719,"Ġautomobiles":10720,"ĠOrange":10721,"umbles":10722,"ĠMei":10723,"Ġevents":10724,"Ġrowing":10725,"Ġcalming":10726,"Ġflavour":10727,"Ġflavours":10728,"Sharing":10729,"Ġpaddles":10730,"!''":10731,"Nothing":10732,"Ġsixt":10733,"Ġbanks":10734,"Ġfarthest":10735,"ĠKaylee":10736,"helle":10737,"Ġthreatened":10738,"ĠCraig":10739,"ĠMelina":10740,"Ġstrolling":10741,"Ġinspected":10742,"ĠScare":10743,"ĠElmo":10744,"Ġconversations":10745,"ĠUnderneath":10746,"ĠSunshine":10747,"Ġaims":10748,"Ġnibbles":10749,"Ġtossing":10750,"Ġundo":10751,"Ġdumped":10752,"ĠMaggy":10753,"ĠPetey":10754,"Ġconcentrated":10755,"ĠSurprisingly":10756,"ĠNellie":10757,"ĠLightning":10758,"Ġprivate":10759,"Ġgulped":10760,"ĠMichelle":10761,"Ġadopt":10762,"Ġtinkling":10763,"ĠCrusty":10764,"Ġcreepy":10765,"ĠcafÃĥ":10766,"ĠJoseph":10767,"ĠAfrica":10768,"Ġworksheet":10769,"Ġleng":10770,"ĠMaple":10771,"At":10772,"Co":10773,"Car":10774,"Guess":10775,"Mad":10776,"Millie":10777,"NO":10778,"Ralph":10779,"VD":10780,"ai":10781,"bang":10782,"cies":10783,"eat":10784,"ja":10785,"kids":10786,"mers":10787,"nut":10788,"nif":10789,"nival":10790,"new":10791,"pect":10792,"rit":10793,"saw":10794,"talk":10795,"uice":10796,"under":10797,"Ġ9":10798,"heard":10799,"Ġsim":10800,"Ġsizz":10801,"Ġsips":10802,"Ġsipping":10803,"Ġwitches":10804,"ndy":10805,"Ġfift":10806,"Ġded":10807,"Ġditch":10808,"Ġdandel":10809,"Ġmashed":10810,"Ġmended":10811,"Ġpitc":10812,"Ġointment":10813,"Ġogre":10814,"aries":10815,"arled":10816,"ilot":10817,"Ġgummy":10818,"ĠSkeleton":10819,"ĠSNA":10820,"enise":10821,"Ġnudged":10822,"oned":10823,"ĠHot":10824,"otty":10825,"irly":10826,"Ġric":10827,"Ġrink":10828,"Ġribbit":10829,"Ġbegging":10830,"cel":10831,"Ġdaycare":10832,"ĠBre":10833,"ĠBos":10834,"ĠBooks":10835,"Ġups":10836,"stop":10837,"ĠMac":10838,"ĠMoney":10839,"ential":10840,"Ġshaken":10841,"Ġrev":10842,"ĠAc":10843,"Ġlobby":10844,"Ġloos":10845,"Ġgobble":10846,"ĠJumpy":10847,"Ġjer":10848,"Ġoutsm":10849,"Ġsphere":10850,"Ġspades":10851,"Ġexcellent":10852,"ication":10853,"ĠWant":10854,"ĠWild":10855,"ĠWoof":10856,"ĠWillie":10857,"ĠWriting":10858,"ĠButter":10859,"umn":10860,"ĠTimmyÃ¢":10861,"Ġcluck":10862,"Ġclip":10863,"Young":10864,"Ġscaly":10865,"Ġrods":10866,"ĠboyÃ¢":10867,"Ġages":10868,"owner":10869,"agged":10870,"Ġcarrier":10871,"Ġcarnival":10872,"ĠEthan":10873,"Ġlaz":10874,"Ġlace":10875,"ellow":10876,"Ġdecre":10877,"Ġswer":10878,"Ġswapped":10879,"ĠDel":10880,"ĠDVD":10881,"ĠDenise":10882,"roccoli":10883,"Ġblame":10884,"Ġdownstream":10885,"Ġvar":10886,"Ġabilities":10887,"Ġkneels":10888,"Ġlearner":10889,"Ġpea":10890,"Ġslime":10891,"Ġslightly":10892,"Ġrunners":10893,"ĠJodie":10894,"Ġoverheard":10895,"ateful":10896,"Ġsnipped":10897,"ĠCRA":10898,"ĠCherry":10899,"Ġadv":10900,"ptied":10901,"Ġchees":10902,"Ġglanced":10903,"Ġhardworking":10904,"Ġremoving":10905,"ÅĵC":10906,"ĠPass":10907,"Ġsund":10908,"ĠGlow":10909,"ĠGrizzly":10910,"imbo":10911,"Ġuniting":10912,"Ġunison":10913,"this":10914,"Ġclosest":10915,"ThatÃ¢":10916,"ĠRead":10917,"ĠRiding":10918,"ĠRik":10919,"Ġwalkie":10920,"Ġquicker":10921,"Ġowning":10922,"llowed":10923,"Ġsquish":10924,"Ġhopsc":10925,"ĠThough":10926,"Ġnightlight":10927,"ĠSarahÃ¢":10928,"Ġzigz":10929,"Ġstorybook":10930,"ĠIna":10931,"ĠDogs":10932,"Ġcraz":10933,"Ġprinces":10934,"Ġdiner":10935,"Ġdries":10936,"Ġ--":10937,"Ġlioness":10938,"ĠKent":10939,"ĠKerry":10940,"Ġcontinuing":10941,"Ġrelation":10942,"Ġtightened":10943,"ĠJennif":10944,"spass":10945,"Ġpointer":10946,"Ġfights":10947,"Ġsplinter":10948,"Ġpolka":10949,"Ġjoyous":10950,"zzz":10951,"ixing":10952,"Ġemptied":10953,"Ġeleven":10954,"olk":10955,"Ġwinners":10956,"ordan":10957,"umbs":10958,"Ġsmoky":10959,"ĠOscar":10960,"Ġsicker":10961,"Ġadmitted":10962,"Ġgiants":10963,"Ġdiv":10964,"Ġdives":10965,"ĠStret":10966,"ÅĵIs":10967,"ĠBees":10968,"Ġcolouring":10969,"Stir":10970,"ianna":10971,"Ġleafy":10972,"ĠZane":10973,"Ġfiles":10974,"Ġpayoff":10975,"Ġfiguring":10976,"Ġflagpole":10977,"ĠSniff":10978,"Ġjogs":10979,"Ġawa":10980,"Beware":10981,"ĠMya":10982,"Ġcroaking":10983,"Ġdesigner":10984,"Ġroofs":10985,"ĠFrustr":10986,"coming":10987,"Ġrattle":10988,"Ġmisbe":10989,"Ġgrandkids":10990,"Ġcurve":10991,"Ġtaps":10992,"Ġattracted":10993,"Ġsupermark":10994,"ĠMariah":10995,"guard":10996,"Ġengineer":10997,"Ġfully":10998,"Ġscolding":10999,"Ġstruggles":11000,"ĠShawn":11001,"Ġinsistent":11002,"Ġchirps":11003,"Ġpreventing":11004,"Ġimaginations":11005,"Ġblend":11006,"Ġblessed":11007,"ĠCozy":11008,"Ġchalks":11009,"Ġpitched":11010,"Ġequally":11011,"ĠIsla":11012,"ĠIsabel":11013,"Ġappearing":11014,"Ġresumed":11015,"Ġearthquakes":11016,"Ġsimplest":11017,"Ġflooded":11018,"Ġrustle":11019,"ĠGreat":11020,"Ġweights":11021,"Ġscooping":11022,"Ġdrifting":11023,"Ġemergencies":11024,"ĠGrumbles":11025,"ĠBirds":11026,"Ġscrape":11027,"Ġvictorious":11028,"Ġdisagreeing":11029,"ĠCrab":11030,"ĠMelanie":11031,"ĠYolanda":11032,"Ġreassuring":11033,"Ġcorals":11034,"Ġdetect":11035,"Ġaisles":11036,"ĠRocko":11037,"ĠRocky":11038,"Ġresponsibly":11039,"ĠBrandy":11040,"Ġdodging":11041,"Ġwhooshing":11042,"ĠGrandad":11043,"Ġscribbles":11044,"Ġscribbled":11045,"ĠDebby":11046,"Ġsquirmed":11047,"ĠMagic":11048,"ĠDotty":11049,"ĠPetal":11050,"ĠCrocod":11051,"ĠLucie":11052,"Ġyummier":11053,"Ġroasted":11054,"Ġservants":11055,"Ġpossession":11056,"Ġwhizzed":11057,"Ġwhizzing":11058,"ĠOtto":11059,"Hooray":11060,"Ġtotally":11061,"ĠAlfred":11062,"ĠChickie":11063,"ĠYaya":11064,"Ġcigarette":11065,"Ġgodmother":11066,"Ġtrimmed":11067,"Ġshoelaces":11068,"Ġconsiderate":11069,"ĠMusic":11070,"ĠColor":11071,"Ġrisen":11072,"Ġplums":11073,"ĠFurball":11074,"Ġsuspicious":11075,"Ġparamedics":11076,"Ġhamburger":11077,"Ġpurchase":11078,"Ġrejoiced":11079,"Ġcartwheels":11080,"ĠChewy":11081,"Imagine":11082,"Ġsomersaults":11083,"Ġprefer":11084,"Ġsixteen":11085,"ĠScarecrow":11086,"talkie":11087,"Ġfifteen":11088,"Ġpitcher":11089,"ĠSNAP":11090,"ĠBosco":11091,"ĠReading":11092,"ĠRiko":11093,"Ġhopscotch":11094,"Ġzigzagging":11095,"ĠJennifer":11096,"Ġsupermarket":11097,"Cat":11098,"Dra":11099,"Eat":11100,"Even":11101,"Free":11102,"Gl":11103,"Grow":11104,"Lilly":11105,"Mira":11106,"Su":11107,"Sur":11108,"Un":11109,"With":11110,"away":11111,"coon":11112,"cup":11113,"ebe":11114,"give":11115,"mind":11116,"mower":11117,"pow":11118,"pilot":11119,"truck":11120,"wen":11121,"ĠYuck":11122,"Ġtv":11123,"Ġsly":11124,"Ġsite":11125,"Ġbi":11126,"Ġbould":11127,"Ġburped":11128,"Ġhint":11129,"res":11130,"Ġfitting":11131,"Ġfading":11132,"itive":11133,"ĠTillie":11134,"Ġcav":11135,"Ġpes":11136,"Ġpau":11137,"Ġoily":11138,"armed":11139,"ĠSilly":11140,"atty":11141,"enzie":11142,"anked":11143,"imet":11144,"ĠHigh":11145,"ĠHaving":11146,"lected":11147,"otor":11148,"ĠLoop":11149,"ĠLacy":11150,"Ġstash":11151,"ppie":11152,"vey":11153,"riet":11154,"ribble":11155,"Ġsobbing":11156,"adia":11157,"ĠBer":11158,"ĠBop":11159,"ĠBeetle":11160,"stal":11161,"unged":11162,"unate":11163,"ĠMacy":11164,"enter":11165,"alling":11166,"ala":11167,"alf":11168,"ĠApp":11169,"ĠAbb":11170,"ĠAmen":11171,"ĠfriendÃ¢":11172,"Ġloss":11173,"ecil":11174,"Ġbooming":11175,"Ġspout":11176,"Ġspine":11177,"urr":11178,"ĠTomÃ¢":11179,"icts":11180,"ume":11181,"umsy":11182,"Ġalgae":11183,"Ġscience":11184,"Ġfeared":11185,"ĠbirdÃ¢":11186,"Ġfawn":11187,"Ġcocked":11188,"Ġcoaster":11189,"Ġcarved":11190,"ĠEng":11191,"ĠFle":11192,"ĠFake":11193,"ĠFish":11194,"ĠFribble":11195,"Ġflush":11196,"Ġflicked":11197,"Ġchamb":11198,"asc":11199,"asy":11200,"asia":11201,"Ġswoop":11202,"ĠDis":11203,"ĠSami":11204,"Ġvoy":11205,"apa":11206,"aper":11207,"Ġaback":11208,"Ġaband":11209,"arning":11210,"Ġgrasp":11211,"Ġsorrow":11212,"maker":11213,"Ġanyways":11214,"Ġshowers":11215,"Ġtrudged":11216,"Ġtwitched":11217,"Ġquality":11218,"Ġsnarled":11219,"imals":11220,"ĠCathy":11221,"ĠCaptain":11222,"Ġendless":11223,"Ġgrade":11224,"Ġbraid":11225,"Ġteen":11226,"Ġhurtful":11227,"astian":11228,"astasia":11229,"ÅĵP":11230,"ÅĵHelp":11231,"ÅĵWhen":11232,"ÅĵJust":11233,"ĠPit":11234,"ĠPark":11235,"ĠPillow":11236,"ocks":11237,"ItÃ¢":11238,"Ġdrained":11239,"Ġconst":11240,"ĠGe":11241,"ĠGro":11242,"Ġcreak":11243,"Ġcreaking":11244,"Ġcreaked":11245,"Ġadventurers":11246,"ĠJohna":11247,"ĠNone":11248,"ĠNadia":11249,"acing":11250,"aculous":11251,"ĠRes":11252,"ĠRel":11253,"ĠRun":11254,"ĠRanger":11255,"Ġquickest":11256,"Ġrainwater":11257,"Ġruby":11258,"covered":11259,"Ġstoreowner":11260,"Ġsquat":11261,"ĠThree":11262,"Ġzap":11263,"Ġfiretruck":11264,"Ġsweetness":11265,"ĠDoing":11266,"ĠDoll":11267,"Ġcruel":11268,"Ġmessing":11269,"Ġmessier":11270,"Ġmagically":11271,"Ġducked":11272,"Ġduckie":11273,"uffle":11274,"Ġsteered":11275,"Ġpromising":11276,"Ġdriven":11277,"ĠToot":11278,"specially":11279,"Ġcompare":11280,"Ġsplattered":11281,"Ġsideways":11282,"meow":11283,"Ġsignal":11284,"Ġjeans":11285,"Ġpassion":11286,"Ġpassage":11287,"Ġsprings":11288,"Ġpersu":11289,"ĠTwit":11290,"Ġgentleman":11291,"Ġcornfield":11292,"Ġinstant":11293,"Ġplacing":11294,"ĠOld":11295,"Ġmailing":11296,"colate":11297,"Doll":11298,"Ġobl":11299,"Ġjourneyed":11300,"Ġbreadcr":11301,"Ġmeets":11302,"Ġcleverness":11303,"Ġlayed":11304,"Ġthinner":11305,"Ġsalsa":11306,"ebastian":11307,"Ġminding":11308,"Ġignores":11309,"Ġrecital":11310,"ĠBud":11311,"Ġfolders":11312,"Ġselfishness":11313,"ĠZeke":11314,"Ġfeeder":11315,"osaurus":11316,"Ġscrunch":11317,"Ġticking":11318,"ĠNosy":11319,"Ġdishonest":11320,"Ġrarely":11321,"Ġmeasurements":11322,"Ġcabinets":11323,"ĠMarc":11324,"ĠMarvin":11325,"Ġmelts":11326,"Being":11327,"Ġhammered":11328,"atures":11329,"Ġunlike":11330,"Ġterribly":11331,"Ġnormally":11332,"Ġstrict":11333,"Ġbumping":11334,"ĠClumsy":11335,"Ġhalfway":11336,"Ġregularly":11337,"Ġflashlights":11338,"arryl":11339,"Ġerases":11340,"Ġcombined":11341,"Ġcarelessly":11342,"Ġencl":11343,"Ġspeeds":11344,"Ġcurved":11345,"Ġcursed":11346,"Ġcurves":11347,"ĠRollie":11348,"Ġsupportive":11349,"Ġhungrier":11350,"Ġordering":11351,"Ġsilverware":11352,"Ġcomplicated":11353,"Ġstacks":11354,"Ġponyt":11355,"Ġrecognizing":11356,"ĠSha":11357,"ĠShould":11358,"Ġpedalled":11359,"Ġcrows":11360,"Ġcauliflowers":11361,"Ġenthusiastically":11362,"Ġchimneys":11363,"Ġstretchy":11364,"ĠshouldnÃ¢":11365,"Ġblended":11366,"Ġalligators":11367,"Ġvacu":11368,"Ġlawnmower":11369,"Ġleaks":11370,"Ġwiggles":11371,"Ġyielding":11372,"Ġstructures":11373,"ĠIsland":11374,"Ġscratchy":11375,"Ġresour":11376,"ĠFoxy":11377,"Ġnewspapers":11378,"Ġgaining":11379,"ĠAnastasia":11380,"Ġhurriedly":11381,"ĠJana":11382,"Ġlovingly":11383,"ĠJonas":11384,"ĠGradually":11385,"Ġluxurious":11386,"Grace":11387,"Ġ12":11388,"Ġtiara":11389,"Ġheaviest":11390,"ĠHappyland":11391,"Ġcentimet":11392,"ĠMaja":11393,"ĠPlus":11394,"Robbie":11395,"ĠLouie":11396,"Ġhiked":11397,"ĠPoppie":11398,"Ġswirled":11399,"Ġartists":11400,"Ġarrange":11401,"ĠSkipping":11402,"Ġsaddle":11403,"ĠMole":11404,"clock":11405,"Ġconflicts":11406,"Ġramps":11407,"Ġexception":11408,"ĠCleo":11409,"Ġconquer":11410,"Ġroute":11411,"Emily":11412,"Ġtransform":11413,"Ġbasil":11414,"ĠHarriet":11415,"ĠLyla":11416,"Ġmeaningful":11417,"Ġsquawked":11418,"ĠSilvia":11419,"Ġhabits":11420,"Ġembraced":11421,"Ġlimits":11422,"Ġuncover":11423,"loria":11424,"Ġdisobeyed":11425,"Ġhundreds":11426,"ĠSurprised":11427,"Ġinjury":11428,"Ġripples":11429,"ĠOtty":11430,"ĠClarice":11431,"Ġechoing":11432,"Ġwhirring":11433,"Ġgrumpiness":11434,"Frank":11435,"Ġblossoms":11436,"Ġproducts":11437,"Ġgooey":11438,"Ġforeshadowed":11439,"Ġinterrupted":11440,"handed":11441,"ĠBiggie":11442,"ĠChompy":11443,"ĠStanding":11444,"Ġmurky":11445,"Ġstunned":11446,"ĠHawk":11447,"Ġchampion":11448,"Ġobstacles":11449,"Ġgleaming":11450,"ĠNeither":11451,"Ġdescended":11452,"Ġhoneycomb":11453,"Ġscreech":11454,"Ġlength":11455,"Ġcheesy":11456,"ĠSniffer":11457,"Ġawaited":11458,"ĠFrustrated":11459,"ĠColorful":11460,"Ġpreferred":11461,"Ġboulder":11462,"ĠAbbi":11463,"Ġchambers":11464,"Ġvoyage":11465,"Ġbreadcrumbs":11466,"Ġcentimeters":11467,"?,\"":11468,"AA":11469,"Br":11470,"Bu":11471,"Ble":11472,"Bless":11473,"Del":11474,"Fun":11475,"Fro":11476,"Her":11477,"Kat":11478,"Kim":11479,"Li":11480,"Mag":11481,"Move":11482,"New":11483,"Per":11484,"RE":11485,"Sw":11486,"Say":11487,"Six":11488,"Soph":11489,"Snow":11490,"ailey":11491,"bur":11492,"cred":11493,"eld":11494,"friend":11495,"freeze":11496,"girl":11497,"horse":11498,"ibbles":11499,"nap":11500,"nold":11501,"top":11502,"teller":11503,"vious":11504,"Ġident":11505,"Ġtus":11506,"Ġtroll":11507,"Ġsid":11508,"Ġsucked":11509,"nda":11510,"edience":11511,"Ġwaddle":11512,"reat":11513,"ressed":11514,"Ġfired":11515,"itute":11516,"ĠTick":11517,"Ġlitter":11518,"Ġhey":11519,"Ġheed":11520,"Ġmend":11521,"Ġpy":11522,"Ġpave":11523,"Ġpairs":11524,"Ġwasp":11525,"omp":11526,"arch":11527,"Ġgal":11528,"Ġgumb":11529,"idy":11530,"idance":11531,"ĠSour":11532,"ĠSale":11533,"ĠSebastian":11534,"Ġsaves":11535,"Ġhalo":11536,"anation":11537,"ornn":11538,"orsy":11539,"onny":11540,"ĠHippo":11541,"ĠHorsy":11542,"ller":11543,"etah":11544,"ĠLime":11545,"Ġunn":11546,"ams":11547,"Only":11548,"ria":11549,"riosity":11550,"ripe":11551,"ĠBing":11552,"ĠBiff":11553,"elines":11554,"ĠMoe":11555,"ĠMason":11556,"Ġlif":11557,"Ġliar":11558,"Ġliking":11559,"Ġshimmer":11560,"Ġkenn":11561,"Ġlittlest":11562,"Ġreel":11563,"ĠAmer":11564,"Ġsawed":11565,"Ġboast":11566,"Ġboomed":11567,"ĠJing":11568,"ĠJes":11569,"ĠJub":11570,"ĠJimbo":11571,"ĠJordan":11572,"Ġjig":11573,"Ġjunior":11574,"Ġspect":11575,"urray":11576,"ĠWhe":11577,"ĠWar":11578,"ĠWiggle":11579,"ĠWiggly":11580,"umin":11581,"Ġbackground":11582,"Ġclung":11583,"Ġclips":11584,"Ġfeatures":11585,"Ġsomehow":11586,"Ġbrist":11587,"Ġfaire":11588,"Ġfashions":11589,"Ġcarve":11590,"ĠEat":11591,"ĠEag":11592,"ĠEspecially":11593,"ĠFa":11594,"ĠFier":11595,"Ġgoods":11596,"Ġchann":11597,"Ġchugging":11598,"asers":11599,"ashy":11600,"ĠDaughter":11601,"ĠDarryl":11602,"rob":11603,"Ġblurry":11604,"ants":11605,"ndered":11606,"Ġtale":11607,"bber":11608,"Ġhost":11609,"Ġhovered":11610,"Ġhowl":11611,"Ġskate":11612,"Ġhandled":11613,"umph":11614,"Ġexplanation":11615,"Ġoffers":11616,"ĠCry":11617,"ĠCable":11618,"ĠCecil":11619,"urned":11620,"venture":11621,"Ġcheetah":11622,"Ġcolony":11623,"ÅĵStop":11624,"ÅĵThey":11625,"ÅĵHe":11626,"ÅĵDad":11627,"ÅĵBecause":11628,"ĠAsked":11629,"ĠPer":11630,"ĠPast":11631,"ĠPico":11632,"ĠPurr":11633,"Ġimpact":11634,"Ġflyer":11635,"ĠGav":11636,"ĠGuess":11637,"ĠGogo":11638,"ĠGloria":11639,"Ġungr":11640,"ĠNO":11641,"ĠNat":11642,"ĠNibbles":11643,"ĠSpud":11644,"Ġappet":11645,"Ġacrob":11646,"Ġheadph":11647,"Ġdevice":11648,"Ġmornings":11649,"Ġsquirt":11650,"Ġsquashes":11651,"Ġcontained":11652,"Ġperked":11653,"Ġcrumble":11654,"Ġtriumph":11655,"Ġfixes":11656,"Ġhairs":11657,"ĠEmmi":11658,"Ġshove":11659,"Ġbuyer":11660,"Ġarriving":11661,"ĠKarl":11662,"Ġtablecloth":11663,"Ġguidance":11664,"Ġcompost":11665,"Ġmothers":11666,"Ġfewer":11667,"Ġmusical":11668,"ĠFlops":11669,"ĠFlashy":11670,"osure":11671,"Ġpatting":11672,"iggles":11673,"Ġbelieves":11674,"uits":11675,"Ġmixes":11676,"Ġpotty":11677,"Ġmustard":11678,"Ġbuckles":11679,"Ġpasture":11680,"ĠWhist":11681,"ĠWhippy":11682,"ĠTwig":11683,"Ġwhether":11684,"Ġseahorse":11685,"Ġdesire":11686,"coloured":11687,"Ġnestled":11688,"Doggy":11689,"Ġcowgirl":11690,"Ġrounds":11691,"hocolate":11692,"Ġ30":11693,"Ġbandaged":11694,"toed":11695,"Ġimagin":11696,"ĠChud":11697,"Ġsurger":11698,"Ġlays":11699,"Ġrespecting":11700,"Ġdial":11701,"Ġdialed":11702,"Ġladies":11703,"Ġrecords":11704,"Ġpinches":11705,"ĠZippo":11706,"Ġtwirls":11707,"Ġpricked":11708,"ĠBlow":11709,"ĠBloom":11710,"Ġcapable":11711,"Ġtagged":11712,"tiv":11713,"Ġshooter":11714,"Ġlamps":11715,"ivian":11716,"Ġunlucky":11717,"Ġcompeting":11718,"Ġstubbornn":11719,"Ġcroiss":11720,"Ġcracking":11721,"Ġcrackle":11722,"Ġpostmaster":11723,"Ġstrikes":11724,"Ġcacti":11725,"Ġtrumpets":11726,"Ġbeaks":11727,"Ġcereals":11728,"Ġratt":11729,"Ġcombination":11730,"Ġviews":11731,"ĠKimmy":11732,"Ġcarpenter":11733,"Ġsinks":11734,"Ġsettling":11735,"ĠRoss":11736,"ĠSnowball":11737,"Ġzippers":11738,"Ġreceiving":11739,"ĠSmiling":11740,"Ġyawns":11741,"Ġbrief":11742,"uctive":11743,"Ġpainters":11744,"ĠShar":11745,"ĠShall":11746,"Ġunlocks":11747,"Ġseparating":11748,"Ġbreathes":11749,"Ġdisturbance":11750,"Ġfortunate":11751,"Ġquarrels":11752,"Ġrepairing":11753,"Ġtrails":11754,"Ġpinchy":11755,"Ġautumn":11756,"Ġpraises":11757,"ĠHelping":11758,"abeth":11759,"Ġrequests":11760,"Ġcables":11761,"Ġrecommending":11762,"Ġtutu":11763,"Ġdemands":11764,"Ġachieving":11765,"Ġfestiv":11766,"Ġremains":11767,"ĠVivian":11768,"Ġcrunching":11769,"eedee":11770,"Ġcontainers":11771,"ĠRobo":11772,"ĠAmber":11773,"Ġreleasing":11774,"Ġcontroller":11775,"Ġannounce":11776,"Ġsnuggly":11777,"Ġboost":11778,"ĠMatthew":11779,"Ġstaircase":11780,"Ġslaps":11781,"boos":11782,"Ġtoddled":11783,"ĠJeffrey":11784,"ĠYellow":11785,"Chirp":11786,"Children":11787,"Ġinspect":11788,"Ġleaping":11789,"ĠScotty":11790,"ĠPuss":11791,"Eww":11792,"ĠSqueak":11793,"Ġscenes":11794,"ĠMarti":11795,"Ġpuffy":11796,"smelling":11797,"Ġstalls":11798,"Ġpounding":11799,"ĠSlip":11800,"ĠDougie":11801,"Ġgestures":11802,"Play":11803,"Ġstrummed":11804,"Climb":11805,"Ġboundaries":11806,"ĠArrow":11807,"ĠArnold":11808,"Ġblessings":11809,"Ġsquawk":11810,"ĠCroco":11811,"ĠLucas":11812,"Ġconcentrate":11813,"ĠDragon":11814,"ĠWilbur":11815,"Ġhooted":11816,"Trust":11817,"ĠElizabeth":11818,"Ġtotal":11819,"Ġrollerco":11820,"ĠSwimming":11821,"ĠStephen":11822,"Ġerupted":11823,"ĠAyla":11824,"Ġmitts":11825,"Ġhorrible":11826,"Ġcontentedly":11827,"Ġtone":11828,"ĠAmazingly":11829,"Ġtwitching":11830,"Adam":11831,"ylan":11832,"Ġinnocent":11833,"ĠMackenzie":11834,"ĠCounting":11835,"ĠClifford":11836,"Friends":11837,"ĠHappiness":11838,"ĠABCs":11839,"ĠWormie":11840,"ĠPainter":11841,"Ġsubstitute":11842,"fessor":11843,"Ġhydrant":11844,"Ġshifted":11845,"Ġjaws":11846,"Ġsteadily":11847,"Ġmelodies":11848,"ĠBrenda":11849,"spassing":11850,"Glad":11851,"Ġbiking":11852,"ĠEnglish":11853,"Ġabandoned":11854,"Ġteenager":11855,"ĠGrover":11856,"Ġsquatted":11857,"Ġenclosure":11858,"Blech":11859,"Ġtusks":11860,"Ġsidelines":11861,"Ġpavement":11862,"Ġgumball":11863,"Ġkennel":11864,"ĠFierce":11865,"ĠGavin":11866,"Ġungrateful":11867,"Ġheadphones":11868,"Ġstubbornness":11869,"As":11870,"Aunt":11871,"Aww":11872,"Baby":11873,"Broccoli":11874,"Catch":11875,"Congratulations":11876,"Din":11877,"Ella":11878,"Found":11879,"Hoppy":11880,"Ice":11881,"ING":11882,"Jam":11883,"Karen":11884,"LL":11885,"Lia":11886,"Love":11887,"May":11888,"Meet":11889,"OU":11890,"Po":11891,"Rose":11892,"Sc":11893,"Sun":11894,"Tin":11895,"Um":11896,"Woo":11897,"abe":11898,"des":11899,"down":11900,"dles":11901,"dog":11902,"for":11903,"filled":11904,"hop":11905,"hadow":11906,"ki":11907,"known":11908,"lock":11909,"love":11910,"ointed":11911,"rous":11912,"rors":11913,"tney":11914,"uar":11915,"vy":11916,"wh":11917,"wow":11918,"woof":11919,"zo":11920,"zoom":11921,"Ġted":11922,"Ġsess":11923,"Ġwoo":11924,"Ġbid":11925,"Ġwailed":11926,"Ġfid":11927,"ouble":11928,"ĠTon":11929,"ĠTaco":11930,"Ġcy":11931,"Ġding":11932,"eri":11933,"Ġmow":11934,"Ġmound":11935,"Ġoo":11936,"arlet":11937,"ilst":11938,"Ġgri":11939,"iddy":11940,"idden":11941,"ĠSir":11942,"ĠSister":11943,"ĠSissy":11944,"athing":11945,"enna":11946,"Ġsam":11947,"imber":11948,"orra":11949,"onica":11950,"onzo":11951,"Ġitches":11952,"ĠHonest":11953,"leon":11954,"ĠSheep":11955,"Ġinched":11956,"Ġinser":11957,"vert":11958,"verse":11959,"ĠLast":11960,"ĠLively":11961,"Ġyanked":11962,"igher":11963,"ami":11964,"amble":11965,"ĠsheÃ¢":11966,"Ġpluck":11967,"Ġsoggy":11968,"ĠBry":11969,"ĠBert":11970,"ĠBumpy":11971,"ĠBailey":11972,"Ġweaved":11973,"ĠMust":11974,"ĠMush":11975,"ĠMindy":11976,"ĠMixing":11977,"ĠMotor":11978,"ĠMeri":11979,"cha":11980,"entions":11981,"Ġshades":11982,"Ġshaker":11983,"Ġdoze":11984,"search":11985,"Ġkil":11986,"Ġrent":11987,"Ġrecycle":11988,"Ġreact":11989,"ĠAnt":11990,"ĠAround":11991,"ĠAud":11992,"ĠAria":11993,"Ġsmash":11994,"rain":11995,"ĠTimÃ¢":11996,"Ġlosers":11997,"ecess":11998,"Ġsevent":11999,"Ġjag":12000,"ills":12001,"ĠWork":12002,"ĠWizard":12003,"arkable":12004,"Ġbackward":12005,"Ġclamber":12006,"arer":12007,"Ġseeking":12008,"Ġrosy":12009,"Ġcoz":12010,"ific":12011,"Ġpranced":12012,"ĠEsm":12013,"Ġflaming":12014,"ousers":12015,"ĠDusty":12016,"ĠDiana":12017,"ĠDylan":12018,"ĠSuki":12019,"Ġbled":12020,"Ġvow":12021,"istory":12022,"Ġgrains":12023,"ĠMaxine":12024,"antelle":12025,"ourtney":12026,"Ġthoughtfully":12027,"auce":12028,"making":12029,"Ġtran":12030,"Ġtrousers":12031,"Ġrung":12032,"Ġskates":12033,"Ġhandker":12034,"Ġsnoo":12035,"Ġsnip":12036,"ĠCoo":12037,"ĠCall":12038,"ĠCari":12039,"ĠCurry":12040,"ĠCourtney":12041,"Ġendings":12042,"Ġflowed":12043,"Ġadored":12044,"Ġadvant":12045,"Ġgrunt":12046,"Ġgranny":12047,"Ġdonate":12048,"Ġtech":12049,"Ġglory":12050,"cting":12051,"shirts":12052,"Ġremarkable":12053,"ÅĵMe":12054,"ĠPig":12055,"ĠPips":12056,"ĠPippy":12057,"Ġstormy":12058,"ĠpeopleÃ¢":12059,"iped":12060,"Ġgrounds":12061,"Ġreality":12062,"ĠGilly":12063,"ĠGorilla":12064,"ĠGlass":12065,"ĠGwen":12066,"ĠGabe":12067,"Ġunb":12068,"Ġunripe":12069,"ĠNappy":12070,"ĠNorth":12071,"Ġtrained":12072,"ĠRandy":12073,"ĠRup":12074,"ĠRoot":12075,"Ġbrew":12076,"Ġeyeshadow":12077,"Ġrainstorm":12078,"ĠrabbitÃ¢":12079,"Ġsounding":12080,"Ġruled":12081,"Ġruden":12082,"Ġdeeds":12083,"Ġarcher":12084,"ĠThink":12085,"eyed":12086,"Ġflopped":12087,"Ġperse":12088,"ĠDolp":12089,"Ġcrashes":12090,"Ġtripping":12091,"Ġfixer":12092,"ĠLetty":12093,"Ġfavorites":12094,"Ġcutter":12095,"boom":12096,"Ġdarkest":12097,"ĠEmilda":12098,"ulty":12099,"ĠKn":12100,"Ġscreec":12101,"Ġelsewhere":12102,"Ġguiding":12103,"Ġmarcher":12104,"zzle":12105,"osie":12106,"ggie":12107,"ires":12108,"Ġaccur":12109,"Ġproceed":12110,"ĠfarmerÃ¢":12111,"Ġpotions":12112,"Ġsprinted":12113,"brushes":12114,"Ġschools":12115,"ĠAlonzo":12116,"Ġfingert":12117,"onday":12118,"Ġcollections":12119,"ĠChantelle":12120,"Ġparlor":12121,"upid":12122,"Ġwildly":12123,"Ġprotects":12124,"Ġsalmon":12125,"Ġrecipes":12126,"Ġsmoothness":12127,"Ġantenna":12128,"Ġreport":12129,"Ġdisappoint":12130,"Ġpolicemen":12131,"Ġsheepish":12132,"ĠMarky":12133,"ĠBloss":12134,"ĠBlocks":12135,"Ġclasses":12136,"Ġcaps":12137,"Ġcaptiv":12138,"Ġmirrors":12139,"Ġsilky":12140,"ceptor":12141,"Ġfooled":12142,"Ġterror":12143,"Ġterrit":12144,"Ġjeweler":12145,"aware":12146,"Ġthoughtfulness":12147,"Ġcopies":12148,"Ġposters":12149,"Ġpostbox":12150,"Ġprepar":12151,"Ġpowders":12152,"ĠClimb":12153,"Ġsalads":12154,"Ġowie":12155,"Ġpersisted":12156,"Ġtraveler":12157,"Ġsneezy":12158,"Ġgracefulness":12159,"Ġcurry":12160,"Ġdusting":12161,"ĠRoar":12162,"Ġmoderation":12163,"ĠSmall":12164,"God":12165,"ĠTrouble":12166,"Ġshields":12167,"Ġjugs":12168,"Ġmailboxes":12169,"Ġaxes":12170,"Ġcompliments":12171,"ĠWillow":12172,"efr":12173,"ĠShark":12174,"Ġshortly":12175,"Ġvio":12176,"Ġexperiments":12177,"Ġunharmed":12178,"Ġpedd":12179,"Ġspirits":12180,"Ġclassrooms":12181,"Ġtwinkly":12182,"ĠCoffee":12183,"Ġambulances":12184,"Ġsteaming":12185,"ĠMissile":12186,"Ġregretful":12187,"Ġwasteful":12188,"Ġincludes":12189,"Ġequal":12190,"ĠBethany":12191,"Ġjailer":12192,"Ġdiscussion":12193,"Ġmassive":12194,"Ġeffect":12195,"ĠChirpie":12196,"Ġchallenging":12197,"ĠAnchor":12198,"Ġpeeling":12199,"Ġwondrous":12200,"Ġwrest":12201,"ĠRobot":12202,"Should":12203,"doh":12204,"Ġstinger":12205,"Ġlambs":12206,"Ġinstructor":12207,"Ġsnails":12208,"ĠRabbie":12209,"ĠJanelle":12210,"ĠGrumpy":12211,"ĠPipo":12212,"Ġentirely":12213,"Ġconfidently":12214,"Ġscrapes":12215,"Ġprojects":12216,"Ġburrows":12217,"Ġblinks":12218,"ĠExpl":12219,"Ġaffect":12220,"ĠCuriosity":12221,"Greet":12222,"Ġtyping":12223,"ĠFarley":12224,"Ġsecurely":12225,"Ġconcern":12226,"print":12227,"ĠScarlet":12228,"Ġslams":12229,"ĠPudding":12230,"pitched":12231,"Ġrefuses":12232,"ĠSquee":12233,"ĠBeef":12234,"Ġscientists":12235,"they":12236,"ĠMost":12237,"ĠMoira":12238,"ĠBrianne":12239,"Ġpuffing":12240,"ĠUpon":12241,"Ġslithering":12242,"Ġsnorts":12243,"Ġpopsicles":12244,"Ġsoul":12245,"Ġheavens":12246,"Ġmarvell":12247,"ĠAlbertina":12248,"Ġflickering":12249,"Close":12250,"ĠGoldie":12251,"Davey":12252,"ĠHarper":12253,"ĠMinty":12254,"ĠTinu":12255,"ĠDinosaur":12256,"ĠTrees":12257,"ĠTreasure":12258,"Ġlimped":12259,"Ġclutching":12260,"Ġpucker":12261,"ĠWilson":12262,"Ġsleeve":12263,"Ġdoub":12264,"ĠEdward":12265,"Ġthrilling":12266,"ĠAlfie":12267,"Ġoption":12268,"Ġoptions":12269,"ĠAya":12270,"Ġtimidly":12271,"Ġplanks":12272,"Ġprisoner":12273,"ĠCookies":12274,"Ġvolume":12275,"Ġfulfill":12276,"Ġjudged":12277,"Ġsmoothed":12278,"Ġunfolded":12279,"ĠStrongy":12280,"Ġspeechless":12281,"Ġlimping":12282,"Ġshuffled":12283,"Ġaccessories":12284,"nuts":12285,"Ġsizzle":12286,"Ġdandelions":12287,"Ġrevved":12288,"ĠAcceptor":12289,"Ġoutsmart":12290,"ĠDelight":12291,"Ġvariety":12292,"ĠCRASH":12293,"Ġsundae":12294,"ĠStretch":12295,"ĠFleck":12296,"Ġponytail":12297,"Katie":12298,"Ġgalax":12299,"Ġbristles":12300,"ĠFaith":12301,"Ġappetite":12302,"Ġacrobats":12303,"Ġsurgery":12304,"Ġbriefcase":12305,"ĠSharin":12306,"Ġrollercoaster":12307,"Ġteddies":12308,"orraine":12309,"Ġinserted":12310,"ĠBryan":12311,"ĠMustache":12312,"ĠMushroom":12313,"ĠAudrey":12314,"Ġjaguar":12315,"ĠEsmie":12316,"Ġhandkerchief":12317,"ĠPipsqueak":12318,"ĠRupert":12319,"Ġrudeness":12320,"Ġproceeded":12321,"ĠBlossom":12322,"ĠScarlett":12323,"11":12324,"?!\".":12325,"Alex":12326,"Big":12327,"Boom":12328,"Books":12329,"Beetle":12330,"Care":12331,"Claire":12332,"Duck":12333,"Ellie":12334,"Fin":12335,"Four":12336,"Five":12337,"Gina":12338,"Gabby":12339,"Kate":12340,"Milly":12341,"Pat":12342,"Pick":12343,"Pink":12344,"Poppy":12345,"Pizza":12346,"Sweet":12347,"Wo":12348,"bun":12349,"cling":12350,"cony":12351,"eers":12352,"eigh":12353,"eather":12354,"fed":12355,"fect":12356,"flies":12357,"gra":12358,"grow":12359,"gling":12360,"happy":12361,"iot":12362,"ieces":12363,"iamond":12364,"jar":12365,"like":12366,"laud":12367,"mar":12368,"okay":12369,"pair":12370,"rd":12371,"rid":12372,"sery":12373,"tes":12374,"tured":12375,"wort":12376,"Ġ7":12377,"Ġome":12378,"Ġeter":12379,"Ġtil":12380,"Ġtack":12381,"Ġtilt":12382,"Ġalph":12383,"Ġsis":12384,"Ġske":12385,"Ġwilt":12386,"Ġtoad":12387,"Ġbay":12388,"Ġbased":12389,"Ġwaft":12390,"rer":12391,"reck":12392,"reverse":12393,"Ġfate":12394,"Ġfero":12395,"itam":12396,"ĠTra":12397,"ĠTane":12398,"Ġdil":12399,"Ġdun":12400,"Ġdaught":12401,"Ġdash":12402,"eras":12403,"Ġmain":12404,"Ġpence":12405,"Ġpity":12406,"arr":12407,"arrot":12408,"arina":12409,"Ġgor":12410,"Ġgown":12411,"iders":12412,"idered":12413,"ĠSoup":12414,"ĠSaid":12415,"ĠSab":12416,"ĠSuna":12417,"ĠSora":12418,"ĠSigning":12419,"ĠSelina":12420,"att":12421,"atic":12422,"atching":12423,"enee":12424,"Ġnin":12425,"Ġsauc":12426,"orris":12427,"onk":12428,"ĠHug":12429,"ĠHouse":12430,"ĠHippy":12431,"Ġthaw":12432,"lle":12433,"Ġherd":12434,"ĠShell":12435,"otato":12436,"etime":12437,"ester":12438,"Ġinqu":12439,"ĠLaw":12440,"ĠLillie":12441,"ĠLanny":12442,"ĠLorraine":12443,"ooh":12444,"ooke":12445,"igo":12446,"iged":12447,"Ġray":12448,"Ġrakes":12449,"Ġriches":12450,"Ġstump":12451,"Ġstumbling":12452,"ĠIcy":12453,"ribut":12454,"riana":12455,"Ġplump":12456,"Ġplus":12457,"Ġsobs":12458,"ĠBar":12459,"ĠBuffy":12460,"ĠBitter":12461,"ĠBelieve":12462,"ĠBelle":12463,"ĠtheyÃ¢":12464,"star":12465,"ston":12466,"stalk":12467,"Ġweave":12468,"Ġformer":12469,"Ġforming":12470,"ĠMand":12471,"ĠMove":12472,"ĠMazzy":12473,"ĠMonday":12474,"ĠMorris":12475,"Ġshrie":12476,"Ġshaving":12477,"Ġdozing":12478,"lys":12479,"sey":12480,"Ġko":12481,"aling":12482,"alities":12483,"Ġresol":12484,"Ġresearch":12485,"ĠAma":12486,"ĠAde":12487,"ĠAstr":12488,"ĠItsy":12489,"Ġsmudge":12490,"raph":12491,"Ġsawing":12492,"Ġloser":12493,"Ġboar":12494,"Ġjuggled":12495,"Ġouter":12496,"Ġoutcome":12497,"Ġspitting":12498,"arten":12499,"artie":12500,"Ġexting":12501,"ĠWanna":12502,"oodle":12503,"Ġalas":12504,"ameleon":12505,"Ġroles":12506,"Ġtreet":12507,"ify":12508,"ĠotherÃ¢":12509,"ĠElen":12510,"Ġflushed":12511,"Ġchugged":12512,"Ġchameleon":12513,"asil":12514,"asper":12515,"ĠDepend":12516,"ĠDeedee":12517,"Ġblind":12518,"Ġscaredy":12519,"Ġvast":12520,"Ġvitam":12521,"Ġgrazing":12522,"ĠMaxwell":12523,"anting":12524,"Ġpopper":12525,"Ġprey":12526,"ĠAnnabel":12527,"Ġpeaked":12528,"Ġcatcher":12529,"Ġanybody":12530,"Ġshowered":12531,"Ġsledding":12532,"Ġslurped":12533,"ĠJog":12534,"Ġhandles":12535,"Ġclover":12536,"Ġovernight":12537,"Ġquitting":12538,"Ġeater":12539,"Ġeachother":12540,"Ġstray":12541,"Ġstrut":12542,"Ġgreed":12543,"Ġjoey":12544,"Ġlonged":12545,"ĠCane":12546,"ĠCorn":12547,"ĠCube":12548,"ĠCubby":12549,"Ġcleve":12550,"Ġclearer":12551,"Ġadjust":12552,"Ġadvert":12553,"Ġfastened":12554,"Ġgradually":12555,"urple":12556,"Ġcupped":12557,"Ġglac":12558,"Ġglinted":12559,"Ġglinting":12560,"ships":12561,"ÅĵOne":12562,"ÅĵBye":12563,"ÅĵMum":12564,"ÅĵAh":12565,"ÅĵSo":12566,"ĠPing":12567,"ĠPow":12568,"ĠPop":12569,"ĠPuffy":12570,"ĠPaco":12571,"beying":12572,"Ġdrags":12573,"ĠGu":12574,"ĠGill":12575,"ĠGert":12576,"ĠGray":12577,"ĠGently":12578,"Ġframes":12579,"Ġbedside":12580,"Ġunaware":12581,"ĠBobÃ¢":12582,"Ġhasn":12583,"Ġmaid":12584,"ĠNapping":12585,"ĠNew":12586,"iously":12587,"acher":12588,"Ġclosets":12589,"Ġtrace":12590,"ĠRad":12591,"ĠRuff":12592,"ĠRhy":12593,"ĠRena":12594,"ĠRenee":12595,"Ġbrewing":12596,"Ġdisp":12597,"Ġwonderland":12598,"Ġworkman":12599,"Ġuseless":12600,"Ġwarming":12601,"Ġsquirm":12602,"ĠThunder":12603,"Ġzone":12604,"Momma":12605,"Ġcrop":12606,"Ġcrunched":12607,"ĠLeticia":12608,"ĠmumÃ¢":12609,"Ġpartied":12610,"Ġlightbul":12611,"elyn":12612,"Ġthankfully":12613,"Ġspotless":12614,"Ġsetup":12615,"Ġstreak":12616,"Ġsnowstorm":12617,"enses":12618,"ĠKin":12619,"ĠToad":12620,"ĠTherese":12621,"ĠTheresa":12622,"Ġscreens":12623,"ĠJimy":12624,"Ġguilt":12625,"Ġwhiteboard":12626,"rows":12627,"appointed":12628,"Ġclothesline":12629,"Ġsplitting":12630,"Ġdeepest":12631,"Ġpats":12632,"Butter":12633,"iggled":12634,"Ġproven":12635,"Ġpawn":12636,"Ġstubbed":12637,"Ġfruity":12638,"Ġaccidently":12639,"Ġcollars":12640,"Ġcollage":12641,"Ġforgetful":12642,"ĠTwin":12643,"Ġstarry":12644,"Ġdesired":12645,"Ġdespair":12646,"Ġmissiles":12647,"Ġaflo":12648,"Ġobvious":12649,"Ġobedience":12650,"Ġrounded":12651,"Ġbandaid":12652,"Ġimagines":12653,"Ġmilksh":12654,"unter":12655,"Ġfanci":12656,"ĠElliot":12657,"Ġmeetings":12658,"Ġape":12659,"Ġpractise":12660,"Ġsurge":12661,"Ġprotest":12662,"Ġsuppose":12663,"Ġserves":12664,"ĠGoat":12665,"ĠGolf":12666,"Ġcalmness":12667,"Ġspreads":12668,"ĠBeartie":12669,"Ġcelebrations":12670,"Ste":12671,"Ġchicks":12672,"Ġtrustwort":12673,"Ġbalcony":12674,"ĠBrooke":12675,"ĠSusa":12676,"ĠZog":12677,"Ġshoreline":12678,"Ġvanishing":12679,"ĠmummyÃ¢":12680,"ĠBlinky":12681,"Ġwisest":12682,"Ġmotorb":12683,"Ġticked":12684,"Whose":12685,"arlon":12686,"Ġriddles":12687,"Ġaddition":12688,"ĠNod":12689,"ĠNoah":12690,"ĠBluebird":12691,"Ġcamels":12692,"Ġcameras":12693,"Ġbrilliantly":12694,"Ġtoughest":12695,"Ġhornet":12696,"Ġmeasures":12697,"ĠMarch":12698,"ĠMarcy":12699,"ĠMarianna":12700,"Ġrecordings":12701,"Ġharmonica":12702,"Before":12703,"Ġdifficulty":12704,"Ġbulls":12705,"Ġbullets":12706,"Ġrugs":12707,"Ġgrapefr":12708,"ĠCloe":12709,"Ġcactuses":12710,"Ġowlet":12711,"Ġerra":12712,"Ġerased":12713,"Ġcombs":12714,"Ġcombing":12715,"Ġtorch":12716,"Ġbeanstalk":12717,"Ġshivers":12718,"Ġguarded":12719,"Ġspeedy":12720,"Ġenvy":12721,"Ġpermitting":12722,"Ġscooted":12723,"ĠPeaches":12724,"Ġreindeers":12725,"ĠSmiles":12726,"Ġobserves":12727,"Ġpadlock":12728,"Ġviol":12729,"Ġkayaks":12730,"Ġpedalling":12731,"Ġturkeys":12732,"Ġfortune":12733,"ĠJessi":12734,"Ġapplied":12735,"Ġinsists":12736,"ĠTonya":12737,"Ġchalkboard":12738,"abet":12739,"Ġstudies":12740,"Ġigloos":12741,"ĠMeow":12742,"Ġdirector":12743,"ĠVince":12744,"ĠVito":12745,"Ġlicenses":12746,"Ġstylish":12747,"Mmmm":12748,"ĠFroggie":12749,"ĠwerenÃ¢":12750,"having":12751,"ĠAnimals":12752,"ĠJamel":12753,"ĠAdriana":12754,"Almost":12755,"ĠMadelyn":12756,"Shrink":12757,"!'\"":12758,"Ġrhythms":12759,"ĠForget":12760,"ĠPrissy":12761,"Ġteaspoons":12762,"ĠJanet":12763,"Ġuneasy":12764,"Ġoutdoor":12765,"Ġtours":12766,"Ġtourist":12767,"Ġprojector":12768,"Ġinterests":12769,"Ġwounded":12770,"Ġzigzags":12771,"ĠMonths":12772,"ĠPammy":12773,"Ġsnatches":12774,"Ġlaps":12775,"Ġwarriors":12776,"ĠMelody":12777,"ĠPole":12778,"ĠYield":12779,"ĠMilk":12780,"Ġripest":12781,"Ġdefend":12782,"ĠElin":12783,"Ġoccur":12784,"Ġbeams":12785,"Ġbruised":12786,"Ġcorrid":12787,"Ġdetail":12788,"ĠMarta":12789,"Ġencourages":12790,"ĠWinston":12791,"Ġunwell":12792,"ĠClem":12793,"Ġwriggling":12794,"Ġnuzzles":12795,"Ġnursery":12796,"Ġsouls":12797,"Ġsavoring":12798,"Ġsavored":12799,"Ġsurprisingly":12800,"Ġcollapse":12801,"Ġtingly":12802,"Ġtingling":12803,"Ġsweeping":12804,"Ġsurvived":12805,"ĠDeaf":12806,"Ġproductive":12807,"ĠGoldy":12808,"ĠGolden":12809,"ĠAngelina":12810,"ĠTini":12811,"ĠTino":12812,"ĠCroc":12813,"Ġfetches":12814,"Ġconsidered":12815,"Maria":12816,"ĠWilma":12817,"Ġfootprint":12818,"Ġtoppled":12819,"ergarten":12820,"Ġthumping":12821,"Ġfunnier":12822,"Ġharvested":12823,"Ġprivacy":12824,"ĠClarissa":12825,"Ġwhirred":12826,"Ġgrumpier":12827,"ĠBraveheart":12828,"ĠFinders":12829,"ĠSettle":12830,"ĠSteph":12831,"Â©.":12832,"Ġfists":12833,"Ġdroopy":12834,"ĠBiggs":12835,"Ġapproaching":12836,"Ġarrested":12837,"Mikey":12838,"Ġthousands":12839,"ĠLazy":12840,"Ġfluffed":12841,"ĠCookie":12842,"Ġunstuck":12843,"Ġvolunt":12844,"Ġdemonstrate":12845,"Ġexisted":12846,"Jessie":12847,"ĠKindness":12848,"Ġdescribed":12849,"Ġretrieve":12850,"Ġfifty":12851,"Ġfossils":12852,"Ġquarrelling":12853,"Maddie":12854,"Ġ911":12855,"Ġdedication":12856,"Ġricher":12857,"Ġdecrease":12858,"Ġcraziest":12859,"Ġdivided":12860,"Ġdetective":12861,"cupine":12862,"minded":12863,"Ġpesky":12864,"ĠBernie":12865,"ĠDisappointed":12866,"Ġconstantly":12867,"aculously":12868,"Ġobliged":12869,"Magic":12870,"ĠTickles":12871,"Ġunnecess":12872,"Ġlifetime":12873,"Ġjigsaw":12874,"Ġfairer":12875,"Ġimaginative":12876,"Ġfestivals":12877,"Ġannouncement":12878,"Jamie":12879,"Ġfidget":12880,"Ġkilos":12881,"Ġclambered":12882,"ĠCallie":12883,"Ġadvantage":12884,"Ġgrunted":12885,"Ġscreeched":12886,"Ġmarchers":12887,"Ġfingertips":12888,"Ġantennae":12889,"Ġsheepishly":12890,"Ġcaptivated":12891,"Ġterritory":12892,"Ġviolet":12893,"Greetings":12894,"ĠSqueeker":12895,"ĠDelighted":12896,"Careful":12897,"Ġetern":12898,"Ġalphabet":12899,"Ġskept":12900,"Ġdilig":12901,"Ġdaughters":12902,"ĠSabina":12903,"ĠMandi":12904,"Ġshrieked":12905,"ĠAdele":12906,"ĠAstrid":12907,"Ġextingu":12908,"ĠElena":12909,"ĠDependable":12910,"ĠCubey":12911,"ĠGertie":12912,"ĠRhythm":12913,"Ġlightbulb":12914,"Ġafloat":12915,"Ġtrustworthy":12916,"Ġunnecessary":12917,"'.\"":12918,"10":12919,"Ab":12920,"Bill":12921,"Bee":12922,"Beth":12923,"Buzz":12924,"Believe":12925,"CK":12926,"Cool":12927,"Count":12928,"Cindy":12929,"ES":12930,"Elephant":12931,"Fish":12932,"Jazz":12933,"Juice":12934,"Life":12935,"Luna":12936,"Miss":12937,"Nee":12938,"Over":12939,"Oink":12940,"Pass":12941,"Pretty":12942,"Paula":12943,"Ru":12944,"Rec":12945,"Right":12946,"Rosie":12947,"Sm":12948,"Sunny":12949,"Ta":12950,"Tell":12951,"Turn":12952,"Whe":12953,"Wake":12954,"Was":12955,"Yep":12956,"Yipp":12957,"Yoga":12958,"Zoo":12959,"aac":12960,"bara":12961,"because":12962,"cst":12963,"chen":12964,"came":12965,"cled":12966,"dal":12967,"dest":12968,"dough":12969,"ex":12970,"ein":12971,"fing":12972,"fying":12973,"fork":12974,"folk":12975,"glass":12976,"hh":12977,"hot":12978,"iw":12979,"ially":12980,"ikay":12981,"ibo":12982,"iwork":12983,"kward":12984,"lic":12985,"nis":12986,"net":12987,"ole":12988,"olf":12989,"odge":12990,"overs":12991,"pill":12992,"press":12993,"paper":12994,"rop":12995,"sure":12996,"sama":12997,"six":12998,"tw":12999,"there":13000,"tract":13001,"teen":13002,"use":13003,"vo":13004,"vie":13005,"xi":13006,"xie":13007,"Ġ$":13008,"Ġess":13009,"ĠÃĤ":13010,"Ġtit":13011,"Ġtad":13012,"Ġtang":13013,"Ġtiles":13014,"Ġaqu":13015,"Ġsug":13016,"Ġwiz":13017,"Ġtock":13018,"Ġbared":13019,"Ġborder":13020,"inch":13021,"incol":13022,"Ġhars":13023,"Ġhumb":13024,"Ġhilar":13025,"Ġfatter":13026,"Ġfitted":13027,"itzy":13028,"ĠTing":13029,"ĠTizzy":13030,"ĠTaz":13031,"ĠTouch":13032,"Ġcore":13033,"Ġcure":13034,"Ġcurse":13035,"Ġdut":13036,"Ġdawn":13037,"Ġdazz":13038,"erts":13039,"Ġheated":13040,"Ġmuttered":13041,"Ġpunch":13042,"Ġpoof":13043,"Ġpounce":13044,"Ġoink":13045,"Ġoars":13046,"aylor":13047,"ĠTheater":13048,"arked":13049,"arium":13050,"Ġgut":13051,"Ġgig":13052,"Ġgiddy":13053,"ĠSe":13054,"ĠSke":13055,"ĠSimb":13056,"ĠSho":13057,"ĠSeth":13058,"ĠSugar":13059,"ĠSarina":13060,"atives":13061,"ene":13062,"eness":13063,"Ġnumb":13064,"Ġnym":13065,"Ġhairst":13066,"anter":13067,"anana":13068,"imid":13069,"orations":13070,"ĠHad":13071,"ĠHome":13072,"ĠHard":13073,"ĠHarm":13074,"ĠHana":13075,"ĠHammy":13076,"ĠHalf":13077,"ĠHunter":13078,"Ġthor":13079,"Ġthirt":13080,"ĠSheila":13081,"otam":13082,"eteen":13083,"ettle":13084,"iraculously":13085,"ĠHeÃ¢":13086,"uther":13087,"ĠLass":13088,"ĠLamb":13089,"ĠLemon":13090,"ĠLala":13091,"ĠLuther":13092,"Ġecst":13093,"Ġrises":13094,"Ġbeady":13095,"ĠInt":13096,"ĠIgn":13097,"Ġsole":13098,"ĠBed":13099,"ĠBal":13100,"ĠBark":13101,"ĠBest":13102,"ĠBull":13103,"ĠBoop":13104,"ĠBern":13105,"ĠBasil":13106,"ĠBibo":13107,"Ġupstream":13108,"sther":13109,"stret":13110,"unia":13111,"unches":13112,"ĠMarlon":13113,"ĠMiraculously":13114,"ittered":13115,"Ġshaved":13116,"allory":13117,"imee":13118,"Ġwhoop":13119,"Ġwhilst":13120,"Ġkern":13121,"Ġkiw":13122,"Ġkettle":13123,"alise":13124,"Ġneared":13125,"Ġneater":13126,"Ġneighed":13127,"htaking":13128,"Ġrect":13129,"Ġrecy":13130,"ĠAce":13131,"ĠAllowed":13132,"ĠAlys":13133,"ĠAimee":13134,"Ġassist":13135,"Ġlolly":13136,"Ġlooped":13137,"ĠJa":13138,"ĠJin":13139,"ĠJia":13140,"ĠJase":13141,"Ġjiggled":13142,"illas":13143,"icola":13144,"ĠWords":13145,"ĠWolf":13146,"Ġcancel":13147,"Ġknitted":13148,"umpl":13149,"Ġcla":13150,"Ġclipped":13151,"arent":13152,"opotam":13153,"Ġscutt":13154,"Ġmanner":13155,"ureen":13156,"Ġtrek":13157,"ownie":13158,"Ġcock":13159,"Ġcoiled":13160,"ifi":13161,"Ġnewest":13162,"ĠEaster":13163,"ĠFace":13164,"ĠFab":13165,"ĠFrench":13166,"ĠFisher":13167,"ĠFifi":13168,"Ġmult":13169,"Ġhomemade":13170,"Ġlapped":13171,"ellie":13172,"achine":13173,"epeat":13174,"Ġcha":13175,"Ġchom":13176,"Ġchandel":13177,"Ġswished":13178,"ĠDarling":13179,"ĠDippy":13180,"ĠDriver":13181,"ĠDoodle":13182,"ĠSully":13183,"ustling":13184,"Ġvig":13185,"Ġvain":13186,"Ġvases":13187,"nyard":13188,"apes":13189,"arned":13190,"Ġgraze":13191,"ĠMaxÃ¢":13192,"antic":13193,"Ġpondered":13194,"Ġbuds":13195,"Ġhopper":13196,"Ġintentions":13197,"Ġintimid":13198,"ĠEverytime":13199,"Ġslurp":13200,"Ġtwirly":13201,"ĠJokes":13202,"Ġsket":13203,"Ġhandiwork":13204,"ĠJacklyn":13205,"Ġsuns":13206,"Ġwatery":13207,"anky":13208,"Ġovercoming":13209,"Ġovercame":13210,"Ġquiver":13211,"Ġexplos":13212,"Ġjustice":13213,"Ġneeding":13214,"Ġlonging":13215,"ĠAndi":13216,"Ġsnatch":13217,"Ġsnarling":13218,"uccess":13219,"ĠCake":13220,"ĠCally":13221,"ĠCass":13222,"ĠCater":13223,"ĠCream":13224,"ĠCooking":13225,"ĠConnie":13226,"ĠChocolate":13227,"ĠCasper":13228,"Ġimit":13229,"emons":13230,"Ġgrades":13231,"Ġgrouch":13232,"Ġevenly":13233,"Ġevenings":13234,"asey":13235,"asting":13236,"astle":13237,"ÅĵJack":13238,"ÅĵYum":13239,"ÅĵDaddy":13240,"Åĵhello":13241,"ÅĵLucy":13242,"ĠPro":13243,"ĠPerry":13244,"ĠPurple":13245,"obble":13246,"Ġcleanest":13247,"Ġcleaners":13248,"Ġdraped":13249,"ĠGara":13250,"ĠGear":13251,"ĠGhost":13252,"Ġturnip":13253,"Ġunc":13254,"Ġunpl":13255,"Ġuncer":13256,"Ġunsc":13257,"WhatÃ¢":13258,"ĠNee":13259,"ĠNavy":13260,"ĠNels":13261,"ĠNiki":13262,"ĠNicola":13263,"acular":13264,"ĠSpiders":13265,"ĠReddy":13266,"Ġwalker":13267,"Ġdisrupt":13268,"Ġdisbel":13269,"Ġreplies":13270,"Ġstrongly":13271,"Ġrushes":13272,"Looks":13273,"Ġcooker":13274,"Ġnighttime":13275,"Ġcontract":13276,"Ġcontribut":13277,"Ġleaked":13278,"Ġstoryteller":13279,"Ġgrasses":13280,"Ġperhaps":13281,"Ġcritter":13282,"Ġcrooked":13283,"Ġcrumpl":13284,"Ġcranky":13285,"Ġcuter":13286,"Ġmummies":13287,"Ġtastier":13288,"Ġpapercl":13289,"Ġdrips":13290,"Ġcools":13291,"Ġdelicately":13292,"Ġswimmers":13293,"Ġyellows":13294,"Ġspotting":13295,"Ġstressed":13296,"Ġslows":13297,"Ġleftover":13298,"Ġleftovers":13299,"Ġsnowed":13300,"ĠKari":13301,"ĠKnow":13302,"ĠKai":13303,"Ġrelatives":13304,"ĠTooth":13305,"Ġgentler":13306,"Ġbreakable":13307,"Ġfighter":13308,"ĠMollyÃ¢":13309,"ĠmotherÃ¢":13310,"applaud":13311,"ĠAmyÃ¢":13312,"Ġmeters":13313,"Ġtailor":13314,"ĠFlip":13315,"osquito":13316,"ĠAllig":13317,"Ġsecured":13318,"Ġbarnyard":13319,"Ġchoked":13320,"lessly":13321,"olice":13322,"Ġattent":13323,"Ġpotential":13324,"ĠEmmaÃ¢":13325,"Ġpacks":13326,"ĠWhale":13327,"Ġbenef":13328,"Ġsecretly":13329,"Ġnaughtiness":13330,"Ġphra":13331,"Ġmats":13332,"Ġwars":13333,"ĠAlma":13334,"together":13335,"Ġhopeless":13336,"ĠEllen":13337,"Ġeasiest":13338,"Ġsharpen":13339,"Ġspinner":13340,"ĠChoose":13341,"Ġvillages":13342,"Ġpathways":13343,"Ġhonor":13344,"Ġwildebe":13345,"eena":13346,"Ġdials":13347,"ĠStory":13348,"ĠAnnalise":13349,"Josh":13350,"JoJo":13351,"Ġrecently":13352,"ĠLego":13353,"Ġtidier":13354,"ĠBean":13355,"olding":13356,"Ġpawed":13357,"Ġsprayer":13358,"Ġpleading":13359,"Ġcannon":13360,"Ġreporter":13361,"Ġstrands":13362,"Ġpinec":13363,"Ġcrosses":13364,"ĠZap":13365,"Ġmysteriously":13366,"Ġmedicines":13367,"ĠDonny":13368,"Ġpoorly":13369,"Ġprized":13370,"ĠBlake":13371,"ĠBlood":13372,"Ġdestr":13373,"Ġchewy":13374,"Ġteammates":13375,"Ġrelaxes":13376,"Ġaddressed":13377,"Ġangle":13378,"Ġangles":13379,"works":13380,"ĠUgly":13381,"ĠSnake":13382,"ĠSnuffy":13383,"Ġawkward":13384,"ĠMarla":13385,"ĠMario":13386,"ĠMargo":13387,"Ġfoolishly":13388,"Ġwands":13389,"Ġpiling":13390,"Bees":13391,"Ġgrownup":13392,"Ġfourteen":13393,"Ġbullet":13394,"Ġparrots":13395,"jects":13396,"Ġfragrance":13397,"Ġposted":13398,"Ġcharity":13399,"Ġmemorable":13400,"ĠClub":13401,"ĠFranny":13402,"ĠDancing":13403,"Ġlowers":13404,"Ġowe":13405,"Ġerasers":13406,"Ġsniffling":13407,"Ġhippopotam":13408,"Ġauntie":13409,"Ġquestioning":13410,"Ġfriendships":13411,"reams":13412,"Ġanxiously":13413,"ĠRod":13414,"ĠRosy":13415,"Ġsurfers":13416,"Ġphotog":13417,"ĠTrudy":13418,"Ġsupports":13419,"Ġhungrily":13420,"creams":13421,"Ġtennis":13422,"Ġporcupine":13423,"ĠRubber":13424,"keletons":13425,"ĠShop":13426,"ĠSharon":13427,"ercise":13428,"Ġdesserts":13429,"Ġtoilets":13430,"Ġspiral":13431,"Ġbreathtaking":13432,"Ġbuzzes":13433,"ĠBunbun":13434,"Ġfishers":13435,"Ġfishermen":13436,"ĠStealing":13437,"Ġpruning":13438,"Ġcheeky":13439,"Ġsprinkling":13440,"Ġjournals":13441,"Ġkingdoms":13442,"Ġblender":13443,"Ġbleated":13444,"Ġhelicopters":13445,"Ġgrills":13446,"Ġimprovement":13447,"Ġdestinations":13448,"Ġrecommendations":13449,"Ġjunkyard":13450,"Ġsubmar":13451,"Ġsubtract":13452,"Ġsubjects":13453,"Ġremaining":13454,"ĠVera":13455,"Ġhesitate":13456,"ĠGoodnight":13457,"Ġrowboat":13458,"Ġwarns":13459,"Ġbills":13460,"Ġbillboards":13461,"Ġflooding":13462,"Spray":13463,"ĠAdventure":13464,"Show":13465,"Ġpitchfork":13466,"Ġspaceships":13467,"Ġeighteen":13468,"Ġgreeting":13469,"arence":13470,"Ġzigzagged":13471,"ĠWednesdays":13472,"Ġbooms":13473,"peat":13474,"ĠMonster":13475,"ĠChristine":13476,"ĠCherie":13477,"Ġpouts":13478,"Ġthreatening":13479,"ĠMaureen":13480,"ĠPlop":13481,"ĠGreene":13482,"Ġastound":13483,"ĠSparkles":13484,"ĠYouth":13485,"Ġgleefully":13486,"ĠSplodge":13487,"Ġconnection":13488,"Ġarranging":13489,"ĠScreen":13490,"ĠElise":13491,"Ġreassure":13492,"ĠListening":13493,"Ġmerrily":13494,"ĠSimone":13495,"ĠDrop":13496,"Fox":13497,"Ġmastered":13498,"ĠSky":13499,"ĠSmoking":13500,"ĠMoley":13501,"ĠFireworks":13502,"Ġpuffed":13503,"Ġwrinkly":13504,"Ġgaps":13505,"ĠAnya":13506,"Ġgestured":13507,"Ġtweeting":13508,"ĠRocker":13509,"ĠSalad":13510,"Ġstumbles":13511,"Ġsoothe":13512,"Ġlocation":13513,"Ġmarveling":13514,"Ġflicker":13515,"Ġflickered":13516,"Ġdumping":13517,"Ġrelying":13518,"Ġscribble":13519,"ĠDebbie":13520,"ĠPeepers":13521,"Ġopportunities":13522,"Ġbeavers":13523,"Ġplaydough":13524,"ĠPetunia":13525,"Ġhuh":13526,"Ġhunts":13527,"Ġswatted":13528,"Ġsquawking":13529,"ĠDino":13530,"ĠLucia":13531,"Ġjingled":13532,"ĠNathaniel":13533,"Ġmajesty":13534,"Ġdevoured":13535,"Ġcrisp":13536,"March":13537,"Ġpostcards":13538,"True":13539,"ĠGoosey":13540,"Ġechoes":13541,"Freddy":13542,"Ġyelps":13543,"Ġhandyman":13544,"Ġadopted":13545,"ĠSwimmy":13546,"Ġsouvenirs":13547,"ĠSeto":13548,"Ġproduced":13549,"ĠVolcanoes":13550,"check":13551,"Ġassured":13552,"Ġchattering":13553,"Ġtownsfolk":13554,"ĠChicken":13555,"Ġcroaks":13556,"Ġcigarettes":13557,"ĠDinah":13558,"Ġshoelace":13559,"Ġtradesman":13560,"ĠChomper":13561,"Ġhorrified":13562,"Ġtons":13563,"Ġtraders":13564,"Ġtradition":13565,"Ġsquealing":13566,"Ġfulfilled":13567,"ĠPancake":13568,"ĠGene":13569,"ĠNearby":13570,"Blue":13571,"Peace":13572,"Ġsummit":13573,"Ġrumm":13574,"Ġneglected":13575,"Ġsunburn":13576,"Ġdescribe":13577,"Ġretrieved":13578,"ĠTrixie":13579,"Annie":13580,"Ġtender":13581,"Ġdaydreaming":13582,"ĠForest":13583,"Ġcommands":13584,"ĠGreta":13585,"ĠGretchen":13586,"Ġunzip":13587,"Ġunzipped":13588,"ĠDaniella":13589,"ĠDanielle":13590,"Ġclumsily":13591,"Ġsimilar":13592,"Ġloosen":13593,"Ġjersey":13594,"Ġlazily":13595,"Ġswerve":13596,"Ġmisbehave":13597,"ĠCrocodile":13598,"Ġcavity":13599,"ĠRespect":13600,"Ġvacuum":13601,"Brownie":13602,"Snowy":13603,"Ġidentify":13604,"Ġheeded":13605,"ĠAmerica":13606,"Ġboasted":13607,"ĠJesus":13608,"Ġspectacular":13609,"ĠCrystal":13610,"Ġcowgirls":13611,"Ġcroissant":13612,"Ġoohed":13613,"Ġsample":13614,"Ġseventeen":13615,"Ġvows":13616,"ĠKnives":13617,"ĠClimbing":13618,"Ġpeddled":13619,"Woah":13620,"Ġomelet":13621,"Ġtilts":13622,"Ġwafted":13623,"Ġferocious":13624,"Ġgorillas":13625,"Ġnineteen":13626,"ĠHugo":13627,"ĠBarbara":13628,"Ġvitamins":13629,"Ġfanciest":13630,"Ġmotorbike":13631,"Ġgrapefruit":13632,"Ġvolunteer":13633,"Ġeternity":13634,"Ġskeptical":13635,"Ġdiligently":13636,"Ġextinguisher":13637,"Yippee":13638,"dalene":13639,"ikayla":13640,"Ġaquarium":13641,"Ġsugary":13642,"Ġwizards":13643,"incoln":13644,"Ġhilarious":13645,"Ġgigantic":13646,"ĠSkelly":13647,"ĠSimba":13648,"Ġnymph":13649,"Ġhairstyle":13650,"antern":13651,"ĠHarmony":13652,"Ġthirteen":13653,"ĠLassie":13654,"Ġecstatic":13655,"ĠIntrigued":13656,"ĠBernard":13657,"Ġkernels":13658,"Ġkiwi":13659,"ĠFabian":13660,"ĠCaterpill":13661,"Ġgrouchy":13662,"Ġuncertain":13663,"Ġunscrew":13664,"ĠNeeNee":13665,"ĠNelson":13666,"Ġdisbelief":13667,"ĠKnowing":13668,"osquitoes":13669,"Ġwildebeest":13670,"Ġhippopotamus":13671,"Ġsubmarine":13672,"!,\"":13673,"?'.":13674,"AR":13675,"AT":13676,"Bet":13677,"Banana":13678,"Cle":13679,"Cook":13680,"Drink":13681,"Ele":13682,"Hide":13683,"Hope":13684,"Liz":13685,"Lucky":13686,"Luke":13687,"Lemon":13688,"Mil":13689,"Mart":13690,"Mother":13691,"Moon":13692,"Math":13693,"Making":13694,"Merry":13695,"Marry":13696,"Number":13697,"Nana":13698,"Neigh":13699,"Ol":13700,"PL":13701,"Pow":13702,"Park":13703,"Pop":13704,"Phew":13705,"People":13706,"Riley":13707,"Ribbit":13708,"Sl":13709,"Sit":13710,"Sir":13711,"Sound":13712,"Soup":13713,"Te":13714,"Ted":13715,"Tre":13716,"Taste":13717,"Willie":13718,"Zara":13719,"Zoe":13720,"Zero":13721,"ald":13722,"afe":13723,"aves":13724,"abbed":13725,"bag":13726,"cra":13727,"eight":13728,"gies":13729,"gosaurus":13730,"hill":13731,"iful":13732,"iqu":13733,"ius":13734,"justed":13735,"juice":13736,"kio":13737,"lture":13738,"liest":13739,"may":13740,"mill":13741,"mate":13742,"mine":13743,"match":13744,"nched":13745,"od":13746,"oids":13747,"olyn":13748,"pat":13749,"pher":13750,"pop":13751,"pool":13752,"pany":13753,"piece":13754,"rud":13755,"ralled":13756,"test":13757,"table":13758,"tails":13759,"uer":13760,"when":13761,"wood":13762,"who":13763,"whee":13764,"yy":13765,"yum":13766,"yers":13767,"yman":13768,"zer":13769,"Â«":13770,"Â±":13771,"Â»":13772,"Ġ.":13773,"Ġ?\"":13774,"hever":13775,"Ġack":13776,"Ġaro":13777,"Ġached":13778,"Ġaye":13779,"Ġsen":13780,"Ġsons":13781,"Ġsouth":13782,"Ġwit":13783,"Ġtoot":13784,"Ġburp":13785,"Ġbumble":13786,"Ġhull":13787,"Ġhire":13788,"Ġwary":13789,"Ġwadd":13790,"Ġwaggy":13791,"Ġwading":13792,"rep":13793,"repeat":13794,"Ġfain":13795,"Ġfished":13796,"ourage":13797,"itz":13798,"ĠTag":13799,"ĠTilda":13800,"ĠTaylor":13801,"Ġlat":13802,"Ġlunged":13803,"Ġcert":13804,"Ġdu":13805,"Ġdim":13806,"Ġdizz":13807,"Ġdying":13808,"Ġdense":13809,"erful":13810,"Ġmid":13811,"Ġment":13812,"Ġmour":13813,"Ġpry":13814,"Ġpest":13815,"Ġpoun":13816,"Ġpoop":13817,"Ġpooped":13818,"omile":13819,"isitive":13820,"Ġgel":13821,"ĠSit":13822,"ĠSat":13823,"ĠSel":13824,"ĠSink":13825,"ĠSchool":13826,"ĠSauce":13827,"Ġnug":13828,"Ġnav":13829,"anma":13830,"orget":13831,"organ":13832,"orus":13833,"orman":13834,"ĠHay":13835,"ĠHim":13836,"ĠHive":13837,"ĠHours":13838,"ĠHalley":13839,"ĠHigher":13840,"lley":13841,"leop":13842,"iration":13843,"irates":13844,"ĠHearing":13845,"ĠTheyÃ¢":13846,"esha":13847,"Ġins":13848,"Ġinit":13849,"Ġinner":13850,"owers":13851,"ĠLady":13852,"ĠLinny":13853,"ĠLemons":13854,"ĠLincoln":13855,"Ġyolk":13856,"igan":13857,"Ġripping":13858,"Ġrasp":13859,"amon":13860,"ament":13861,"amilla":13862,"amomile":13863,"Ġbellowed":13864,"Ġstuffy":13865,"cey":13866,"ceful":13867,"rike":13868,"ricket":13869,"rified":13870,"Ġplunged":13871,"ĠBA":13872,"ĠBE":13873,"ĠBes":13874,"ĠBly":13875,"ĠBurt":13876,"ĠBul":13877,"ĠBathing":13878,"Ġplayset":13879,"Ġplaymates":13880,"stack":13881,"Ġwee":13882,"Ġforked":13883,"Ġforces":13884,"eli":13885,"unes":13886,"ĠMc":13887,"ĠMed":13888,"ĠMal":13889,"ĠMuck":13890,"ĠMister":13891,"ĠMerry":13892,"ĠManny":13893,"ĠMica":13894,"ĠMurray":13895,"ĠMitzy":13896,"ĠMallory":13897,"ĠMachine":13898,"ĠMikayla":13899,"ented":13900,"Ġshift":13901,"alls":13902,"Ġwhic":13903,"althy":13904,"Ġreas":13905,"Ġreins":13906,"Ġrecept":13907,"Ġrenew":13908,"Ġrearr":13909,"Ġsmudged":13910,"Ġsmashing":13911,"Ġloot":13912,"Ġloaf":13913,"Ġlooser":13914,"Ġbobbing":13915,"ĠJump":13916,"ĠJunior":13917,"Ġareas":13918,"Ġoutstret":13919,"Ġspec":13920,"Ġspooked":13921,"urora":13922,"ĠWine":13923,"ĠWopsy":13924,"ĠWanda":13925,"ĠWatching":13926,"Ġcancell":13927,"Ġclimber":13928,"Ġnoddle":13929,"oper":13930,"Ġaltogether":13931,"Ġscoring":13932,"Ġseeming":13933,"ssy":13934,"Ġmakeover":13935,"ddies":13936,"ĠMoments":13937,"ificate":13938,"ĠEnt":13939,"ĠEager":13940,"ĠEsther":13941,"ĠFun":13942,"ĠFood":13943,"ĠFive":13944,"ĠFunny":13945,"ĠFeather":13946,"ĠthenÃ¢":13947,"achute":13948,"Ġflitting":13949,"Ġchart":13950,"Ġchap":13951,"Ġchilli":13952,"Ġchief":13953,"Ġchurned":13954,"Ġchanting":13955,"Ġchorus":13956,"Ġchamomile":13957,"qui":13958,"Ġswell":13959,"pler":13960,"plash":13961,"Ġeverytime":13962,"ĠDing":13963,"ĠDilly":13964,"ĠDanger":13965,"ĠDiamond":13966,"ĠDreams":13967,"ĠSuch":13968,"Ġblister":13969,"Ġfinder":13970,"Ġvess":13971,"Ġviv":13972,"Ġgrave":13973,"Ġpod":13974,"Ġpoet":13975,"Ġpods":13976,"ĠSol":13977,"Ġbuddies":13978,"bbage":13979,"Ġhobby":13980,"mail":13981,"Ġslim":13982,"Ġrunway":13983,"Ġrunny":13984,"ĠJoel":13985,"ĠJolly":13986,"Ġsunhat":13987,"Ġsunbe":13988,"Ġmoist":13989,"Ġclogged":13990,"Ġoveralls":13991,"geon":13992,"Ġpicky":13993,"akers":13994,"Ġgrease":13995,"ĠThenry":13996,"izer":13997,"Ġjoll":13998,"Ġlongingly":13999,"ĠbearÃ¢":14000,"Ġsnore":14001,"Ġsnored":14002,"Ġsnores":14003,"oughly":14004,"orting":14005,"Ġuntidy":14006,"ucation":14007,"ĠCart":14008,"ĠCop":14009,"ĠComet":14010,"ĠCaut":14011,"ĠCont":14012,"ĠCongratulations":14013,"ĠCasey":14014,"ĠCastle":14015,
[...]
